#version: 0.2
. .
i n
e r
a n
r e
o n
e n
a t
a r
s t
.. .</w>
l e
o r
a l
s .</w>
i t
.. .
o u
c h
t h
e l
i c
e s
e d
in g
r o
i s
r a
' s</w>
i l
in g</w>
e d</w>
u n
c o
s h
r i
e .</w>
l o
l a
t i
s e
d e
u >
s ,</w>
c k
l i
a m
s i
- -
o o
y .</w>
a d
en t
u r
e t
a s
g h
m a
< /
at i
m e
i r
n o
a b
m p
o l
< u>
a p
s p
e ,</w>
u l
a c
d i
c on
w h
e r</w>
t er
an d
y ,</w>
s u
m o
e s</w>
s ?</w>
a g
v er
r u
t o
q u
ed .</w>
b o
b u
t e
o n</w>
- -</w>
p er
n e
f f
h e
d o
al l
m m
b e
i d
m an
p o
ing .</w>
h o
er .</w>
t .</w>
on .</w>
v e
p ro
a y
e x
c e
el l
f i
1 0</w>
a k
s o
c t
gh t
ic k
</ u>
g o
. "</w>
w e
l u
s c
p re
d er
m ar
ar d
s ...</w>
g u
1 1</w>
1 2</w>
f or
y ?</w>
r an
v i
ou n
a u
p h
e ?</w>
a l</w>
a .</w>
n i
u ></w>
</ u></w>
ati on
il l
c u
m b
e s.</w>
ou r
s !</w>
p e
l e</w>
an t
c i
in '</w>
es ,</w>
t ra
m ent
m i
d is
v e</w>
a ck
er ,</w>
ed ,</w>
d .</w>
f u
1 3</w>
s s
g e
o p
a st
g i
m in
y -
ar t
w or
m on
u t
h i
it i
ing ,</w>
a re
h er
f e
! !</w>
th er
k e
en d
... .</w>
1 4</w>
le .</w>
l y</w>
d u
th e
... ?</w>
p i
g ra
an c
a v
ti on
t a
o k
? !</w>
y ou
in t
ch e
a h
j u
w a
y ...</w>
or t
j o
m at
1 5</w>
s a
u p
o t
l in
co mp
a ,</w>
y !</w>
er s</w>
e st
t t
s on
m u
w n
ou t
en c
a n</w>
ing ?</w>
e -
en t</w>
c ar
t w
h u
c re
u re
b i
1 6</w>
h a
an g
sp e
b er
st e
j e
d ,</w>
s k
al i
m or
s er
p p
le s
is h
f re
at h
c or
g r
s el
in '
ati on</w>
e v
es ?</w>
e ...</w>
e !</w>
m .</w>
g re
g g
at e</w>
m is
1 7</w>
s w
p ar
s y
l an
f t
no w
ed ?</w>
in k
	 	
lo w
m er
es s
y e
y o
b le
b ar
ap p
f ul
sh i
b re
al .</w>
oo d
i mp
ou s
d re
p r
o re
i '
i n</w>
d on
y 's</w>
er ?</w>
t ,</w>
p la
co l
at t
v en
p u
a t</w>
1 8</w>
c ra
l l</w>
d a
un der
h h
i z
g n
f in
er s.</w>
b ro
c an
b ur
r y
on ,</w>
o m
i st
a ir
an d</w>
a ch
sh o
o ver
co m
c la
e 's</w>
c a
en .</w>
o ff
it t
s ch
o .</w>
s ur
n es
2 1</w>
th ing
co mm
in ter
v el
po s
e p
d es
b b
ou l
wh at
le d</w>
h ar
b r
o r</w>
it ch
c lo
w i
oun d
l y
d d
1 9</w>
so me
as s
p a
le ,</w>
ati on.</w>
</u> .</w>
2 0</w>
yo u</w>
st i
si on
re n
t r
c ti
b oo
a ?</w>
1 0
p le
d el
th at
s t</w>
an .</w>
s e</w>
an n
ac t
t ri
le t
in .</w>
. .</w>
l at
2 2</w>
m ,</w>
ic i
c le
a w
st er
' ll</w>
w ell
r on
m il
? "</w>
s en
k .</w>
... i</w>
v is
t ru
st u
in c
g en
f ri
2 5</w>
. '</w>
' t
w ar
v e.</w>
or i
o f
e n</w>
ab le</w>
or .</w>
l y.</w>
es ...</w>
b ra
b a
e ver
b el
ing ...</w>
ro w
l and
g in
c k</w>
c at
b ack
z z
w al
o b
fu ck
f a
2 4</w>
t ur
r e</w>
r at
on e
c oun
t re
it y</w>
d ay
b or
l on
ch ar
an y
p at
l ic
he ad
ou s</w>
g ar
w it
h al
es t</w>
e le
s ...
d ra
t ran
b la
u h
sel f
k now
h un
er 's</w>
all y</w>
2 3</w>
' s.</w>
t u
r is
ing !</w>
h and
ed ...</w>
p ol
in d
g a
f er
d g
ch i
c ap
b ri
an k
al ,</w>
v ic
st .</w>
p .</w>
d y
p ri
n a
le s</w>
h or
h el
bu t
1 9
r it
v o
p en
f ran
ch o
an ,</w>
et t
c h</w>
, "</w>
ti m
th e</w>
a -
w il
w at
t on
st ar
h ol
" .</w>
i ght
0 0
ou gh
ma n</w>
g er
c tion
i t</w>
en ,</w>
at ed</w>
a f
s m
le ?</w>
d ?</w>
o h
n u
g ood
2 7</w>
.. ..
p art
oo l
o ,</w>
l ar
i s</w>
es !</w>
e m
c ur
re s
c al
bu t</w>
a a
u s
lo o
c am
b al
at or
2 6</w>
! !!</w>
un n
t al
i m
h oo
wor k
si d
l y,</w>
f la
' t</w>
' re</w>
st ra
it y.</w>
d am
d -
c ent
w el
th re
re .</w>
on ?</w>
ed !</w>
d ic
ar i
t s</w>
su b
s al
t y
le g
in ,</w>
i gh
e f
ch .</w>
w ard
se s</w>
no t
lo ok
ic .</w>
de r</w>
b on
b en
</u> ,</w>
pre s
p lan
m c
in n
e k
c er
b ul
2 9</w>
wh er
th ir
s qu
ri ght
lo g
con t
su per
m y
in e</w>
c ro
an t</w>
k i
er i
b ab
w ay
p or
n am
ma y
h y
e ar
e ...
t en
st at
n .</w>
g et
er ...</w>
b all
u m
t or
s la
p et
m en
l ing</w>
h app
f ac
c au
3 0</w>
" ?</w>
v il
v ent
st ,</w>
s n
s ay
m ent</w>
it .</w>
f ic
an ce
3 1</w>
' s
ti me
st r
st and
c ru
c li
wh o
st o
qu i
man .</w>
d r
? ?</w>
v al
si x
ni ght
k e</w>
h on
h am
f ore
c e</w>
c as
v e,</w>
ti on</w>
s le
m ed
k in
k id
for t
er !</w>
do wn
d ar
s we
s or
ro l
ne w
g .</w>
d en
at ing</w>
an i
a r</w>
? ...</w>
-- i</w>
st ru
p sy
oul d
m et
m ad
bo d
ation ,</w>
a !</w>
3 2</w>
st or
s ol
s e.</w>
s '</w>
p t
o c
n in
g ir
f un
er s,</w>
s at
ment .</w>
lo ck
li ght
it 's</w>
ic al</w>
en ce
an ?</w>
ta in
on s</w>
o w
f ar
e mp
c ri
b il
y es
sh e
s co
me an
e z
d ...</w>
ch a
c our
c lu
at e.</w>
anc e</w>
</ i
... i'
v ol
th .</w>
t -
se ,</w>
p ort
le s.</w>
l en
j ack
in' .</w>
hi m
ent .</w>
' d</w>
' .</w>
! ?</w>
t h</w>
sh it
ou s.</w>
o per
n ic
for m
f el
f at
d ro
ct or
con f
3 5</w>
- b
z i
ye ar
ul t
p ra
o -
l ou
fu l</w>
f ol
a d</w>
... "</w>
st ri
si gn
s si
re ad
n or
il i
i -
g or
fi re
f le
d s</w>
b ir
</u> ...</w>
t oo
st re
on e</w>
m ur
m as
la w
gh t</w>
g ro
a ...</w>
3 8</w>
3 7</w>
w er
ter .</w>
te mp
se ?</w>
s in
les s</w>
le r</w>
it h
in e.</w>
g e</w>
g -
e y
ag e</w>
3 6</w>
3 4</w>
2 8</w>
y our
l or
k ,</w>
is t</w>
i .</w>
hi gh
f our
f oo
ever y
d ri
d e</w>
</u> !</w>
</i ></w>
v es</w>
un i
tw ent
th ink
t ?</w>
sc re
re ,</w>
r y</w>
m al
ju st
it u
ing s</w>
fri end
ab le.</w>
1 4
y s
jo h
ho w
gr and
ex p
d !</w>
b at
ar d</w>
< i
... wh
x .</w>
w on
t ed</w>
re st
p ,</w>
mo ther
m e</w>
m ?</w>
l un
f ro
f o
ck .</w>
a 's</w>
<i >
wa it
w in
v ir
u s</w>
th is
t ak
r ic
n er
en ti
ar y</w>
1 5
... you</w>
ye ah
s ing
re d</w>
p s</w>
i on
hal f
h ou
f ra
c t</w>
c is
ation ?</w>
at ed.</w>
a s</w>
1 6
v er</w>
st en
spe ct
s un
re l
p ic
k no
i c</w>
fi ft
el .</w>
e w
ation s</w>
ard .</w>
ar .</w>
3 3</w>
th o
si on</w>
pro f
p ay
n on
mm mm
i mm
et .</w>
e g
b le</w>
an ti
al ?</w>
a ff
... and</w>
tur n
to n</w>
spe ci
s am
qu est
o ?</w>
man ,</w>
ma g
m el
gh t.</w>
g an
en g
ch il
c are
al s</w>
3 9</w>
ve ?</w>
tran s
sp on
pr is
p ur
n n
j am
is h</w>
i l</w>
g la
b y
ar m
</u> ?</w>
! ...</w>
y '
wh i
si st
s an
ri st
p per
or ,</w>
li fe
k s</w>
ic ,</w>
h ur
gir l
d or
c y
bre ak
b it
w as
u m</w>
ti on.</w>
t in
p ul
nes s</w>
j er
j a
g ri
f am
d ou
ch ,</w>
c ul
1 8
y ...
si de
s --</w>
pla y
p ho
p as
ou t</w>
le ...</w>
it y,</w>
i gn
gra ph
g un
enc e</w>
e th
e l</w>
ce p
c e.</w>
b ru
b et
ap pe
an o
al l</w>
z e</w>
ur e</w>
that 's</w>
t ro
se s.</w>
s s</w>
n 't
m it
iti on
i de
h ard
d in
col le
all y.</w>
ad d
thir t
t o</w>
s ."</w>
s --
po int
h .</w>
f il
en ?</w>
e t</w>
di st
d ick
co ver
as k
a in
4 3</w>
2 0
- w
ser v
sc i
s on.</w>
s li
r ing
qu ot
p in
on e-
mi st
m ou
le !</w>
f ir
e u
e --
b lu
b ed
an t.</w>
4 1</w>
' ve</w>
" ...</w>
x i
w ant
w .</w>
sk i
s on</w>
s and
re g
mar k
m ul
m s</w>
m id
k en
j un
j an
g ,</w>
er ic
di ff
c ou
c ab
bel i
b l
anc e.</w>
4 2</w>
' s,</w>
! "</w>
u p</w>
su re
ro b
ph il
p ut
o !</w>
mo re
m -
lo y
is s
in -
ic s</w>
i d</w>
go d
ex per
e mb
di d
coun t
bo y
b ill
an s</w>
ag e.</w>
ac c
ab il
w o
th or
sho w
s il
ro om
n ,</w>
me mb
le s,</w>
la u
l ing
happ en
fi el
et ,</w>
d ing</w>
bla ck
b .</w>
twent y-
th ,</w>
tal k
st ?</w>
s mo
le y</w>
le d.</w>
is ,</w>
in' ,</w>
id ent
g oo
f lo
do w
b e</w>
b an
at .</w>
a se
... no
wit h
ve s.</w>
r un
p ack
k ill
it e</w>
in ve
ex c
ed u
c ir
at e
4 4</w>
1 7
-- --
- up
wat ch
wal k
w is
v a
t ure
so ci
si on.</w>
sh .</w>
p un
p il
ment ,</w>
it ,</w>
he art
gh ter
g ran
g am
el li
d ru
cti on</w>
che ck
c all
be au
are n
4 0</w>
0 .</w>
wa y</w>
w rit
w ill
u s.</w>
t ar
t !</w>
st ro
shi p
se x
s ak
r y.</w>
p e</w>
ou s,</w>
n ut
n ick
n -
mil li
li v
l .</w>
i f</w>
i f
g ent
el y</w>
di re
d ol
ck et
boo k
b and
ar ch
- h
' ?</w>
ve -
ther e
re d
p al
ne ed
lo gi
je ct
ic e
her e
fat her
f lu
es s</w>
enc e.</w>
ch in
c ast
bu tt
bo w
b loo
b ag
ap pro
am p
all y,</w>
? '</w>
... !</w>
z e
z .</w>
w e</w>
t ou
s h</w>
re spon
ple as
per son
p lu
ou ght
or s</w>
oo oo
on e.</w>
o wn
n at
man ?</w>
ma k
le y.</w>
it s</w>
in st
il .</w>
ho me
g al
d e.</w>
comm un
b un
am eric
5 0</w>
. ]</w>
, 00
you 're</w>
w ood
vi ew
v ed</w>
ter s</w>
t ick
sh ort
sc ri
s lo
s ic
re li
ran g
ma c
m ic
j es
i re
i ,</w>
hun dre
ho w</w>
he ar
gen er
el ,</w>
e ff
di v
d ed</w>
bu ck
b ell
b ad
ation s.</w>
al s.</w>
... the</w>
wor l
wh it
we ek
ve n</w>
under stand
ti c</w>
th ous
t s.</w>
t ing</w>
ro o
qu ar
p an
ok ay
o '
n ar
ment s</w>
m ...</w>
k il
h av
h an
g h</w>
f f</w>
e as
dre am
d s.</w>
d at
c in
c ess
ar ,</w>
af ter
ad .</w>
ac k</w>
5 1</w>
-- wh
- a-
y ing</w>
v it
th at</w>
te st
t ...</w>
su pp
su ck
sh ar
ser i
se ven
p ass
or ?</w>
n y
m y</w>
lon g
li sten
la .</w>
l it
in s</w>
in ?</w>
f act
ent ,</w>
de ,</w>
ch u
c e,</w>
bul l
au to
al ...</w>
a si
a sh
a .
4 8</w>
4 5</w>
& quot
	 *</w>
ve ...</w>
to wn
to r</w>
th is</w>
ter ,</w>
t ell
st op
sp ort
se cre
re as
r ick
pe op
p s.</w>
o v
mis s
it y
is m</w>
ing s.</w>
id .</w>
h ell
g at
f ur
f low
ele ct
e ight
e e
e at
d 's</w>
co ck
b ath
b as
ar y.</w>
4 6</w>
-- you</w>
-- and</w>
	 	</w>
ver s
th u
th ank
te le
st ick
sp ac
si r
self -
se tt
s ul
s av
no thing
mar ri
m s.</w>
m e.</w>
k e.</w>
in s.</w>
i ...
ha ir
h ous
h at
g ?</w>
ful .</w>
f li
f ing
f air
ed i
de ad
d o</w>
d ad
co p
bur g
ard ,</w>
ap o
ant ,</w>
an s.</w>
an ...</w>
2 7
...i' m</w>
-- the</w>
- of
won der
th r
t y</w>
se vent
re memb
ra p
pro du
pre sid
p ap
o 's</w>
nes s.</w>
mur der
l l
k ing</w>
k ?</w>
ju st</w>
joh n
in ed</w>
h en
g ol
g e.</w>
f av
es sion
en ...</w>
don 't</w>
de s</w>
ch ang
c .</w>
bur n
bu sin
at es</w>
ali z
al y
ag e
a z
a m</w>
' n</w>
ver .</w>
ure .</w>
sle ep
sh ot
sh el
s o</w>
s ;</w>
ro ck
ple ase
p ?</w>
on 's</w>
lo ve
lo ad
les s.</w>
l er
hou se
f ast
es s.</w>
do or
de f
d un
d an
ch ick
ch ?</w>
ce i
ard ?</w>
4 7</w>
. 	
v ing</w>
thre e-
te en
st s</w>
sp ir
sh ut
sh op
sh oo
sch ool
s ou
s lu
ra di
pu b
pos iti
ph on
p lat
p l
p ick
on s.</w>
o ther
ment s.</w>
me n</w>
man i
m un
m ill
m am
le ss
le ad
is ?</w>
il e</w>
i' m</w>
half -
gre en
go dd
g s</w>
f l
et ?</w>
er s?</w>
ent er
el i
cti on.</w>
cro ss
con d
co ok
ck ?</w>
ck ,</w>
bu il
am in
all y
ag e,</w>
a le
a de
4 9</w>
0 0</w>
... but</w>
x ,</w>
tw o-
tion ,</w>
the m
th ing</w>
t ol
su ff
st art
sh er
s ed</w>
re al
re -
pro te
pres ent
pre ss
pos si
oun d</w>
ne g
me r</w>
m es
le t</w>
l er.</w>
h one
h ill
exper i
dre ss
do min
del i
d y</w>
ct ed</w>
co mb
c t.</w>
c ry
c ould
c lar
c ed
bro ther
ar e</w>
ah .</w>
ag re
ag ain
5 7</w>
2 6
' s?</w>
" ,</w>
w oo
tim e</w>
th ought
th i
ta il
t ch
sp i
son ,</w>
so ph
sh ak
re p
re gi
psy cho
pho to
ou r</w>
or der
on ...</w>
on !</w>
o s</w>
n 't</w>
n '
m ol
le s?</w>
la r</w>
j our
j en
inve sti
il li
hu h
hel p
h all
godd am
g ru
f t</w>
f ish
exp lo
et s</w>
diff er
de al
d ing
con ne
ch rist
bo dy
b le.</w>
anc e,</w>
? ??</w>
... it's</w>
y s</w>
w y
v es
tw o
tr ou
the y
th ro
ter ri
t it
t ic
su it
st er.</w>
sp o
sh u
sc u
s s.</w>
s ar
pp ed</w>
pol it
po w
per .</w>
p up
p ast
p -
or s.</w>
or gan
n o</w>
mar i
m ut
m ir
li ke
le ar
le 's</w>
l y?</w>
l y...</w>
je ff
in e
in di
id e</w>
ic k</w>
i r</w>
h il
fift y-
f ly
enc e,</w>
des er
d er.</w>
co me
c r
be at
b lin
b ank
ar ti
am b
ah ,</w>
ag u
ac h</w>
ab out
a s.</w>
5 4</w>
2 .</w>
- up</w>
z ,</w>
you '
wat er
v an
to -
th es
t ap
t ab
sh ,</w>
se e
se ...</w>
s it
ron g
ro ad
re cor
pub lic
pla ce
p !</w>
o x
n it
ment ?</w>
li e
j on
is e</w>
int en
in e,</w>
i ma
hh hh
he av
h e</w>
gre at
fran k
fe el
f .</w>
ex -
e igh
dr ink
don 't
dg e</w>
d .
cra z
con si
com e</w>
cla ss
ck s</w>
b lo
b itch
ati ve</w>
at e,</w>
ang el
al s,</w>
...wh at</w>
x ic
wor th
wa y.</w>
w ould
vi ol
ve !</w>
v inc
thirt y-
te n</w>
te ch
t el
stu ff
st on
st er</w>
st ed</w>
spe ak
son ?</w>
si ve</w>
se !</w>
sc ra
sc ar
s mar
s ell
s au
ra c
r y?</w>
r and
quest ion
p s,</w>
p on
off ic
n ?</w>
min d
ma .</w>
m ess
le ct
l itt
k o
k ind
k ar
ju li
jo b
j .
in' ?</w>
il y</w>
i a.</w>
he ad</w>
go t
g y
f ru
er s
ent s</w>
ear th
do g
d oo
d au
ct ic
cont in
con tra
co w
co ff
bre ath
bo at
b low
b ast
appe ar
ad e</w>
ac ti
a k</w>
-- but</w>
- wh
&quot ;
y oun
wi fe
well ,</w>
wel l</w>
v ac
the y</w>
the -
th er</w>
ter min
te ?</w>
t s,</w>
t an
sy ste
su c
st ...</w>
s ick
re la
ra in
r y,</w>
qu e
psy ch
pro mis
nin et
me mor
m '
m !</w>
lu ck
lo v
li k
le d,</w>
le -
ish .</w>
inter est
il ,</w>
id ,</w>
hu s
h ,</w>
ge or
g on
g o</w>
g ni
g l
fort un
foo t
fi ght
f ant
f all
er o
er ed</w>
en s</w>
en gin
e qu
de p
con ven
cle an
ch an
ce ?</w>
c row
bo mb
b ol
b att
ation ...</w>
ap pre
ag e?</w>
ab le,</w>
6 0</w>
5 2</w>
.. ...</w>
you ...
wil li
wh e
vel y</w>
u m.</w>
to w
t on.</w>
sy mp
sur pris
st rat
sh ap
s es
s -
re d.</w>
r ound
pp ing</w>
po wer
per fe
p oo
ou s?</w>
on g
mu st
mo vi
mo v
man 's</w>
ma in
li f
lan d</w>
l ing.</w>
l ,</w>
ke y
k u
j or
j i
ir e</w>
in ...</w>
ic ally</w>
i e</w>
i a</w>
hel lo
he 's</w>
gu y
g as
ful ly</w>
ful ,</w>
fi ed</w>
f or</w>
f ool
f al
ex ist
er s!</w>
er ing</w>
e c
e --</w>
do ctor
de ?</w>
d y,</w>
cra ck
cor n
bo ard
be cau
b y</w>
b is
at ure
and -
ad v
6 1</w>
5 9</w>
5 6</w>
you r</w>
x ?</w>
wor d
wher e</w>
well -
we ak
w ,</w>
vis i
t er</w>
sy n
su p
st ay
st al
sp it
si mp
sex u
se cu
s ing</w>
s :</w>
s .
s "</w>
ri ght</w>
reg ul
re spect
r .</w>
qu ick
pro gra
oun d.</w>
op en
on s,</w>
ol d</w>
ne igh
n ur
mor n
mon th
mi ght
lau gh
k ick
k ed</w>
it ?</w>
in t</w>
il l</w>
i s.</w>
ho p
her o
h es
gu ard
gr ound
f lat
ex pe
ell .</w>
el y.</w>
el ?</w>
de s.</w>
de b
de -
d y.</w>
d ang
d '
con cer
comm and
ch ed</w>
c tor</w>
c iti
c and
busin ess
ble ,</w>
au thor
ation s,</w>
ati c</w>
ar s</w>
ap point
any thing
am .</w>
al !</w>
ak e</w>
ag es</w>
a vi
6 2</w>
1 3
' s...
wh y
we ir
wa sh
w ag
v in
u s,</w>
tion ?</w>
ter s.</w>
te ach
t e</w>
some thing
sh e</w>
scre w
ru p
ra y
ra l</w>
r or
ph ys
p ac
p .
oo p
on -
oh ,</w>
nu mb
no t</w>
n e</w>
mon ey
mar tin
m a</w>
li ke</w>
les s,</w>
le y?</w>
le a
l ish
ke ep
ke e
k ni
j ur
j ok
iz e</w>
it ...
is e.</w>
investi g
imp ort
imp o
ima gin
il ?</w>
ic e</w>
hu man
hor se
h our
fre ak
fi f
f ab
ev er</w>
du mp
de n</w>
d a</w>
c ed</w>
bro ad
bra in
at ed,</w>
as s</w>
ar ra
ar gu
an sw
an s,</w>
8 3</w>
6 5</w>
- in-
' e
z o
wher e
w ind
ut e</w>
uh ...
to ge
ter ?</w>
sur vi
su sp
st ore
st air
st a
si on,</w>
sh !</w>
ser vic
s s,</w>
s now
ru b
ri ch
pic ture
p lo
p ed
ou t.</w>
non -
n ed</w>
n ap
mou th
min ist
man u
m oo
m ing</w>
le tt
k y</w>
k s.</w>
k ir
iti es</w>
ic s.</w>
i i
i es</w>
i .
h it
h ang
go ti
ga z
g s.</w>
g ard
fre ez
fort y-
f ed
et er
es ;</w>
en !</w>
emp loy
el se
de te
de mo
de c
da y</w>
d ge
ct s</w>
con st
con sci
clo se
cla u
cir cu
ci vil
ci p
ch air
bloo d
beau ti
ati ve.</w>
at s</w>
at ,</w>
are .</w>
anti -
an 's</w>
acc ident
ab o
8 5</w>
6 9</w>
5 5</w>
5 3</w>
1 2
you --
year -
y a</w>
wh is
we 're</w>
vir gin
u se
tr ick
tion s</w>
th ur
t y-
t our
st y
st rang
st an
st -
shi p.</w>
sevent y-
se qu
sc en
sat is
sa il
s ent
s ad
ru ssi
ro g
re t
re port
r unn
pre -
pr int
pe ac
p er</w>
p aren
ous ly</w>
oc cu
o .
ne u
n et
n a</w>
n !</w>
mo on
mist ak
med i
me s</w>
mat ter
ma ,</w>
m s
m p</w>
m en.</w>
le y,</w>
le av
iti on</w>
ish ed</w>
ing s,</w>
ing 's</w>
in stru
il lu
ic e.</w>
ic ?</w>
i di
i an</w>
hus band
h ay
gu il
ful l
fre e
ex tra
et s.</w>
er y</w>
en d</w>
der s</w>
de fin
de ath
dau ghter
da y.</w>
cti ve</w>
ct ing</w>
co oper
clo s
ck ing</w>
ch am
ce le
can 't
c es</w>
c .
bod y</w>
be fore
ba se
b lock
at tra
as se
are d</w>
ar ound
an ni
an a</w>
an -
a h</w>
? .</w>
9 8</w>
7 0</w>
6 8</w>
6 6</w>
6 4</w>
5 8</w>
4 0
1 .</w>
... a</w>
' s...</w>
' ,</w>
worl d
well ...
w om
w itch
w all
vis it
vel op
v ul
v at
ure ,</w>
u u
u s?</w>
tru th
tra vel
ton ight
to .</w>
ti es</w>
ther ap
ter i
te !</w>
t ed.</w>
stu d
st ing</w>
st !</w>
squ e
si ght
scri p
sa id
s ound
s </u></w>
ru pt
rol l
ro se
reas on
re mo
r ink
pro ble
presid ent
peop le
par k
p he
p ent
p ati
ori gin
or din
ni gg
nes s,</w>
ne goti
ne cess
mo th
may be</w>
may be
mar sh
ma ke
m ed</w>
m .
lear n
le on
l er,</w>
k -
ju mp
ic ul
he al
gu ar
gh o
gg ed</w>
ge t</w>
g row
g ge
g ang
fol low
f as
exc it
ev en
end ing</w>
ell ,</w>
el y,</w>
e ch
e -</w>
dra w
do es
dg e.</w>
der ,</w>
d it
d anc
ction ,</w>
cont rol
consi der
comp et
cle ar
che es
ce pt
c ran
c es
c el
bu ff
b lan
b ett
att ack
at ing.</w>
al ter
al low
ac qu
a s,</w>
7 4</w>
---- ----
' a</w>
" !</w>
z er
z ?</w>
y or
y --
w ed
vol un
ver ,</w>
up .</w>
ul l
tw o</w>
tw el
tru ck
trou ble
tre as
too th
tion s.</w>
thous and
t ed
st ink
st in
sp ar
son 's</w>
smo k
shi p</w>
sh ir
sh ed</w>
sa f
s low
s ac
s ab
re cei
r ou
r ing</w>
prof ession
pro b
pra y
pra ctic
p ir
p e.</w>
p au
oul d</w>
o t</w>
o s
o log
o ce
no -
n un
n ess
mis sion
min u
mi cha
med ic
me y
me xic
ma st
lo w</w>
li z
le ft
la un
k ur
k ne
k itt
k ...</w>
jour n
it !</w>
ind ic
in 's</w>
ill e</w>
ill .</w>
il s</w>
id d
ick .</w>
i led</w>
ho pe
high -
h mm
h in
h ap
gr at
go ver
g ett
g are
fing er
fi gu
f an
f ag
et !</w>
ent ?</w>
end ed</w>
e mi
dis gu
deli ver
de ...</w>
ct ,</w>
contin u
con fu
comp lic
com fort
char ac
ch ri
ch ap
ce !</w>
car ri
cam p
cam er
c rit
c ell
bri ef
bo x
be ar
b es
b ang
aw ay
ation !</w>
at or.</w>
ar ri
an ne
an aly
ale x
al e</w>
ah !</w>
? !!</w>
9 2</w>
8 4</w>
7 8</w>
7 2</w>
5 .</w>
3 0
... it</w>
. </i></w>
* !</w>
z oo
your self
y l
wit h</w>
wh ore
war d</w>
w ol
vis ion
val u
u m,</w>
tou ch
ti re
ther e's</w>
th row
th ing.</w>
t y.</w>
t 's</w>
su mm
so ...
sm ith
six ty-
sid e</w>
sh ould
sh ing</w>
sh ell
sh e's</w>
sh ad
se em
scre am
s our
ri dd
respon si
re vol
re ver
re fu
ra .</w>
pre t
pr inc
pr in
po ss
p s
p ant
p ag
off ici
ob li
neigh bor
ne ver
n 's</w>
ment ...</w>
me ,</w>
man ag
man !</w>
ma chin
m and
lu c
loo k</w>
lo .</w>
li n</w>
let 's</w>
le d
l y!</w>
know ...
k e,</w>
k at
k 's</w>
jo e
iz ed</w>
iti on.</w>
it y?</w>
it y...</w>
it y!</w>
ish ?</w>
in' ...</w>
il la
id enti
i e.</w>
i ?</w>
hon est
ho st
ha w
h ood
h as
h ab
h -
gent le
g ur
g e,</w>
fi ed.</w>
fam ili
f t.</w>
f ron
ex e
ence ?</w>
en 's</w>
emb arra
e qui
e pi
e go
du mb
dol lar
d ir
d inn
d ani
commun ic
col on
chi ef
ch op
ch ...</w>
ch !</w>
ce ...</w>
c av
br and
beli ev
b .
b -
at or</w>
at ?</w>
apo logi
ap art
ant ?</w>
ance ?</w>
an !</w>
al o
al li
ac count
aa aa
9 7</w>
9 6</w>
8 6</w>
8 2</w>
7 7</w>
6 7</w>
,00 0</w>
whe el
we igh
we '
vil la
vi de
v ad
uh -
u su
to m
tim e.</w>
th ?</w>
ter s,</w>
te x
te s.</w>
te am
t ast
su gge
stor y
sto ck
sti c</w>
ste ph
sor ry
six -
sh am
seven -
sen s
s ....</w>
ro man
rememb er
re s</w>
ra m
r a</w>
qu it
qu e</w>
pu mp
psy chi
po st
pi e
per ,</w>
pat ri
pa ul
pa int
p ed</w>
or e</w>
ob je
new sp
ne x
n y</w>
my ster
my self
mo n</w>
mo m
milli on
me et
ma x
ma gn
m ort
m o</w>
ly n
lo t
lo c
lin e</w>
le as
l il
l ant
k er</w>
k a
k !</w>
just ...
je wel
ish ,</w>
is su
is ...</w>
ing -
in' !</w>
in for
in fe
in e?</w>
il ing</w>
ic s,</w>
i' m
hous e.</w>
ho spit
ho li
ha ve</w>
h ad
h ack
h ?</w>
gr ou
go t</w>
g il
g ed</w>
fre n
for gi
for d</w>
fi ve</w>
fi ve-
ff .</w>
fav or
fa ith
f y</w>
ex cu
es cap
es --</w>
er -
eff e
ed it
ed ic
e mo
e .
dr un
dou b
div or
dic t
del u
de stro
de mon
d s,</w>
d a.</w>
cur ren
cu sto
cu b
cri min
cra w
coun sel
cor re
comp u
comp la
co ol
co -
ck ed</w>
ch as
ch a</w>
cele br
cap it
c ris
c l
c art
c ard
but ter
bal l</w>
b ed</w>
b art
b ac
at her
as sho
ar y,</w>
ar ?</w>
an im
all -
ad i
? ]</w>
? --</w>
8 9</w>
8 .</w>
7 6</w>
7 5</w>
5 0
... o
... '</w>
-of -
-- that's</w>
-- ?</w>
, '</w>
! !!!</w>
z ed</w>
z e.</w>
wor k</w>
wo man
wn .</w>
willi am
we ight
wa y,</w>
w rong
w ?</w>
v es,</w>
v ed.</w>
v ari
tra in
to ,</w>
the n</w>
the at
th -
ta x
t y,</w>
t at
t am
swe e
ste ad
st oo
sk y
si ve.</w>
se e</w>
se con
se arch
sco t
s ses</w>
s ort
s ed
s che
s -</w>
roo m</w>
rob ber
ri ght.</w>
ri es</w>
ren g
re present
re co
r out
r .
pu ss
pol ic
po cket
photo graph
perfe ct
p ink
ou s...</w>
or t</w>
oh --
newsp ap
ne y</w>
mi ra
me ?</w>
mat e</w>
mar ti
ma u
ma ster
m oun
m ing
m ed.</w>
li ft
li ber
le v
le t.</w>
land .</w>
la y
la ?</w>
k an
ju dg
joh nn
ist .</w>
is m.</w>
in vit
in no
in form
in cre
imp ro
imp res
id e.</w>
id ?</w>
ic h</w>
hy po
hu mp
h ...</w>
h !</w>
gu est
gu ess
good -
ge st
g ul
g lo
g er</w>
g ab
fla sh
fir st
fil m
fi x
f ,</w>
expe ct
exe cu
es s,</w>
es ...
es ."</w>
er s...</w>
ent ly</w>
engin e
en s.</w>
en ing</w>
embarra ss
el l</w>
ed ;</w>
e mer
e ;</w>
e ."</w>
dru g
dow n</w>
dou ble
des ign
def en
dam n
da y,</w>
con su
con n
comp let
co st
co lo
clu b
citi z
ch ur
ch ris
ch es</w>
ch er
c o</w>
c ing</w>
bu st
bu dd
bro ok
bo y</w>
bo t
bir th
be ck
ard s</w>
appre ci
and er
am az
al ity</w>
ak .</w>
ad mir
acti v
a qu
a i
a ft
...i' ve</w>
.. ...
-- i'm</w>
,00 0.</w>
' m</w>
y est
y ."</w>
y -</w>
y --</w>
w re
w inn
w ick
vo ic
ve l</w>
v ot
v .</w>
ure s</w>
u g
u .</w>
tran sp
toge ther
to mor
ti ve</w>
ti ght
ti es.</w>
thr ough
ter ror
ter ...</w>
te sti
te en</w>
te ...</w>
ta in</w>
t il
t ...
sy l
sw i
stat e
st ol
st abil
speci fic
so me</w>
shi t</w>
shi el
sh oul
sh in
seri ous
sat ur
s wor
s ult
s ke
s ?!</w>
s '
ro ber
re pe
re d,</w>
re act
re ?</w>
r r
r ation
qui et
pi er
pe an
p iss
p ing</w>
p el
organ iz
or !</w>
oo n</w>
o th
o s.</w>
o graph
o ...</w>
not ic
no vel
no th
no .</w>
no ...
ni e.</w>
ner v
ne ck
n t</w>
mu sic
mother fuck
mor e</w>
mo ment
mb le</w>
man n
man ...</w>
ma ch
m r
m our
m itch
m ass
log y</w>
li p
li mit
law y
la p
la d
la ,</w>
l is
l .
k iss
k ing
k e?</w>
k ay
jo y
je w
itt ing</w>
iti es.</w>
it s.</w>
in vol
in te
in iti
in de
in !</w>
ic ally.</w>
i v
i ra
i g
i e,</w>
hor ri
head .</w>
h itch
h au
go tt
g ing</w>
fi ve.</w>
ff ,</w>
fel low
fa il
f unn
f on
enter tain
en ough
el s</w>
el !</w>
ed -
e y</w>
e f</w>
e "</w>
dis cu
cre ep
cour se
conven i
conf ir
con stru
comp li
co lu
ch oo
ch ann
ch ance
c lin
c it
c ath
c an</w>
c ali
c ad
bu zz
bu s
bro w
boo t
ben ef
be gin
b our
b oun
ati ve,</w>
at e!</w>
as soci
as sist
ant 's</w>
and ...
am on
al on
ag n
ac t</w>
ac ro
ac cu
a ver
a ...
9 9</w>
8 0</w>
7 9</w>
6 3</w>
4 .</w>
10 0</w>
... that's</w>
--wh at</w>
-- if</w>
-- !</w>
z ar
you -
yest er
yeah ...
what ever
war n
w w
w rest
w av
volun te
ve get
ve --</w>
v ing.</w>
ur ing</w>
uh ,</w>
tion ...</w>
ti e</w>
t un
t ough
t ent
t .
syste m
swe at
sw itch
sub st
su spect
stu di
str ic
st reng
st ori
st ill
st er,</w>
st ak
st ab
sp oo
sp her
sp er
some th
sho ck
sh eri
se t
se r</w>
se cur
se cond
sc al
s oul
s mu
s l
s inc
s ap
s a</w>
s ...?</w>
ro bb
ro .</w>
right ,</w>
ri dic
re s.</w>
re gre
re fle
re fer
re comm
ra is
r y!</w>
r o</w>
r in
quar ter
qu ir
psychi at
pro v
pro pos
pro of
pro bab
pp in'</w>
pp er</w>
po pul
po p
po is
pl ant
per s</w>
pat ter
pa in
p y
or ph
or 's</w>
on i
of f</w>
no ,</w>
ninet y-
ni ght</w>
neu ro
n ation
n app
mp .</w>
mon ster
mo tor
min ut
mil i
mi t</w>
me chan
mat eri
ma j
ma il
m bo
lon g-
lin e.</w>
le s...</w>
land ,</w>
l in'</w>
l a</w>
l ?</w>
ke y</w>
k ra
k k
k is
k a</w>
j im
j ab
j .</w>
is m,</w>
is !</w>
inter view
ing ...
ing --</w>
i' ll</w>
hoo k
hon or
ho t
go .</w>
gi e.</w>
gg ing</w>
g e?</w>
ft ,</w>
fran cis
four -
for get
exc ell
ex pla
ex pen
ex cep
et ...</w>
es s?</w>
es pe
es '</w>
ent s.</w>
enc y</w>
en ed</w>
el s.</w>
e ye
e p</w>
did n't
di stra
der ?</w>
dep end
de part
de ep
de !</w>
dang er
d ul
d ing.</w>
d av
ction s</w>
ction ?</w>
cra sh
con ver
comm er
col or
co tt
co .</w>
ci gare
ch ing</w>
c en
c anc
br un
bo b
ble ?</w>
bir d
becau se</w>
bab y
b s</w>
b id
b ack</w>
att or
at e?</w>
ast .</w>
ass ass
as t</w>
as su
ard !</w>
anc es</w>
all y?</w>
all .</w>
ah hh
agre e
ad vis
ad el
ac comp
a -</w>
9 1</w>
9 0</w>
9 .</w>
8 8</w>
8 1</w>
7 3</w>
7 .</w>
3 .</w>
2 2
10 7</w>
1 1
...i' ll</w>
... y
... to</w>
... this</w>
... in</w>
-- or</w>
* .</w>
! '</w>
youn g
year- old</w>
y s.</w>
y </u></w>
wil l</w>
what 's</w>
wh at</w>
we st
we b
we ar
we ap
ward .</w>
w ra
w ound
w end
w ast
w ak
vil le.</w>
vic t
v ille</w>
v ick
v am
v al</w>
v a</w>
ure s.</w>
ure d</w>
ure ?</w>
u ri
u al</w>
u .
ty p
tre at
tol er
thre e</w>
ther e</w>
th ough
th en
th an
ten -
temp er
tar get
tak e</w>
t on,</w>
t ed,</w>
t e.</w>
t ay
t att
t ag
t a</w>
susp ici
sur e</w>
sub ject
stra ight
stat u
st rong
sp ok
sp a
some time
sla u
sion s</w>
sid e.</w>
si x</w>
sh hh
sel f</w>
se y</w>
se ver
se par
se as
sc rat
sc are
sal v
sa w
s s?</w>
s s...</w>
s ni
s mi
ri c</w>
rela x
re turn
re ss
re quest
re lat
re ally
re !</w>
ra id
ra bb
ra ?</w>
r y...</w>
r ough
pu sh
prof ess
pro secu
port un
pi zz
p ad
ous ly.</w>
ou s!</w>
op portun
om et
ok a
off .</w>
oc ca
ni e</w>
nat ur
n ak
mo st</w>
mo le
minu te
min i
mid d
mer ci
ment al</w>
me tho
me s.</w>
me as
ma id
ma gaz
ma ?</w>
m ck
lo ,</w>
li e</w>
le n</w>
le ak
la bor
l s</w>
ken n
jes u
j as
it e.</w>
it -
is e,</w>
int elli
int el
in f
in es</w>
in du
ill ,</w>
idi ot
ic e?</w>
ic e,</w>
i' ve</w>
i es.</w>
i e
i al</w>
i ...</w>
ho m
her e...
hav en
gu t
gr un
go d-
go ,</w>
gg er</w>
ge ...</w>
g an</w>
fu ck</w>
fri ght
fift y.</w>
fa shi
f ound
f et
ex act
every thing
ev ol
eu ro
est i
er e
ele ven
eight y-
edu c
ed s</w>
e y,</w>
e mm
dro wn
down .</w>
double -
don al
dis cre
dis appoint
dire ctor
di g
di amon
des t</w>
des per
de velop
de stin
de gre
day ?</w>
dar k
d on</w>
d ell
cu ri
ct ed.</w>
cre ature
cre am
cond ition
con vinc
con vic
con gre
comp le
comb in
com ra
com mo
cli ff
chil d
che w
ch er.</w>
cer tain
cer e
cal cul
c rat
c lou
c ler
c -
c '
bul let
bu mp
boo k</w>
bo y.</w>
bo di
bo ard</w>
blu e
ber n
be ach
b s.</w>
b ic
b er</w>
b e.</w>
b ak
aw ak
ar rest
an ch
ali ze</w>
al ity.</w>
ag es.</w>
ad vent
ad dic
ac u
ab sol
aa a
a x
a id
a --</w>
? ...
9 4</w>
6 .</w>
5 -
2 3
10 0
...no t</w>
... <u>
-up .</w>
-- we</w>
-- -</w>
- ha
's -
' em
z ing</w>
you 've</w>
y on
y a
wor k.</w>
win dow
wi re
wi ch
wh oo
wh ist
wh ack
war ran
wa it</w>
w and
vi leg
ver s</w>
vam pi
v ell
v ali
ur b
ur .</w>
ul tra
uh --
u cin
tur e</w>
tru st
tri p
tr un
ti mat
thur s
th er.</w>
th er,</w>
ter 's</w>
ter !</w>
teen ag
ta ,</w>
t ry
sur re
sup pos
stre et
sti ff
ste p
st up
st ation
sp ring
sou th
son of
sol di
sm ell
shad ow
sen ator
sci enti
sch edu
sc or
sa under
s ne
s ma
s ack
ro y
ro w</w>
reli gi
reco gni
re ven
re ti
re sist
re qui
re por
re aliz
re ac
pup pet
pu bl
pro per
pro mo
pro ject
pri vileg
pres sure
pr ick
pper .</w>
possi bil
phil o
philo soph
pe ar
part n
p ool
p h</w>
ox y
ou ra
ou gh</w>
or y</w>
ol e</w>
oh -
off er
o mi
o m</w>
o hh
o dd
no w</w>
ninet e
nes s?</w>
ne t</w>
n' t.</w>
n au
n ast
n ad
mur ph
mu ch
mp h
mo mm
mo .</w>
micha el
mi x
me at
mar y
mad e</w>
mad am
m s,</w>
m ick
lo ck</w>
litt le
lit er
li mp
les t</w>
la st
la s
l ing,</w>
l anc
k es</w>
j ak
iti on,</w>
iti es,</w>
it y's</w>
it ut
it e
it ali
it 's...
is -
inte gr
ing ;</w>
in t.</w>
in spe
in e's</w>
impo ssi
imp ul
imp er
il leg
il !</w>
ign or
ic al,</w>
i re,</w>
hu st
hone y
ho bb
hi stor
hes it
hard -
h ind
guar an
guaran te
gra v
gra ce
goo d</w>
gi e</w>
gho st
g es.</w>
g all
g .
fu ture
fra u
for e</w>
fiel d</w>
fel la
far m
f it
f are
f ak
es "</w>
er y.</w>
end ?</w>
enc es</w>
en n
e k</w>
e i
e h
e ast
e </u></w>
e ...?</w>
dra g
do c
do .</w>
do ,</w>
dis appear
di plo
di d</w>
des cri
de vic
de fe
de cis
de ar
d y?</w>
d ur
d di
cu t
cti ve.</w>
ct s.</w>
coun tr
con tri
con clu
comm it
com ing</w>
colu m
co at
chil dre
ch ic
ch anc
cer ti
car l
can 't</w>
c ult
c ak
burg lar
bo tt
bo ss
bi g
beli e
be st
be ha
b ran
b lon
b li
b ay
b ask
b >
b ,</w>
auto mat
attor ne
ati ve?</w>
ath er</w>
at ing,</w>
as e</w>
ard s.</w>
ar y?</w>
ar s.</w>
ant s</w>
ance ...</w>
an ci
an a.</w>
an '</w>
am ?</w>
all y...</w>
al right
al ph
al co
al 's</w>
act u
ach .</w>
ac ade
ab or
ab ly</w>
ab itch
a ur
a u</w>
a led</w>
</u> ...?</w>
9 5</w>
7 0
10 1</w>
...wh en</w>
... what
... just</w>
-- it</w>
-- it's</w>
-- a</w>
- and-
'e m</w>
" wh
z e,</w>
you' re
yes ...
y u
y p
y i
y "</w>
x !</w>
wor ry
we ster
way ?</w>
ward ,</w>
w r
w ish
w es
vict ori
vi o
up ,</w>
uni vers
un g
un cle
tra ck
tomor row
to t
to p
to day
to ...
time ,</w>
ti v
ti es,</w>
thous and</w>
this ...
the ir
th ...</w>
tay lor
t ly</w>
t es
t ank
swe et
sw ed
supp ort
supp li
super st
super i
su re.</w>
su gar
stru ct
ste ven
st one.</w>
sp ot
so r</w>
so on
so .</w>
sn oop
sm oo
sk y</w>
sk y.</w>
sion ?</w>
si ster
si mon
si gni
shoo t
shit -
shi ft
sh hhhh
sh ?</w>
sh ...</w>
se w
se ven</w>
se l</w>
sco tt
sc ru
sa les
s itu
s ill
s es,</w>
s </u>.</w>
ro n</w>
ro mis
ro me
ridic ul
revol u
rest aur
recor d
re pla
ran ge
ra ,</w>
qu e.</w>
qu ali
qu al
pro to
pre tt
pp ed.</w>
pos ition
pol ice
pil ot
pi g
pi e</w>
ph ra
ph one
ph ar
per for
pen n
pean ut
pas sion
par as
par ano
par ad
p ill
p ard
over -
ou tra
oo .</w>
on ed</w>
on e,</w>
on e's</w>
ol y
off ,</w>
ob vi
ob serv
o t.</w>
o l</w>
no l
nin e-
ne l</w>
na il
n ath
n ag
n .
mon it
mo re.</w>
mm y</w>
mm .</w>
mic ro
me ...
ma xi
ma l</w>
ma de
ma 's</w>
m b</w>
m 's</w>
lin .</w>
lin ,</w>
li st
li on
li ght.</w>
li br
le y's</w>
land ?</w>
lan gu
kid d
ke n</w>
k s,</w>
k in'</w>
k er
k al
je al
j imm
iz ing</w>
itu de</w>
itt ed</w>
it her
inter fer
ing s?</w>
ing ly</w>
ing </u></w>
in vent
in ing</w>
in i
in a</w>
in a.</w>
in a,</w>
imp lic
il y.</w>
ic u
ic al.</w>
i- i-
i o
i b
i !</w>
hy ster
hy per
hur t
hous e</w>
hoo d</w>
ho b
hi s</w>
he y
he at
ham mer
ha un
ha m</w>
h id
h ic
h er</w>
gra du
gol d
girl friend
gi ft
ger man
gen i
g lu
g len
g ator
full -
ful ?</w>
fre qu
for d.</w>
foo t</w>
fi ghter
fed er
f light
f en
f e.</w>
ex amin
ex am
ev il
et h</w>
est .</w>
es c
es :</w>
ent ...</w>
end s</w>
ence s.</w>
enc y.</w>
en d.</w>
en -
emo tion
em ent</w>
elect ro
e e</w>
e ag
du ff
do z
dis pos
di ag
der 's</w>
de vil
de ck
d ut
d al
d a,</w>
ction s.</w>
ct or.</w>
cru mb
cre w
coun ter
cor por
concer n
con do
comp romis
comp en
commun ist
commer ci
comm is
co ast
clo ck
cli mb
cla ssi
chris sak
che ap
charac ter
ch es.</w>
ch er</w>
ch amp
cent r
ca se
c y</w>
c y.</w>
c c
but ...
buil d
bre n
br it
bo ther
bo ard.</w>
bo .</w>
ble ss
ber t</w>
bar n
ball .</w>
b y.</w>
b y,</w>
b ou
b ble
b ></w>
au di
at he
ast ro
assass in
ass -
as s.</w>
appro pri
ant ...</w>
ant !</w>
and re
and .</w>
and ,</w>
an s?</w>
an g</w>
an est
al u
al s?</w>
ah ?</w>
ag e!</w>
aff e
ad ,</w>
ab le?</w>
a il
a c</w>
8 ,</w>
7 1</w>
4 -
16 0</w>
10 8</w>
1 25</w>
1 22</w>
1 14</w>
1 10</w>
00 .</w>
...no w</w>
... so</w>
-up ,</w>
-in- law
--wh en</w>
* ,</w>
' t.</w>
' ...</w>
&quot ;</w>
" ...
z u
z in
z es</w>
yester day
y' know
y ing.</w>
y ell
x ...</w>
wor ri
won 't
wom en
whi le
wh a
well .</w>
well --
was ...
wa s</w>
w itt
w art
w !</w>
vir on
vic tim
vi et
vi e
ve hic
v ou
v es?</w>
ut t
uni ver
um ?</w>
um !</w>
u t</w>
u hh
tran sport
tra ff
ton gu
to i
to ?</w>
ti p
thu mb
they 're</w>
the y'
that ...
that 's
th ru
th !</w>
ter ed</w>
t y?</w>
t ool
t act
t ack
t ;
sw ing
sw imm
sw an
sw allow
sw al
survi v
sur ge
sugge sti
sub -
su dd
stop p
st one</w>
st on</w>
st om
st ac
squ ir
sp id
so m
so li
so ft
sn at
sn ak
sm all
slau ghter
sk ir
sk ill
sion s.</w>
si t</w>
si s.</w>
si mil
si ble</w>
shut t
shi p,</w>
sheri ff
sh rink
sh ri
sh ed.</w>
sh a
sen se
sen i
secre t
se t</w>
se n</w>
se at
sch u
sc out
say ing
sac ri
sa fe
s unn
s me
s is
s 'll</w>
ro of
ri gh
ri g
res ol
re view
re stra
re si
re serv
re public
re cru
re cover
re con
re cep
re ...</w>
ra mp
ra il
ra ch
r y's</w>
r hy
r att
pur su
pun ish
pu ff
proble m
pro ced
pri or
pre fer
pre co
pre ach
pr ic
pol y
po et
plan et
pil gri
phil li
ph ili
per ver
per su
peac e
part icul
p ound
p es</w>
p e,</w>
p app
p anc
p air
ous e</w>
other wis
ori ent
ore .</w>
op pos
oo !</w>
one ...
on --
off en
off -
of ...
occu p
o s,</w>
o me
o logi
o f</w>
o be
no te
no is
no --
night ma
ne y.</w>
ne ?</w>
nar row
n oo
n ine</w>
n er</w>
n av
mu se
mu dd
mor a
mon e
mo de
mo bil
mmmm mmmm
mm ed</w>
mis er
mi -
mat he
mani ac
ma yo
ma jor
ma '
low -
lou is
look ing</w>
log ical</w>
lo vel
lo ser
lo cat
lif e</w>
li qu
li ght</w>
li es</w>
les s...</w>
len g
le vel
le t,</w>
le agu
la ure
la di
l loy
kno w</w>
kin s</w>
kid napp
ke !</w>
k y.</w>
k y
k ry
k ru
k or
k night
k it
k ell
k ath
ju ic
j ell
j ay
j ap
j acqu
j -
iz ab
it self
it ed</w>
it 's
is m?</w>
ir on
ir .</w>
inter rupt
intel lect
int ru
in spir
in k</w>
in flu
in fer
il y,</w>
ic e-
ic !</w>
i m</w>
i an.</w>
hundre d-
hu mili
hor n
hol e</w>
ho tel
him self
head ,</w>
he e-
he a
hall ucin
h is
h et
gra ci
gr ate
good -b
go -
ger ...</w>
ge !</w>
g er.</w>
g ay
g ad
ful ...</w>
fro m
fo cu
fin ish
fe ar
fas cin
fact or
f ying</w>
f our</w>
f ood
f ill
f er</w>
f e</w>
f ?</w>
f .
ex t
ex pres
ex hi
ex er
ex ag
exag ger
ev id
ett e</w>
esti mat
est ab
es e</w>
es --
er r
er ing.</w>
er ed.</w>
er ;</w>
ep .</w>
enter pris
ence ...</w>
ence !</w>
enc y?</w>
en viron
en ing.</w>
en er
emp lo
ele v
el y
el izab
eff ici
ed </u></w>
e k.</w>
e con
e asi
e :</w>
do dg
do cu
div id
dis appe
di ver
di e
den n
den i
de tail
de pos
de 's</w>
da ?</w>
d wi
d ough
d on.</w>
d ill
d ent
d add
cu p
ct ?</w>
cross -
cro ok
cou p
cont amin
conf id
con tain
con spi
con qu
con grat
con fer
con du
comp ani
co ward
co n</w>
cla ren
cla im
civil iz
circu m
cigare tt
chu ck
cho ic
cham pi
ch ill
ch art
ch all
ch al
ch -
ce s.</w>
ce ed
cau se</w>
car pent
car lo
cal l</w>
c ent</w>
bull shit
bra d
br on
br illi
bo bb
blin d
blan k
beha vi
be s.</w>
be ast
bar bar
bal lo
b unn
b ry
b ing
b ap
au gu
au gh
ation s?</w>
at ure</w>
at temp
are ,</w>
ar !</w>
ap .</w>
ant s.</w>
ano ther
an y</w>
am us
aliz ed</w>
alco hol
al way
al s...</w>
al ong
al le
al fre
ag o
ag ed</w>
after no
aft er</w>
adv ant
ad ri
ad minist
ad am
ab le!</w>
a is
a ."</w>
? !?</w>
</ b></w>
< b>
8 7</w>
5 3
3 4
19 6
10 9</w>
10 4</w>
... or</w>
... how</w>
... he</w>
-- to</w>
-- in</w>
- the-
- ra
" no
! ...
z or
z ed,</w>
you 'll</w>
yeah ,</w>
y es.</w>
y ed</w>
y an
y :</w>
y '</w>
woo d.</w>
wn ,</w>
wit ness
wi g
wh y</w>
wh oop
wh en
week end
we 'll</w>
wash ing
w ould</w>
w oul
w inter
w are
w ...</w>
vul ner
vide ot
videot ap
ver y</w>
ver on
ve ...
v es...</w>
ure ...</w>
ur a</w>
under st
um -
ul t</w>
uh .</w>
uh ...</w>
u ral</w>
u ph
u n</w>
u mm
u d
two ...
tran sm
tra mp
tra g
tra d
tow n</w>
ton ?</w>
ton 's</w>
to y
to p</w>
to mb
tion !</w>
tim es
ti l</w>
thu si
thre at
thirt y.</w>
the ...
th y</w>
ter rit
tel l</w>
tech no
tech nic
ta in.</w>
ta ch
t- t-
t z
t unn
t s...</w>
t ort
t es</w>
t ang
t '
symp ath
sur ve
sur ren
super vis
suc cess
su san
su re,</w>
stu bb
stre am
st un
st ran
st ic.</w>
st ers</w>
st ati
st ack
ss ing</w>
speci al
spe ech
spe cul
sp len
sp ank
sp an
soph ist
sonof abitch
some wher
sli pper
sk inn
sk i</w>
sk et
sing le-
sinc er
signi fic
si e</w>
sho t</w>
sh re
sh aw
sh an
se y
se ek
sch oo
sch iz
sc and
sat ell
s... and</w>
s ses.</w>
s s!</w>
s oo
s inn
s edu
s ?"</w>
s ...i</w>
s ,"</w>
s !!</w>
ro t
ro sen
ro cket
ri ple
ri gu
res ult
rel ation
recomm end
re y
re sign
re sid
re cent
re ach
rat ed</w>
ra cket
r ul
r ate</w>
publ ish
pu t</w>
psychiat rist
pro gre
prin cip
pri est
pre su
pre p
pre dic
pre cau
po t
pla gu
pi mp
per pet
per cent
pen et
pat ron
pat rol
part ner
pap er
p t</w>
p av
p att
p ath
oxy gen
oun d,</w>
or t.</w>
or s,</w>
or ...</w>
op ti
on e?</w>
om ,</w>
ol d.</w>
ol d
ok e</w>
ob ser
o' ne
o swal
o p</w>
o li
o id
o ak
not ...
no ti
nic o
ni ght.</w>
ni e,</w>
new s
neg li
ne ver</w>
ne 's</w>
nar co
nar cis
n' t,</w>
n e.</w>
n aw
n anc
n al</w>
n ...</w>
mu s
moun tain
mon ke
mo ve
mo t
mo st
mm e</w>
ment s?</w>
med it
mc g
mb er</w>
mar in
mar cu
man t
ma s</w>
ma gu
ma ck
m y.</w>
m ood
m on.</w>
m en,</w>
m atic</w>
m all
lou d
lon g</w>
log y.</w>
lo ver
lo re
lo mb
lin d
li gh
let ter
le s!</w>
le d...</w>
lat er
know --
know -
kno ck
kee p</w>
k ore
k on
k new
k n
k a.</w>
k .
ju d
jo se
jo int
je ez
jam es
j uni
j ess
j aw
iti ve</w>
iti on?</w>
it ch</w>
ira q
inve st
inter pre
int rigu
int end
inst itu
inst in
ing ?!</w>
ing ...?</w>
in va
in ste
in side
in san
in ess</w>
in e...</w>
igh t</w>
i re.</w>
i on</w>
i mag
i a?</w>
hun gr
hu d
hoo d.</w>
ho -
him --
he y,</w>
har ri
har mon
har m
hal f</w>
h art
h .
gu id
gre gor
gra mm
gover n
got ta
gor don
good by
gla d
gl ori
gi ve
ge l</w>
gab ri
g y</w>
g ing.</w>
g ent</w>
g ed.</w>
fun er
fun ction
ful !</w>
fro m</w>
fre ed
fran c
fore ign
for ward
fol k
fli r
flat ter
fa ult
f lor
f loo
f idd
ex tre
ex plan
ev ent
ett e,</w>
espe ci
er ."</w>
ent !</w>
en thusi
en s,</w>
en ni
en h
en emi
en em
ell e</w>
ell ?</w>
el y?</w>
el op
el o
el ing</w>
el 's</w>
eigh t.</w>
ed ly</w>
ed ?!</w>
e y.</w>
e ither
e gg
dy nam
don e
do g</w>
do -
dis pat
dis cover
dis cip
dis ast
diag no
di men
di et
di ab
di .</w>
der s.</w>
del ight
defin it
dec id
de v
de ton
de press
de mand
de cor
de ce
day s</w>
day s.</w>
day 's</w>
d s!</w>
d es,</w>
d ann
cy c
cu t</w>
cri pp
coun c
cou ra
const ant
congrat ul
con vers
con sequ
con ce
comp re
comp o
comp as
comp ar
co stu
co inc
co con
clo wn
clo th
clau di
cla ss</w>
cir cul
ci gar
chri sti
chall eng
ch at
cent ur
cas u
cas e</w>
car ni
cap tain
can n
c z
c ous
c app
bu y
bro k
bre ed
boy friend
bot to
bod y.</w>
ble ed
bis ho
bi t</w>
bi gg
becau se
be en
be com
batt le
bar ra
ball s</w>
ball ,</w>
b ound
b ly</w>
b ing</w>
b a</w>
b ?</w>
b -b
att end
ator y</w>
ath er.</w>
at es.</w>
at ely</w>
ass ad
as sign
as le
as ed</w>
ari es</w>
ard ...</w>
ar t</w>
ar range
ar chi
any way
any more
ant e</w>
ann oun
ance s.</w>
ance !</w>
an xi
amb assad
all y!</w>
al read
al ing</w>
al arm
ag gre
ag e...</w>
ag .</w>
after ward
aff air
ad op
ad mi
ad ing</w>
ad ?</w>
ac e</w>
ac coun
ac cept
abil ity.</w>
ab u
ab out</w>
ab le
a way.</w>
a un
a in'
: 3
9 3</w>
19 8
10 3</w>
1 34</w>
1 21</w>
1 11</w>
.... i</w>
... we</w>
... that</w>
... maybe</w>
-------- --------
-- just</w>
-- don't</w>
's </u></w>
' 6
" f
z ed.</w>
your sel
y es,</w>
y el
y ...?</w>
y ,"</w>
wor shi
woo d</w>
wh el
wh ad
wer e</w>
wel come
we ather
we 've</w>
wat er</w>
war ri
war m
w s</w>
w ow
w ool
w ann
vo y
vo c
vis u
vir tu
viet nam
vie w</w>
vi s</w>
vi s.</w>
vi n</w>
ves sel
ver t
val ent
v in.</w>
v in,</w>
v eter
v ent</w>
v al.</w>
v .
v '
ut en
ure !</w>
un fortun
un -
ul timat
u s...
u ra
u ?</w>
ty pe</w>
ty pe
ty -</w>
tur n</w>
tu ck
tt ed</w>
tri pp
tri gg
tre sp
tra il
town .</w>
town ,</w>
to wel
to mm
tim id
ti s</w>
ti s.</w>
thr ill
tho se</w>
thirt y</w>
ther mo
ther e...
ther e--
them sel
th igh
th el
temp or
tele phon
tele gra
teen -
te l</w>
ta in,</w>
ta il</w>
t ren
t au
t ;</w>
t 	
swee the
sur fac
sur f
su zi
stup id
stru gg
stre tch
strat eg
stabil iz
st s.</w>
st s,</w>
st ron
st ing.</w>
st el
st amp
st ain
st aff
sque ez
sp inn
sp enc
sophist ic
son n
some thing</w>
some body
sol u
so f
sn oo
sn ack
smu gg
sle e
ski ,</w>
sion ...</w>
sil ver
si s</w>
si e
sho vel
sho t.</w>
she il
sh itt
sh av
sh -
ser ge
sen ti
sen sor
secre tar
se ar
scri pt
san ct
sacri fic
sa ,</w>
s y.</w>
s nu
s man</w>
s lic
s ink
s i</w>
s er.</w>
s bur
s add
s 's</w>
s '.</w>
rub ber
ru st
ru bb
ro th
ro ot
ro du
ro ,</w>
ri ver
ri bb
responsi bil
res s</w>
res our
rep air
rel ati
reg ard
re ward
re surre
re st</w>
re ser
re scu
re put
re no
re min
re mark
re leas
re ill
re fin
re du
re d-
re bel
r d</w>
qu itt
qu ak
pur po
produ c
pro je
pro fi
pris on
pri v
pri m
pre par
pre gn
pre cis
pr ou
pper ,</w>
possi ble
por tra
polit ici
pol lu
po em
plu mb
plan n
pla c
pi ge
pi es</w>
phys ic
phil adel
philadel ph
pet er
per man
per hap
peop le</w>
pe ck
pe ach
patri ot
pas s</w>
part ici
paren t
pac i
p s?</w>
p itch
p enc
p e?</w>
over he
out h</w>
our sel
ough t</w>
ore d</w>
or s?</w>
on ...
ol ,</w>
occu pi
obli g
ob ject
o- o-
o ver</w>
o s?</w>
o ph
o id</w>
nu mer
now le
ni cho
nicho la
nes s...</w>
nam e
na vi
n't ?</w>
n oooo
n ano
mu sc
mor ph
mon t.</w>
mon key
mo sexu
mo bi
mmmm mm
mil it
mid -
mi ke
ment !</w>
mc in
mb les</w>
mat the
mat ri
mar ty
manu fact
mani fe
man eu
maj est
ma r</w>
m s?</w>
m r.</w>
m mer</w>
m m</w>
lun ch
lu mp
lock .</w>
lo ve</w>
lo op
liv ing
lin k
lin es</w>
lin es.</w>
lie uten
lic en
li s</w>
li ed</w>
le op
le -</w>
la w</w>
la n</w>
la mp
la gh
la dy
la ck
la ...</w>
la 's</w>
l ul
l ing?</w>
l er?</w>
l -
l !</w>
know le
kil led
ki .</w>
kenn ed
ken ste
k lu
k ing.</w>
k i</w>
k es,</w>
jun g
jose ph
jo ck
jo ann
jes us
jer k
jen ni
jen n
ja co
j a</w>
iti ons</w>
iti es?</w>
ith er</w>
is si
is ra
is land
investi gat
intellect u
int u
int rodu
inno cent
ing u
ing ....</w>
ing ."</w>
ing -</w>
ind ul
incre di
inc lu
in sult
in sul
in se
in s,</w>
in her
in ess,</w>
in es.</w>
imp ati
imm i
imm edi
illu sion
ill a</w>
ide a
ic ally,</w>
ic a,</w>
i'm ...
i' m-
i' d</w>
i ve</w>
i es,</w>
i e?</w>
hy p
hundre d</w>
hun t
hun gar
hu h.</w>
how 's</w>
hou r</w>
hor mon
hol d</w>
hol d
ho we
ho mosexu
ho ck
her self
her e--
heart ed</w>
head ach
he y...
har ve
har ris
ham p
ham .</w>
ha ve
h ut
h ick
h ast
h ann
guar di
gu n</w>
gu e</w>
gu e.</w>
gro wn
gran t
go ing</w>
go ?</w>
go !</w>
gir l</w>
gi n</w>
gg in'</w>
geor gi
gen es
gam bl
ga r</w>
g s?</w>
g s,</w>
g lor
g li
g es</w>
g au
g a</w>
g !</w>
fu ri
fre sh
fre der
fran kenste
for ni
for m</w>
fla v
fin d
fin anc
fiel d.</w>
ff le</w>
fav our
fant ast
fant asi
fam il
f lun
f let
f lan
f art
f anc
explo it
experi enc
ex or
ex hau
ex clu
ex chang
every thing</w>
ev alu
ev acu
euro pe
eu gen
ett e.</w>
ett ?</w>
et te?</w>
et t.</w>
et s,</w>
estab lish
esc ort
es s...</w>
er --</w>
eng ag
en velop
en u
en ci
en ch
emplo ye
em be
embe zz
ell a</w>
elizab eth
elect ron
el y...</w>
el ...</w>
eight -
eigh t</w>
eff ort
ed mun
ed :</w>
ed ...
ed --</w>
ed --
e pp
e mil
e '</w>
e !!</w>
dri ve
dress ed</w>
dre ad
dra mat
down ,</w>
don't -
don n
do y
do r</w>
dist urb
dis miss
dis e
dire ct
di zz
di stri
di gn
di e</w>
dete cti
demo crat
def end
de we
de stru
de pres
de ci
dani el
dam mit
d ry
d edic
d and
cu stom
cu ff
ction ...</w>
ction !</w>
cry st
cru sh
cru ci
crit ic
cri me
cre dit
cre di
craz y
cra ft
cour se</w>
cor ri
cor respon
cor on
cont act
conf ess
con sist
con cep
commit te
colle agu
coff e
cock suck
co o
co man
clo ak
cla ire
circum st
cho col
che mic
che ck</w>
char li
ch ed.</w>
ch e.</w>
ch and
cat alo
cas in
car to
car ry
can ad
cali forni
cab in
ca it
ca es
c ,</w>
butt -
bu dg
broad cast
bri dge
break fast
bre ak</w>
bor row
bon d
bod y,</w>
bod y's</w>
bo ys
bil li
bi g-
bet we
ben n
ben edic
beli ef
begin n
bed room
beauti ful
be hind
be fore</w>
bath room
bar ga
bar .</w>
ball !</w>
back s.</w>
back .</w>
ba r</w>
b ye
b are
b ani
b ah
b ach
au th
au stri
au d
att itu
ator s</w>
ator ,</w>
ation 's</w>
ath .</w>
at ing?</w>
at ho
at hi
at h</w>
at ed?</w>
at e...</w>
at !</w>
as h</w>
as ?</w>
are s</w>
arch ite
ar rog
ar rang
ar ly</w>
ar iz
ar ist
ar ing</w>
ar ily</w>
appro ach
app lic
ap h
ani c</w>
an th
an at
an a?</w>
an a
americ an</w>
am !</w>
ali stic</w>
ali st.</w>
al ism</w>
al ber
ah ...</w>
aggre ssi
ag it
aff ir
af ric
af raid
ad m
ad just
ad dre
acti ve</w>
ack nowle
ach i
accomp lish
acc ess
ac .</w>
abil ity</w>
ab stra
ab le...</w>
ab du
a way</w>
a ire
a '</w>
? !
<u> what
<u> no
</i >
:3 0.</w>
7 ,</w>
6 0
5 ,</w>
4 7
4 ,</w>
3 -
2 5
15 6</w>
10 2</w>
1 39</w>
1 38</w>
1 27</w>
1 18</w>
1 17</w>
1 12</w>
... you're</w>
... my</w>
... if</w>
... for</w>
.. ?</w>
-wh at</w>
-of f</w>
-- you're</w>
-- this</w>
-- *
- to-
- to
- hoo
- bu
,00 0
' m
$ 3
" what
" de
" --</w>
z er</w>
z ed
z e?</w>
z an
z a
your s
yes --
yeah .</w>
yan ke
y up
y ard</w>
y ;</w>
y .
x en
x ed</w>
x -
wy n
worl d</w>
work s.</w>
wood s
wol f
wn s</w>
wn ...</w>
with out
wil d
wi t</w>
whis per
wh itt
wer en
wed nes
we al
way 's</w>
w u
w right
w iz
w ink
w id
w et
w ack
w .
w -w
vo cat
vic tor
vi br
ven .</w>
vel y.</w>
ve st
ve 's</w>
ve "</w>
v ity</w>
v es!</w>
v augh
v ar
v ,</w>
ur gent
up stair
up se
unn er
under tak
un usu
un happ
un employ
un d
un believ
un .</w>
ul t.</w>
u s!</w>
u ck
twel ve-
tw o.</w>
tur b
tu mb
tu es
tt er</w>
tru mp
tri u
tra vell
tra it
tr ul
to o</w>
to bac
to ast
tion al</w>
ti ve,</w>
ti n</w>
ti ght.</w>
ti e.</w>
ti e,</w>
ti e
ti .</w>
thu mp
than k</w>
th ou
th ing,</w>
terror ist
ter ran
ten ti
ten der
tele vision
te st,</w>
te eth
te en.</w>
te 's</w>
ta xi
ta int
t; &
t z</w>
t ut
t app
syl vi
syl v
sw ell
super -
suff er
su t
su si
su s</w>
su gg
stu dy
stre am</w>
ston e,</w>
sto p</w>
ster !</w>
ste ward
ste al
star v
stal k
st ick</w>
st ic
st er?</w>
st ation</w>
st am
ss ed</w>
ss ed.</w>
squ ad
spe ct</w>
spar k
sp r
sp ill
sp ell
son ...</w>
son -of
son !</w>
sometime s</w>
some how
so med
sn app
sla y
sk ull
sk in</w>
six .</w>
side ,</w>
sid ne
si vely</w>
si ve?</w>
si n</w>
si mul
si gh
si g
shot gun
short -
ship ?</w>
shin z
shi v
sh out
sh ore
sh it.</w>
sh es</w>
sh ag
sh ack
seven .</w>
sen ,</w>
se mi-
se lect
se e...
se att
se a
scu mb
scor pi
sch ul
sch ol
sch o
sc ul
sc rap
sc a
say --
sau s
satell it
sand wich
sam p
sal o
saf et
sab ot
sa vi
sa int
s word
s ing.</w>
s ession
s ed.</w>
s ali
s ".</w>
rose bu
roo m.</w>
roman tic
rob in
ro mul
ro mi
righ te
ri es.</w>
ri dge.</w>
res s.</w>
res s,</w>
ren a
recru it
re ve
re s,</w>
re pre
re pa
re n</w>
re k
re infor
re in
re do
re d?</w>
re ck
re ci
re au
ra z
ra y</w>
ra y.</w>
ra oul
ra che
r il
r he
r -
qu inc
qu il
qu ad
qu a
psycho log
psych op
prov id
pro st
pro sper
pro hi
pro cess
pret ti
pre ys
pre serv
pr on
poss es
positi on</w>
positi on.</w>
por no
po t</w>
po k
po int</w>
ple s.</w>
pla y</w>
pl ent
pil low
pi stol
pi an
phys ici
phar ma
perfor man
per io
per cep
pen gu
pe n</w>
pe ek
pe !</w>
pat rick
pas sport
part y
paras it
par ro
par o
par am
pan ick
p si
p ran
p our
p is
p int
p es.</w>
p ...</w>
own .</w>
over whel
out ,</w>
ot ,</w>
orph an
or y.</w>
or le
or ang
or a</w>
on y</w>
on y
on na
on g</w>
on e...</w>
on e!</w>
on ;</w>
omi c</w>
oly mp
oka y.</w>
oh ...
off ice
oce an
occa sion
oc to
ob ses
o' clo
o w</w>
o sa
o hi
o hhhh
o h</w>
o d
non sen
no str
no r</w>
no n</w>
nin ot
nin e.</w>
night ,</w>
ni e...</w>
ni e!</w>
neg ati
ne w</w>
ne ut
ne ...</w>
n't ...</w>
n't !</w>
n s</w>
n s.</w>
n n.</w>
n el
n a.</w>
my ...
must ang
mu er
mother -
mort g
mon tan
mon t</w>
mon t
mon ,</w>
mo spher
mo sco
mo one
mo der
mo del
mm ing</w>
mm ing.</w>
mis understand
mis si
mira cle
mi ch
mi am
mer 's</w>
ment s,</w>
men !</w>
me mo
me ek
me !</w>
mc murph
mb er
mat hil
mar th
mar qu
mar k</w>
mar ci
mani pul
man -
mal col
mag ni
mag ici
ma ke</w>
ma -
m y-
m y,</w>
m es,</w>
ly ing</w>
ly di
ly </u></w>
lun at
lu x
loy al
look ,</w>
lon don
lo we
lo b
lo ath
lo af
lo ad</w>
lo ?</w>
liv es
lin e,</w>
li ve
li mb
li c</w>
let s</w>
let ?</w>
len n
leg is
le i
le e
le d?</w>
le ck
le af
lau ri
la z
la y</w>
la st</w>
la s</w>
la !</w>
l s.</w>
l o</w>
l ick
l ers.</w>
l ate</w>
l 's</w>
kno tt
ki e</w>
ke y.</w>
ke it
k rist
k ri
k ov
k le
k h
k es.</w>
k el
k a,</w>
jur is
juris dic
jon ath
jeff re
je ct</w>
je an-
ja zz
ja il
j it
itt y</w>
ith .</w>
it s,</w>
it em
it al
it --
is on</w>
is ol
is ...
inter n
inten tion
ing .'</w>
ing '</w>
indu stri
inc ident
inc h</w>
in visi
in ven
in timid
in sur
in sist
in si
in ess.</w>
in divid
in ...
impossi ble
imper son
ig n</w>
ick ,</w>
ic ult
ic or
ic op
ic le</w>
ic e...</w>
ic a</w>
ic a.</w>
ic ...</w>
i' ll
i ous</w>
i e's</w>
hu mor
hospit al
horse -
hor ses
hoo d,</w>
hom ici
ho ff
hitch hi
high way
hi .</w>
hh !</w>
hel icop
heav en
head ed</w>
head ?</w>
head ...</w>
he y</w>
he ath
haven 't
har v
happen ed
ham il
hal de
ha z
h int
h are
h ank
gu ys
gu ide
gu ard</w>
gri ev
gre et
grand father
gr is
goddam n
go d</w>
gla ss
gi c</w>
gi b
gh ter.</w>
gh et
gh e
gg ed.</w>
ger s,</w>
ger al
ge ograph
ge n</w>
gat her
gard in
gard en
gal lagh
ga zz
g one
g ing
g an.</w>
g an,</w>
fru strat
fru it
four ,</w>
form ed</w>
for ce
flor id
finger print
fin anci
fiel d,</w>
fic ation</w>
fi ve,</w>
fi t</w>
fi ed,</w>
ff ?</w>
fe ed
fe ather
fac il
fac e.</w>
f is
f enc
f bi
f ...</w>
f -
ez ,</w>
expla in
exer cis
ex po
ever .</w>
et t</w>
et 's</w>
es e.</w>
er s'</w>
er e</w>
er as
er ...
er -</w>
ent s,</w>
ent h</w>
eng lish
end er.</w>
end ,</w>
enc oun
en z
en quir
en light
en ed,</w>
en e</w>
emp er
ele ph
el y!</w>
el le.</w>
el er
ed er
ed ..</w>
ed ."</w>
ed -up</w>
ed *</w>
ed "</w>
econ om
ear li
e ven</w>
e man
e ing</w>
e bb
du mm
du d
du ck
drun k
dru m
dro p
dri v
dra ft
dor oth
do ck
dist in
dis eas
dis clo
dis char
dinn er
diff icul
diab et
di an
dg e,</w>
des ser
des mon
den ti
deb bi
de vo
de tt
de termin
de ed
de e
de cei
de ann
dd y</w>
day ...</w>
dav id
dam ag
dad dy
da m</w>
d way
d war
d unn
d ran
d le</w>
d itch
d ing?</w>
d en.</w>
d en,</w>
d art
d ag
d ...
cy n
ctor s</w>
cti ve,</w>
ct s,</w>
ct ...</w>
cre d
cre as
cra b
cour tro
cor te
cor rup
contri bu
cont ro
const itu
conspi rac
conf identi
conf ession
con test
con sult
con cei
compu ter
compre hen
compen s
comp an
commis sion
com edi
cocon ut
cock tail
co smo
co sm
co de</w>
co ca
co bb
cli p
cle ver
cla y
cir c
chick en
chi mer
che er
char m
ch ili
ch es,</w>
ch e</w>
ch ast
ch 's</w>
cere mon
ce il
cau ght
cat her
cas si
cap ture
c un
c to
bur g</w>
bu g
bu bb
bri ght
break -
bra z
boy s</w>
bor n</w>
boot le
bon e</w>
bod y...</w>
bo y's</w>
ber 's</w>
ben jam
be hav
be ep
be en</w>
be ef
be -
bat ter
bast ard
bar ri
back ward
bab y-
ba g</w>
b y-
b in
b es</w>
b er,</w>
b e,</w>
b ann
ay ?</w>
aw k
av ail
au st
att en
ator s.</w>
ator ?</w>
ation s!</w>
ation al</w>
ath ,</w>
at mospher
at lant
at es,</w>
at ely.</w>
ast ron
ash am
as sur
as k</w>
arri v
ar thur
ar o
ar nol
ar mor
app le
any wher
an ge
an e
am oun
am bul
alter n
all ,</w>
ali ve
ali .</w>
alex and
al one
al leg
al er
al bani
air -
ah h
ah ...
ah 's</w>
ag es,</w>
aff or
ad vic
ad vert
ad ol
ad en
ad ed</w>
ad a</w>
acc eler
ac tion
ac cur
ab sur
ab les</w>
a zz
a y</w>
a i</w>
a fuck
a '
a "</w>
<u> you
<u> who
<u> me
</u> --
: 30</w>
4 6
20 1</w>
19 9
19 5
16 9</w>
16 6</w>
16 1</w>
14 0</w>
1 32</w>
1 ,</w>
...o f</w>
... you
... they</w>
... all</w>
-h -h
-- my</w>
-- he</w>
- you</w>
- y
- tra
, ...</w>
' t,</w>
' ch
' by
' b
' 9
" t
" some
! ..
zo mb
z z</w>
z ero
z el
z a</w>
z -
z !</w>
yor k
yi el
yes --</w>
ye ar</w>
y- y-
y et
y er</w>
y c
y am
y ak
y ?!</w>
y /
y ..
x 's</w>
wr itt
worth y</w>
work s</w>
work ,</w>
wor th</w>
wor m
wig and
wich it
whit e
what 's
wh ile</w>
wh ich</w>
wh ew
wh en</w>
wh ati
wer ew
werew ol
well ?</w>
we' ll
we is
we gi
we ed</w>
way s</w>
water mel
was h</w>
war e</w>
wal ter
wait ing</w>
w ro
w ri
w ren
w ire</w>
w ing</w>
w ing
w in,</w>
w 's</w>
visi on</w>
vic e-
vi vi
vi st
vi l</w>
vi k
ver s.</w>
ver i
ver !</w>
vent il
ven ge
veget ari
ve led</w>
val ?</w>
v y</w>
v y.</w>
v ap
v all
v ak
v ag
uu uu
ur bat
up !</w>
uni qu
uni form
underst ood
under stoo
un til</w>
un satis
un it
un fair
un consci
un ce
um ...</w>
um ...
ul l</w>
uh- huh
u. s.
u v
u ses</w>
u se</w>
u s...</w>
u gh
u c
u ...</w>
u ,</w>
ty pic
two mb
tw ist
turn -
tur t
tur k
triu mph
tri vi
tre ad
trans fer
trag ed
tra de
tr in
tor ped
tor ,</w>
ton sil
ton !</w>
tobac co
to x
to mat
tick et
ti -
thousand .</w>
thor wal
thing s</w>
thi ef
thes e</w>
ther ?</w>
the ore
thank s
th- th-
th under
th s</w>
th ink</w>
th e.</w>
testi mon
testi f
ter ing</w>
ter es
ter ed.</w>
tent ac
temp t
tech n
te enth</w>
te en?</w>
te en,</w>
te as
te ar
tatt oo
tan e
tal k</w>
ta un
ta r</w>
t y...</w>
t weak
t v
t t</w>
t ink
t ical</w>
t ic.</w>
t est</w>
t ed?</w>
t ann
t ac
t able</w>
t a.</w>
t --
syn dro
symp athi
swi ft
sweethe art
swe ep
swe en
sw ar
surve ill
surren der
sur round
sur ger
supp or
super mark
super hero
suff o
suffo cat
suff ici
subst anti
sub t
su z
su ch</w>
stu ck
str ali
sto ma
ster s,</w>
ste am
stati st
star fle
st y</w>
st on.</w>
st on,</w>
st ill</w>
st et
st ers.</w>
st ate</w>
st ash
st and</w>
st all
st af
squ are
spo ck
spect ac
spe ed
spac e</w>
sou ven
son-of -a-
som ni
so pho
so ak
so ,</w>
sne ak
sn ick
sn ap
sm it
sm el
slo w</w>
sle ev
sk ay
sing ul
sign ature
si ze
si ren
si mm
si e.</w>
si c</w>
shu ff
ship ...</w>
ship !</w>
shel dra
she ep
shak espe
sh ari
sh are
sh ang
sh ab
sey mour
sevent e
seven ,</w>
sens iti
sel y</w>
seem s</w>
see ing</w>
secon d</w>
se t-
se le
se 's</w>
schoo l</w>
sch ne
scare d
sc utt
sc ann
saunder s--
sam u
sac ra
sa y</w>
s y</w>
s wa
s so
s no
s mil
s ling
s itt
s es?</w>
s en.</w>
s ed?</w>
s ally
s a.</w>
s ....
s .'</w>
run -
ru n</w>
ru in
ru d
row .</w>
roo mm
rol ling</w>
rock -
ro tt
ro sal
ro sa
ro ll</w>
ro ck</w>
ro bo
rit u
ric k</w>
ri n</w>
ri dge</w>
ret ard
requi re
repe at
rep lic
rememb er</w>
reinfor ce
regi str
recogni z
recep tion
re vel
re tri
re su
re stric
re spir
re produ
re mor
re ma
re lev
re colle
re be
ray mon
rail road
ra y,</w>
ra v
ra sp
ra pi
ra ff
ra ci
ra 's</w>
r ici
r i</w>
r ho
r hin
qu o
qu er
py ra
psych ot
prote ct
progra m
pro spect
princ ess
prin ci
prim iti
pri vat
pre ju
pre ci
pre ced
pr itch
pr int</w>
pp ed,</w>
pos e</w>
por t</w>
pois on
po tat
po t.</w>
po or
ple a
pla ce</w>
ph y
ph one</w>
per mis
per fu
per ?</w>
per !</w>
pent ag
pen it
par ap
par aly
pal ac
pack .</w>
paci fic
pac if
pa id</w>
p pi
p ood
p it
p inn
p in'</w>
p ett
p and
p am
p age
p add
over ri
over flow
outra ge
out side
out law
out f
out ?</w>
out ...</w>
ough t.</w>
osa ur
ori es</w>
ori al</w>
ore s</w>
or s!</w>
or ity</w>
or ing</w>
or gas
op ini
oooo oooo
oo k
on s?</w>
om e</w>
olog y.</w>
ol d,</w>
ol a</w>
ol .</w>
okay ?</w>
ok la
okla ho
ok .</w>
oh .</w>
obli vi
o qu
o m.</w>
o il
o es</w>
o -</w>
nu th
not -
nor wegi
no wher
no thing</w>
no min
no body
no !
ninot ch
nic e</w>
nic e
ni x
nes s!</w>
nerv ous
neighbor hood
ne phe
ne gro
ne co
nau se
na zi
na i
n- n-
n ort
n l
n ing</w>
n elli
n b
mut il
mus ici
mun ch
mul wra
mu sh
mu ff
mp h.</w>
mou r</w>
moth afuck
mor ris
mor phe
mor gan
mo z
mo tiv
mo st.</w>
mo re,</w>
mo ck
mm er.</w>
mm ,</w>
mitch ell
miss issi
mir r
min i-
min d-
mi che
met e
met ap
mer rick
mer cu
mer c
ment ed</w>
men tion
mel t
mean ing
me ad
me ...</w>
me --
mcg ill
mcgill icu
mc co
mb ling</w>
mb led</w>
may flow
mathe mat
mat tre
mat es</w>
mat es.</w>
mat e,</w>
mast urbat
mass ac
mar y</w>
mar vel
mar l
man h
manh att
mal ko
magni fic
magn et
made le
mac donal
ma ver
ma demo
mademo is
ma !</w>
m ous
m er.</w>
m -</w>
lu go
low .</w>
lo r</w>
lo cal
lo bb
litt le</w>
liqu id
ling eri
lin den
linden mey
lin col
lin ?</w>
li s.</w>
li e.</w>
li e,</w>
less ly</w>
les s?</w>
le y!</w>
le vel</w>
le stat
le m
le gi
le gged</w>
le ch
le bow
le ast
le ;</w>
lar ge
land s.</w>
land ...</w>
land !</w>
labor ator
la ce
la bel
la -
l. a.
l ous
l ish</w>
l ill
kru eg
king do
kin s?</w>
kin s.</w>
kin ca
kil la
kid ding
ki e,</w>
kee per.</w>
ke y?</w>
ke y,</w>
ke t</w>
ke l</w>
ke at
ke ...</w>
k y,</w>
k un
k re
k not
k ling
k ink
k im
k es?</w>
k end
k ast
k ad
ju da
jor d
jo e--
jes us</w>
jer se
jer ry
j. d.
j ul
j eri
j ed
j ac
j ,</w>
ition ...</w>
iti es...</w>
it e,</w>
ist s</w>
ist ic</w>
ist ,</w>
is on.</w>
is o
is ing</w>
ir rit
invol v
inter rup
inter rog
ing :</w>
ing --
ing "</w>
individ u
ind ro
inc t</w>
in v
in sure
in stead
in somni
in ser
in s
in jur
in jun
in i.</w>
in fant
in dis
in conveni
in al</w>
in -</w>
imp ress
imm ort
illu min
il y...</w>
il 's</w>
if -
ici ous</w>
i ri
i on.</w>
i i</w>
i est</w>
i es?</w>
i a,</w>
i ."</w>
hy dro
huh ...
hol ly
ho- j
ho mic
ho lo
ho les</w>
ho le.</w>
hi story
hi gh</w>
hi de
hi ,</w>
hes i
her e</w>
her e's</w>
heal th
he ight
he 's
har ring
har d</w>
har bor
happ y
hap pi
hand ed</w>
hand -
ham burg
half -a-
hal le
ha s</w>
h ound</w>
h ound
h ass
h and</w>
gy neco
gun .</w>
gu y...
gu it
gu ine
gu in
gro ov
gro om
gri ef
gra ph</w>
gra ham
gor k
gor illa
good-b y
good- look
good bye
go th
go d,</w>
gla di
girl ,</w>
gi es</w>
gi e,</w>
get s</w>
geor ge
gentle men
ge e</w>
gar bag
g y.</w>
g unn
g on</w>
g ent.</w>
g en.</w>
g el
g ate
g ass
g ask
g ag
g ...</w>
g 's</w>
ful ly.</w>
ful ly,</w>
ful l</w>
ful fil
fro z
fri end</w>
fri ed
fren ch
fre el
fre ddi
francis co
four .</w>
fore n
for gott
for go
for gett
for d,</w>
for ce</w>
fly nn
fla w
fir e</w>
fin e.</w>
fin d</w>
film mak
fift y</w>
fiel d?</w>
fi re.</w>
fi gur
fi ed?</w>
fi c</w>
fi anc
fer til
fer ri
fer gu
fel ici
fe u
fe ma
far mer
fant as
fan ci
famili ar
fal con
fag go
fac ed</w>
fac e</w>
fac e
fab ul
fa int
fa i
f oun
f oul
f ink
ez .</w>
ey ed</w>
exp ed
exhi b
excu se</w>
exc ali
ex press
ex .</w>
every wher
ever y</w>
event u
ev ely
ett i</w>
eth an
eter n
et y</w>
et t,</w>
est ,</w>
es s!</w>
es ?"</w>
es -
er rand
er n
er e.</w>
er 'n</w>
equi vocat
equi p
epi de
ep iso
enti al</w>
ent o
ent ed</w>
enh anc
end rick
end or
end ing.</w>
ench ant
enc oura
enc ed</w>
en ri
en dow
emer g
ele vat
el ot
el le,</w>
ee e
ed ly.</w>
ed gar
ed di
earth quak
e z</w>
e ve</w>
e m</w>
e ither</w>
e gor
e ating</w>
e ?!</w>
e 's.</w>
e 	
dun can
du s</w>
du de
drug store
dro id
dri ft
dra gon
dr ill
down stair
don e</w>
don ,</w>
do g-
do es</w>
do ctor</w>
do 's</w>
distri but
disgu is
disappe are
dis h</w>
dis appro
diplo mat
differ ent
diff icult
did n't</w>
di gg
di ge
di ego
di ed
di d.</w>
der !</w>
dent on
den ?</w>
demon str
delu sion
del mar
decis ion
de tro
de cla
de bor
de af
de a
dar rel
dar lin
dam n</w>
dal la
da w
da ...</w>
d- d-
d s?</w>
d ron
d ool
d ink
d i</w>
d ed.</w>
d ance</w>
d --</w>
cyn thi
cy ber
cu shi
cu is
ctor ?</w>
credi bil
cre mat
cra y
cour t
cou ple
corre ct
cor p
confir m
conf lic
con temp
con serv
con des
con cent
comp ut
comp ul
commo d
comm on
comm ent
com for
col leg
col lar
coinc id
coff ee
co ordin
co min
co co
co ach
cli ent
cla ir
cl ick
citiz en
cir cle
chil d.</w>
chic ag
chi pp
chees e
che mi
che kov
che ek
chan ge
cham ber
cha unce
cha in-
ch y</w>
ch ron
certi fic
cep t</w>
ce met
cath ol
cas e.</w>
car pet
car n
can y
can non
cam e</w>
cad illa
ca vi
ca ul
c ze
c run
c ould</w>
c oul
c lit
c ity
c eter
c er</w>
c att
c ant
c a</w>
bur n</w>
bu ri
bru t
bro wn
bre nn
bre ez
bre ast
bre ad
bra ce
br ick
bootle gg
body guard
bod y?</w>
bod y!</w>
bo y?</w>
bo y,</w>
bo y!</w>
bo x</w>
bo n</w>
bo at</w>
bo ard?</w>
blo om
ble s</w>
ble s.</w>
ble !</w>
black smith
bir d</w>
bil l</w>
bi zar
bi o-
bi c</w>
bet ter
bet ray
bes id
bern ste
ber ser
ber ry</w>
bel ong
be ver
be e
be at</w>
be am
bb le</w>
bb ed</w>
bask et
bar rel
bar re
bap ti
bal ti
bag .</w>
back s</w>
bab ys
ba x
b s,</w>
b len
b ble,</w>
b am
b al</w>
av enu
author iz
au strali
au f
ator !</w>
ati ves</w>
ath let
ath er,</w>
at ro
at ing...</w>
at -
ast asi
as sa
as s,</w>
as pir
art ic
arm s</w>
ariz on
ard 's</w>
ar di
ar ...</w>
apologi z
ap ol
ap ar
ap ,</w>
any thing</w>
any th
any how
anti- se
ant -
ann ab
ang .</w>
and s</w>
and ro
and -</w>
an thro
an s!</w>
an om
an no
an e</w>
an de
an arch
an a,</w>
an --</w>
am i
am bu
am bro
am ate
alph ab
ali gn
al oo
al ist</w>
al ism.</w>
al bu
al ar
al -
air plan
ah -
ag li
ag ing</w>
ag i
after -
aff lic
af ra
adv anc
ad ult
ad o.</w>
ad e.</w>
ad ap
ach ie
accu s
absol ut
ab sor
ab and
a p</w>
a im
a ar
a !!</w>
_ .</w>
? ?!!</w>
? ?
? "...</w>
<u> us
<u> that
<u> please
<u> now
<u> h
</u> ?!</w>
: 00</w>
9 9
8 0
7 -
6 5
5 5
40 7</w>
3 27
3 2
27 6</w>
20 0</w>
2 35</w>
2 27</w>
2 00
19 0</w>
17 2</w>
16 8</w>
16 7</w>
15 7</w>
15 5</w>
14 8</w>
14 7</w>
14 5</w>
14 3</w>
14 0
10 6</w>
10 5</w>
10 -
1 36</w>
1 26</w>
1 24</w>
1 20</w>
1 15
1 13</w>
1 .
1 -
...wh y</w>
...o h</w>
... well,</w>
... we're</w>
... then</w>
... no</w>
... look</w>
... he's</w>
... e...
... don't</w>
... do</w>
... at</w>
... al
... ?!</w>
. 3
-up s</w>
-of -</w>
-in-law ,</w>
--wh o</w>
-- so</w>
-- not</w>
-- how</w>
-- he's</w>
-- for</w>
-- all</w>
-- -
- ri
- nam
- li
, 	
* ?</w>
'e m,</w>
' cause</w>
" shit
" la
" cor
" bri
! ..</w>
	 i</w>
z ul
z on
z av
zav it
z ap
z am
z a.</w>
z 's</w>
your e</w>
your ...
youn g</w>
yo -
y... but</w>
y... !</w>
y- ass</w>
y' s?</w>
y y
y s,</w>
y o</w>
y lu
y ar
y ach
y a.</w>
y a,</w>
y </u>.</w>
y 's.</w>
y !!</w>
x x
wre ck
worth ?</w>
wor th.</w>
wor d</w>
with draw
with -
wit hou
withou t</w>
wis e.</w>
wis do
wil hel
wil der
wi re.</w>
who ?</w>
who 's</w>
whi le,</w>
wher e's</w>
whati 'm
what's -h
what ?</w>
what -
what ,</w>
wh o</w>
wh iz
weir do
we ed.</w>
we ed
we 'd</w>
way !</w>
wat er,</w>
wash ed</w>
was n't
walk ...</w>
wal let
wal ks</w>
wal k.</w>
wa x
wa ve</w>
wa in
w w.</w>
w us
w s.</w>
w s,</w>
w ron
w right</w>
w right.</w>
w right,</w>
w rap
w in.</w>
w imp
w er</w>
w ent</w>
w ant</w>
w -</w>
vul can
volun tar
vo ir
vo d
vit am
visi on.</w>
vir us
vin ci
vil le?</w>
vil le,</w>
vi gor
vi ch.</w>
vi ch,</w>
ver ?</w>
ven ,</w>
vel i
vel .</w>
ve </u></w>
ve ."</w>
vat ic
vampi re
val le
v ous</w>
v or
v on
v id
v end
v as
v ander
v amp
v agu
ut ,</w>
us ed</w>
up s</w>
up p
up ?</w>
uni on.</w>
under we
un relat
un re
un necess
un load
un kno
un grate
un expect
un der</w>
un comfort
un cer
un c
um s</w>
ul ts</w>
ul t,</w>
uh m
uc cin
u tion
u t.</w>
u mb
u kk
u hu
u -
ty ran
two -</w>
twent y.</w>
twel ve
tw o,</w>
tw ir
tw enti
turn ed</w>
tu m-
tt e.</w>
tt a</w>
tt a.</w>
tru st</w>
tro ph
tro op
tri ple
tresp ass
treas ur
transp lant
trans mission
trans lat
trans fu
trans form
trans ac
tra um
tra pper
tra i
tr y</w>
town ?</w>
tour nam
tooth bru
ton ...</w>
to tal
to on
to m</w>
to b
to ...</w>
to !</w>
tit an
time ?</w>
time ...</w>
tic s.</w>
ti red
ti ju
ti g
ti es...</w>
ti er</w>
ti ed</w>
thre e,</w>
thous e</w>
tho se
tho mp
tho lo
tholo me
thirt y,</w>
thir d-
think ...
thing s...
thi ev
they' re
they 'll</w>
there 's-
ther es
the or
the ad
the -</w>
that 's...
thank s</w>
thank s.</w>
th ri
th ra
th om
th ick
th et
terri fic
teri or
ter y</w>
ter s?</w>
ter ren
ter ra
ter m</w>
teen !</w>
techn ici
tech ni
teach er</w>
tar an
tam per
tain s</w>
tain ed</w>
ta il.</w>
ta i
ta h
ta ?</w>
ta ...</w>
t. v.
t itu
t ch.</w>
t ati
t ask
t as
t ant
t amp
t "</w>
syn thes
syn dic
sympath et
symp hon
sylv ani
sy mb
sy bo
sw im
sw ay
sw anne
sw ann
sut ph
susp en
super intend
sup po
sun sh
sun ris
suit ca
sudd en
suc ces
suc ceed
suc ce
su s
su mp
su mb
su ici
su ic
stuff .</w>
stubb or
stro ke</w>
streng th
stre ak
str y.</w>
str un
str ing
stor m.</w>
ston e?</w>
sto ck</w>
sto ck.</w>
sti mul
sti fl
ster ...</w>
ster 's</w>
ste ak
star t</w>
stand ing</w>
stand .</w>
sta y</w>
st y.</w>
st ut
st one
st on?</w>
st ir
st ing
st ar</w>
st ag
squir rel
sque ak
squ aw
spon tane
spon sor
spok es
spir it
speci al</w>
spe ed.</w>
spe e
spe ct.</w>
spac e.</w>
spac e-
sp ur
sp re
sp l
sor cer
son uv
son s</w>
son s.</w>
some tim
some one
some body</w>
sol v
so ck
so -
smo king</w>
smar t-
smar t
slo vak
sle a
sl ur
ski pper
ski ?</w>
ske pt
ske let
sk y?</w>
sk in.</w>
sk i.</w>
six ,</w>
sir .</w>
sin u
sin skay
sic k</w>
sic ili
si ve,</w>
si re
si eu
si e,</w>
si ber
si a.</w>
si .</w>
shoul der
shop p
shop .</w>
shoo t-
sho wer
she vi
she et
shar p
shang ri
sh y
sh ru
sh red
sh or
sh es.</w>
sh ank
sett le
servic e
ser a
ser ?</w>
sen su
secre t</w>
se min
se iz
se ft
se en
se e,</w>
se ction</w>
se ck
se bast
se am
scumb ag
scrip tion</w>
scrip t</w>
scre en.</w>
schol ar
schiz oph
sch wart
sch mu
sch er
sch ed
sched ul
scen ari
sc ur
sc at
sc ap
sc am
sc ale</w>
satis fac
sand wi
sand er
sanct u
san de
san che
sam ple
sal u
sacra ment
sa w</w>
sa ve</w>
sa un
sa fel
sa ?</w>
sa ...</w>
s... !</w>
s-- you</w>
s oon</w>
s na
s is,</w>
s in'</w>
s ed,</w>
s ard
s ant
s anc
s </u>!</w>
s ..</w>
s 'd</w>
s ",</w>
s !...</w>
ry ing</w>
ru sh
ru s</w>
ru mor
ru m
ru iz
ru fu
roth ste
rosa shar
room s</w>
room ,</w>
room !</w>
ron al
ro y</w>
ro ss
ro r</w>
ro ad</w>
ro ach
ris col
ric ul
ric h</w>
ri st.</w>
ri ot
ri m
ri f
ri er</w>
ri dge
ri d</w>
ri but
rey nol
revolu tion
retri ev
restra int
responsi ble
reli ev
read y</w>
read ing</w>
re vi
re vers
re v
re tire
re stor
re search
re se
re r</w>
re qu
re pul
re pu
re pri
re place
re pet
re par
re mb
re marri
re ject
re i
re hear
re fun
re fri
re cre
re constru
re call
re ally</w>
rat e.</w>
rap id
ran so
ran ge</w>
ran ce.</w>
radi o
ra zi
ra mon
ra il</w>
ra g
ra dic
ra cis
ra ce
ra b
r ound.</w>
r on.</w>
r mp
r ing?</w>
r ing.</w>
r h
r ?</w>
qui x
que en
quar ant
qu iz
qu it</w>
qu int
pyra mid
put ter
pur chas
pu zz
pu s.</w>
ps y,</w>
prou d
proto col
progra mmed</w>
prof es
pro ver
pro por
pro pag
pro mp
pro ceed
pro ce
pro -
pri vac
presid ent</w>
prep are
preju dic
pre va
pre ten
pre ser
pre mi
pre d
pra et
pp y</w>
pp ing.</w>
pow er</w>
pow er.</w>
possi b
pos t</w>
porno graph
por t.</w>
pop cor
po tenti
po pu
po mp
po int.</w>
po ck
pleas e</w>
pleas ant
pla ce.</w>
pizz eri
pink er
pie ce</w>
pic nic
pi es.</w>
pi ec
pho en
phoen i
phil lip
ph one.</w>
ph en
ph as
pet ro
perpet rat
per si
per mit
per im
per form
per ...</w>
per -
penc il
pen elop
ped d
pe t</w>
pe e</w>
pe e-
pe cu
pecu li
pay check
pat ed</w>
pass eng
pass en
pas aden
partici p
par t</w>
par ach
pap er</w>
panc re
panc ak
pan ther
pa inter
pa ign
p t.</w>
p low
p itt
p iti
p es?</w>
p es
p anti
p ank
p ack</w>
p ab
ow n</w>
out si
out -of-
ous ly,</w>
our s</w>
our .</w>
ot a</w>
ori s</w>
ori es.</w>
or bit
open ing</w>
op tion
op s!</w>
op .</w>
oo d</w>
oo ,</w>
ony m
on y.</w>
on s...</w>
on es</w>
on :</w>
on --</w>
om e.</w>
olog y</w>
olog ical</w>
ol d-
oka y,</w>
ok ing</w>
oh ...</w>
oh !</w>
offici al</w>
off ?</w>
oc curren
ob s
o' conn
o x</w>
o tic</w>
o sc
o on
o min
o le
o k</w>
o gre
o ft
o eu
oeu v
o d</w>
o ct
o ath
o ...
nut s</w>
nur se
nu cle
nu ck
now ad
nowad ay
now ...
now --
now ,</w>
nor th
nor mal
nor m
no ve
no v
no se
no mad
no by
no bil
no ..
nn n
nit ro
nick nam
nic ot
ni s</w>
ni e
never the
neut r
necess ar
ne st
ne ar
ne !</w>
nation al</w>
nat ure
nat ural</w>
nano bo
na z
na sh
n tic
n t.</w>
n on.</w>
n er.</w>
n ed
n e,</w>
n as
n '</w>
mu mm
mu m</w>
mu m
mp tion.</w>
moz art
movi es...
mou th.</w>
mou th,</w>
moth er.</w>
more s</w>
mone y-
mon u
mon toy
mo ti
mo ther</w>
mo tel
mo di
mo an
mo ?</w>
mmmm .</w>
mm m
mm er,</w>
mm -h
mississi ppi
mis t</w>
mis su
mis sion</w>
mis sion.</w>
min ute</w>
min nes
min ded</w>
million aire
milli on</w>
mill enni
mil k
mil e</w>
mi rac
mi mi
mi gra
mi d</w>
mi c</w>
mexic an
met ro
met er</w>
mercu ti
ment s...</w>
ment ary</w>
ment :</w>
memor i
mead ow
me ur
me th
me an</w>
me ."</w>
me 's</w>
mck in
mcin to
mcgillicu dd
mc clu
mc ca
mb o</w>
mb le
mat ter</w>
mat es,</w>
mat e.</w>
mat ch
mas sa
marty r
mari ju
mar ks</w>
mar gin
mar gare
mar cel
mar ath
mar an
man n</w>
man n.</w>
man age
man "</w>
mal ari
main fra
magaz in
ma s,</w>
ma il</w>
ma id</w>
ma h
ma fi
ma ...</w>
m- m-
m it.</w>
m ing.</w>
m ic.</w>
m ."</w>
lugo si
luc il
lu mb
lu j
lu gg
lor d.</w>
lor d
look s</w>
look --
lon es
log y?</w>
locat ed</w>
loc al</w>
lo ve-
lo th
lo t</w>
lo st</w>
lo se
lo n</w>
lo ad.</w>
lo ...</w>
ll ll
liv ing</w>
lind se
lin es,</w>
lin ed</w>
like ...
like --
light s.</w>
light ,</w>
life sty
life -
lif e.</w>
lic k</w>
libr ari
li sted</w>
li st.</w>
li bb
let s.</w>
les '</w>
leg end
left -
lead er
lea ve</w>
lea f</w>
le ver
le f
le el
le ech
le c
le :</w>
las z
land s</w>
land 's</w>
lan ter
lan e.</w>
lan .</w>
lamp er
la y,</w>
la v
la mb
la k
la h
l y-
l y's</w>
l li
l le
l ing...</w>
l ers</w>
l er...</w>
l er's</w>
l '
ku beli
ko ess
know n</w>
kno x
kni fe
kin s,</w>
kin der
kin d</w>
kin d,</w>
kil omet
kil l</w>
ki p
ki es</w>
ki e.</w>
ki -
ker ou
ke 's</w>
kay ...</w>
kat rin
kan sa
ka y,</w>
k ron
k op
k ool
k nuck
k itch
k ing?</w>
k in.</w>
k in,</w>
k ick</w>
k ess
k er.</w>
k ent
k auf
k ari
k are
k af
k ."</w>
journ ali
jon es
jo ey
jo .</w>
jer emi
jer em
jenni fer
jell y
jeff --
jeal ous
je zz
je an
jap an
jan it
jacqu el
jack .</w>
ja eg
j ou
j ol
j in
j et
j ani
j ag
j ack</w>
iz ing.</w>
iz ed.</w>
itut e,</w>
itt ing.</w>
itch .</w>
it ute</w>
it s?</w>
it ing</w>
it hi
it es</w>
it e?</w>
it al</w>
it a.</w>
it .
ist s.</w>
ist er</w>
ist ?</w>
ish ing</w>
ish ed.</w>
ish !</w>
is- nam
is on?</w>
is ab
ir o</w>
invol ve
inter i
int h</w>
inst ant
inno c
ing ..</w>
infor man
in timat
in ti
in sol
in sinu
in signific
in o.</w>
in ju
in ha
in fra
in ess?</w>
in depend
in cub
in compet
in a?</w>
impro vis
impro ve
imp ris
imp ot
imp lant
immi gr
im it
im be
illi on</w>
ill -
il led</w>
il la.</w>
il ity</w>
ii ii
igh t.</w>
ick ?</w>
ic s?</w>
ic o</w>
ic er
i- n-
i um</w>
i ren
i j
i ff
i eg
i ch
i a!</w>
hyp noti
hundre d.</w>
hundre d,</w>
hundre d
hun seck
hump er
huh ?</w>
hou se?</w>
hor n</w>
hor iz
honey mo
holi day
hob bi
ho ward
ho t-
ho o</w>
ho mer
ho g-
ho a
hmm .</w>
him ...
hill .</w>
hi stori
hi p
her es
her e.</w>
hello ?</w>
hel p</w>
hel en
hear t</w>
head s</w>
he tic</w>
he mi
he in
he ck
he 's...
he '
hay d
hat ch
har ry
har le
happ y</w>
hand shak
hand ic
hand .</w>
hand ,</w>
han ukk
han '
han' bill
hamp shi
halle luj
hal lowe
hair cu
ha wa
ha iti
ha d</w>
ha ag
h ul
h r
h o</w>
h ink
h i</w>
h ed
h ali
h '
gu staf
gu ess</w>
gu err
gu e?</w>
gu e,</w>
gru sinskay
gru dg
grow n</w>
gro cer
gre t
gre nad
gre e
grand mother
grand daughter
gra y
gra ve
gra s
gra m</w>
gr ound</w>
gr in
goddam nit
go d.</w>
girl .</w>
gi v
gi mm
gi e?</w>
gi bb
ght er</w>
ghe ad
gh .</w>
gg y</w>
gg le</w>
get -
ger !</w>
ge y
ge e,</w>
ge --</w>
gat e?</w>
gar ris
g w
g ou
g limp
g itt
g it
g in.</w>
g es
g ence</w>
g ell
g ed,</w>
g ate</w>
g ast
g ap
g al</w>
g a.</w>
fur nit
fun dam
fundam ent
fuck ing</w>
fu zz
fru str
fright en
fri end.</w>
fri ed</w>
fre u
fre e.</w>
fran ci
fran ces
forgi ven
for rest
for m.</w>
for d?</w>
for bid
foot ste
foo t.</w>
foo t-
fol k</w>
fol d</w>
fo li
fl int
fis her
fire -
fir st-
fin e
figu red</w>
fif teen</w>
fi es</w>
ff e
fer n
fast -
fashi on
fas ci
far ra
fab ric
fa r</w>
f. b.
f ou
f ly</w>
f ili
f e,</w>
f att
f -</w>
ey e</w>
extra ordin
exper t
exp lor
exor cis
exclu si
excep t</w>
exam ple
ex tr
ex tor
ex termin
ex ten
ever ,</w>
ever '
est !</w>
especi ally</w>
es ....</w>
eri es</w>
er y,</w>
er a</w>
er "</w>
er !!</w>
epide mic
enthusi ast
ent repre
ent ic
engine er
eng age
ence --</w>
enc y,</w>
en vi
en or
en na</w>
en na
en joy
en jo
en e,</w>
en di
emb ar
ell ing
ell 's</w>
eleven .</w>
ele an
el vis
el s,</w>
el led</w>
el ain
eg yp
effe ct
edu cat
ed en
ed </u>.</w>
ed 's</w>
eas y</w>
e yes
e x</w>
e ti
e mili
e m.</w>
e led</w>
e inste
e ar</w>
e ...i</w>
e .'</w>
dy a</w>
dwar f
du e</w>
dre x
dre d</w>
dra cu
dr y.</w>
down load
dou ble</w>
dool itt
done gh
don ov
dol ph
dol lar</w>
does n
do t
do ?</w>
dist ur
dise a
dis sol
dis respect
dis put
dis mant
dis coura
dis co
dis agre
ding s,</w>
dic k</w>
di z
di vision
di stric
di m
di es</w>
di e,</w>
dg ed</w>
destro y
des ira
demo cra
deli ri
del ay
del an
decis i
de x.</w>
de vot
de terior
de put
de pin
de l</w>
de cre
de ad</w>
de -</w>
dd ing</w>
dd ed</w>
day -
dar ry
dar len
da vi
da is
d' art
d'art agn
d y's</w>
d well
d ull
d riscol
d ood
d es?</w>
d ent</w>
d edu
d ate
d aph
d an,</w>
d ale</w>
d ab
d "</w>
cy nic
custo mer
curi os
cu re
cu ra
cu er
cu ban
ctor ,</w>
ctor 's</w>
ction s,</w>
cti c</w>
ct ed,</w>
cry p
cru is
cro ss</w>
cro co
cri me</w>
craz y</w>
cra zi
cra mp
cra ft</w>
cra ft.</w>
cra ck</w>
cr ou
cour se.</w>
counter fe
count ry
could n't</w>
cosm et
corn eli
conver ti
contri but
contra dic
contra ct
consu el
consci ous
conne ctic
conne cted</w>
concei v
con ve
con tr
con sul
con s
con fin
con centr
compla in
compen sat
comp os
comp art
command er
com ed
com e.</w>
col wy
co s
clit or
cle vel
cle ment
cle men
civil i
cigare t
ci a
chur ch
christ sak
christ mas
cho ir
chil d,</w>
cher noby
cheese burg
cheer lead
che t</w>
che st
che n</w>
che ck.</w>
che at
char lie
char le
chanc ell
champ ag
cha in
ch on
ch in</w>
ch a?</w>
cent .</w>
ce l</w>
ce ci
cav al
cat er
cat egor
cat ch
cat astro
casu al
cas t</w>
cas ab
casab lanc
car ro
car ol
car di
car -
capp uccin
cap ac
cap '
can did
camp bell
call -
cal led
ca sh
c y,</w>
c unn
c ron
c rick
c ough
c ind
c es,</w>
c ed,</w>
c ass
cass and
c ?</w>
by e-
but ch
but ...</w>
bus y.</w>
bur n.</w>
bur n,</w>
bur gun
bul jan
buil ding</w>
bu s</w>
bu reau
bu ddi
bu d
bru mb
bru is
brook ly
bri dge</w>
bri dg
bre athe
bou lev
bor ne</w>
bor n
bor der
book ?</w>
boo ks</w>
boo k.</w>
bol shevi
bo wel
bo redo
bo r</w>
bo at.</w>
bo ard,</w>
bo 's</w>
blo sso
bli zz
bl under
bl is
bitch .</w>
bit ter
bit s</w>
bis cu
bi ograph
bi g</w>
bi en
bi e</w>
bi d</w>
bi aly
bi .</w>
bi -
bett er</w>
ber ke
ber ?</w>
belie ve</w>
bel on
bel l</w>
bel gi
be y
be sto
be st-
be l</w>
be av
be an
be ad
be --
bb y</w>
batt ali
bat teri
barra ck
bar tholome
ball s.</w>
ball ?</w>
ball -
bal d
bal con
bah am
back y
back ...
bach el
ba y</w>
ba i
ba d</w>
b-b -
b or.</w>
b ling</w>
b idd
b er.</w>
b ed,</w>
b ach</w>
b a.</w>
aw ww
auto graph
au dre
au bre
att ribut
att a</w>
ator y.</w>
ator s,</w>
ation s...</w>
ati vely</w>
at ure.</w>
at tach
at ely,</w>
at ed...</w>
at e's</w>
at 's</w>
ast ero
asle ep
as s!</w>
as ak
as ...</w>
arti st
arm ed</w>
arist ot
aren 't</w>
are r</w>
are a
ar ity.</w>
ar i</w>
ar gh
ar g
ar ctic
ar cha
ar ab
ar a</w>
appre ntic
appre hen
app et
app aren
anti-se mit
ant oni
ant ly</w>
ant ici
answ er
anom ali
ann e</w>
ang le</w>
anest hesi
and a</w>
and ?</w>
and ...</w>
and -a-
ance stor
anat om
an onym
an o.</w>
an o,</w>
an der</w>
an astasi
amate ur
am pu
am end
am ar
am ,</w>
all er
all ?</w>
al so
al s!</w>
al ou
al might
al ask
al am
al </u></w>
al -</w>
al --</w>
air port
air e</w>
ain' t</w>
ah -h
ag ra
ag ent
ag a
affir m
advent ur
administ r
adm itt
ade qu
add a</w>
ad or
ad o</w>
actu ally
act res
achi ev
ach e</w>
accu mul
ac t.</w>
ac t,</w>
ac i
ac cor
ab s
ab ol
ab ag
a. i.
a- go
a w</w>
a le.</w>
a head
a f</w>
a ...?</w>
] .</w>
?! ?!</w>
? </i></w>
? 	
<u> him
<u> here
<u> br
</u> ??</w>
</u> !!</w>
</i> .</w>
: 00.</w>
7 8
6 5.</w>
6 3
6 .
5 00
5 %</w>
4 5
30 3</w>
3 rd</w>
3 .
26 2</w>
26 1</w>
20 9</w>
20 8</w>
2 n
2 8
2 50</w>
2 14</w>
2 -
19 7
19 4
19 3
18 8</w>
18 2</w>
18 1</w>
17 5</w>
17 4</w>
16 3</w>
15 3</w>
15 0</w>
14 .</w>
10 00</w>
1 37</w>
1 35</w>
1 31</w>
1 29</w>
1 19</w>
1 15</w>
00 ,000</w>
...wh o</w>
...no .</w>
.... ?</w>
.... ..
... with</w>
... un
... she's</w>
... see</w>
... please
... are</w>
... "
.. you</w>
.. i</w>
. ?</w>
. ,</w>
-wh o</w>
-in- law</w>
-ha -ha
-- with</w>
-- where</w>
-- she</w>
-- she's</w>
-- oh,</w>
-- no
-- at</w>
- the</w>
- out</w>
- doo
- c
- ass</w>
* you
* --</w>
's- a</w>
's "</w>
' yes
' st</w>
' s!</w>
' no
' droid
' 8
' !</w>
" yes
" we
" se
" fuck
" friend
" co
" c
! </u></w>
! </b></w>
! !...</w>
zz zz
zz o</w>
zz o.</w>
zi p
zer o-
z y</w>
z o</w>
z ing.</w>
z im
z h
z er,</w>
z eng
zeng ur
zengur t
z en
z ack
z ...</w>
your s</w>
you' ll
you th
you ll</w>
you ?</w>
you ....
yon d</w>
year- ol
year s</w>
yeah ...</w>
ye t</w>
y- boy</w>
y- boy.</w>
y von
y t
y ss
y self
y n</w>
y l</w>
y ing,</w>
y es</w>
y er
y e-
y ay
y ank
y ?"</w>
y ..</w>
y ...i'm</w>
y ....</w>
y ",</w>
x y</w>
x ro
x ed
x avi
wy at
writ er,</w>
wow ...</w>
would n't</w>
would n't
worshi pper
work ing</w>
work ing
work ed</w>
wor ms</w>
woods bor
wood ?</w>
wood 's</w>
wonder ful
won 't</w>
wo man</w>
wo bb
wn ed</w>
with dra
witch craft
wit s</w>
wit .</w>
wit ,</w>
wis e?</w>
wis e,</w>
win d</w>
win d,</w>
win !</w>
wil low
wil fre
wil bur
wife ...</w>
wick ed
wi re,</w>
wi fe</w>
wi fe.</w>
wi el
wi e.</w>
wi dow
who ever</w>
whit ef
whi p
whi le?</w>
whi le.</w>
whi che
where about
what's-h is-nam
what so
what ch
what .</w>
what 're</w>
what '
wh y-
wh op
wh in
wh eth
wheth er</w>
wh eat
wh ...</w>
wester n</w>
well s</w>
wel fare
wel come</w>
weight ,</w>
weigh t</w>
weigh t.</w>
week s
wed d
we st.</w>
we n</w>
we l</w>
we en
we bb
we as
water ...
wat er.</w>
wat ch</w>
ward s</w>
ward rob
ward ?</w>
war t</w>
war ren
war p
want ed</w>
walk -
wal l</w>
wal k,</w>
wait res
wait ,</w>
wa n</w>
w yo
w ur
w rist
w rink
w rig
w n</w>
w la
wla de
w int
w ide</w>
w er.</w>
w ed</w>
w e,</w>
w att
w are.</w>
w ampu
w ake</w>
w ah
w ad
w ab
w ?!</w>
vou ch
volunte er
voic e-
vo or
voor he
vo ir</w>
vo ice
vir gil
vinc ent
vic ti
vic h</w>
vi ri
vi gil
vi enn
vi ch?</w>
vi c</w>
vi an</w>
vi a</w>
vi .</w>
veron ic
ver s,</w>
ver ing</w>
ver dic
ver b
ver ...</w>
ver 's</w>
vent ril
ventril oqu
ven k
ven dett
vel v
vel oc
veget ab
ve sti
ve gas
ve ga
ve '</w>
vari ab
vap or
vander bil
val id
vac ation
va ult
va le.</w>
v om
v o</w>
v o.</w>
v la
v ine.</w>
v ine
vine gar
v ici
v et
v anc
vanc ou
v -
v !</w>
ut ter
ut es</w>
ut e.</w>
us ing</w>
us e.</w>
ure s...</w>
ur ani
ur ?</w>
uph ol
uphol ster
up sett
up s.</w>
up ris
up gra
up dat
up ...</w>
unn at
uni on</w>
understood ?</w>
under wear
under stu
under stan
under pant
under ne
under ground
under cover
un tru
un tra
un touch
un t</w>
un t
un ra
un profession
un pleas
un par
un pack
un marri
un lik
un k</w>
un its</w>
un icor
un h-
un dress
un der.</w>
un con
un bear
umb rel
um -h
ultra -
ul c
uh -</w>
ug ly</w>
u tion.</w>
u st</w>
u r</w>
u ous</w>
u lar</w>
u h</w>
u e</w>
u cla
u ck</w>
u b
u -w
tz we
ty pe.</w>
twent y</w>
twel ve.</w>
tw ink
tw i
tw enn
twenn y-
tur n.</w>
tu s</w>
tu mm
tu m
tu ff
tu bb
tu b.</w>
tt ing</w>
trust worth
tru e</w>
tro oper
tri f
tri bun
tri bu
tre v
tre mb
tre e</w>
tre e
transp or
transm it
trans sexu
trans -
tran si
tran quil
tranquil iz
traff ick
trad ition
tra vis
tra u
tra pp
tra je
traje ctor
tra ine
tra in</w>
tra ck</w>
tra ck,</w>
tr ink
tr il
tou rist
tou ch</w>
tor on
tor 's</w>
tooth past
too k</w>
ton s</w>
tom cat
toi let
toge ther</w>
toge ther.</w>
to s.</w>
to p.</w>
to p-
to k
tok yo
to e
to dd
to ."</w>
to --</w>
tip to
tion ;</w>
time s.</w>
time -
tim et
tick et.</w>
tick -to
ti ous</w>
ti mm
ti le.</w>
ti eth
ti er.</w>
thurs day
thro tt
thre epi
thre e...
thr ough</w>
thous e.</w>
thom as
tho u</w>
thirt y?</w>
thir d</w>
think ing
thing s.</w>
thing --
thing 's</w>
thes e
therap y</w>
theore tic
the y-
the m</w>
that s</w>
that ,</w>
th yself
th ough</w>
th e,</w>
th an</w>
th al</w>
th a</w>
th 's</w>
terri f
ter y.</w>
ten n
temper ature
techno log
te st?</w>
te quil
te ous</w>
te les
te h
te e.</w>
te ch</w>
tch a</w>
tch -
tax pay
tax -
tatt agli
tap est
tan gi
tal l</w>
tal e</w>
tak e-
tak e
tail s</w>
tab lo
ta n</w>
ta iled</w>
ta ho
ta 's</w>
t;& l
t;&l t;
t;& g
t;&g t;</w>
t y!</w>
t wn
t we
t utt
t sch
t sav
t s!</w>
t or.</w>
t ing.</w>
t ill</w>
t et
t ch</w>
t ch,</w>
t all
t ali
t able.</w>
symp to
sy ri
sw it
swit zer
sw ind
sw ick
sw am
surpris e</w>
sure --
sur g
suppos ed
suppos e</w>
superst iti
super her
sup press
sun g</w>
sumb itch
sul u
sul liv
sugge st
suck er</w>
sub- base
sub mer
submer si
su pre
su p,</w>
su m</w>
su it.</w>
su d
su bur
su bor
subor din
su .</w>
stud ent
stu mp
stri ke</w>
strat e
stra w
stra p
str y</w>
str ick
str and
stor m</w>
stoo d</w>
sto mp
stick s.</w>
stick .</w>
stick ,</w>
sti pul
ster s!</w>
ster ed</w>
ster e
ster cor
steph ani
sten ograph
ste wart
ste p</w>
ste in
ste el
stay ed</w>
stat es
start ed</w>
star k
star gh
star buck
stand ard
stand ,</w>
stal liz
st y,</w>
st unn
st s?</w>
st ry
st ool
st itch
st ed.</w>
st as
st ant
st ah
st age</w>
st age.</w>
st adi
ssi on</w>
ss ack
sque am
squ id</w>
squ id
spo t</w>
spo il
splen di
spir itu
spid er
speci ali
spe ed?</w>
spe arch
spearch uck
spar azz
spac e
spa ghet
sp rit
sp rink
sp ra
sp lit
sp le
sp la
sp ire
sp ic
sp eng
sp en
souven ir
south pa
sort ing</w>
sor t</w>
sor ry...</w>
sor ry,</w>
sonuv abitch
son ris
son or
son ;</w>
son -</w>
someth in'</w>
some place
some one's</w>
some ?</w>
soli d
sol lo
sol it
sol dad
soci op
soci et
so vi
so on.</w>
sn or
smoo th
smo ke
smith ,</w>
smit h</w>
sma sh
sm y
sm ut
slu gg
sli me</w>
slea ze
sle ight
sle az
sla ve</w>
sla ck
sky scra
sk y,</w>
sk ul
sk imm
sk ed
sked add
six ty-</w>
sir ...
singul ar
sinc e</w>
sin at
simp le
sil enc
sign ed</w>
sig n</w>
side s</w>
side kick
si ze</w>
si ou
si mi
si l</w>
si ght</w>
si es</w>
show ing</w>
shot ,</w>
shop lift
shop ?</w>
shop ,</w>
sho w</w>
sho ck</w>
shit ,</w>
shir t.</w>
shir t
ship s.</w>
shi ps</w>
shi ft</w>
shi '
sher min
sher at
shel l</w>
she et.</w>
shaw ,</w>
shap ed</w>
shap e</w>
shangri -
sha w</w>
sh y</w>
sh u</w>
sh ort</w>
sh er</w>
sh al
sh aft
sexu al</w>
sevent h</w>
seven- point
ses abag
servic e</w>
sera fin
ser t
sent in
sen or
sell ing</w>
self- destru
sel y.</w>
sear ch</w>
se y.</w>
se x</w>
se u
se ts</w>
se t.</w>
se p
sep te
se ment</w>
se me
se mat
se is
se en</w>
se e.</w>
se a</w>
scu se</w>
scu ff
scrip t.</w>
scre en</w>
scrat ch
scra wn
scot ch</w>
sco o
sci ence
school -
schne id
schizoph ren
sch napp
sch e</w>
sch a
sc run
sc rub
sc roll
sc oun
scoun dre
sc ore</w>
sc ents.</w>
sc ent</w>
sbur g.</w>
say s</w>
sav ing</w>
sau ci
sau c
satur day
sat ch
sar cast
sap i
sande fur
san to
sam ?</w>
sal vat
sak en</w>
sail ing</w>
saf e</w>
sack .</w>
sa y.</w>
sa wy
sa w.</w>
sa le
sa avi
s... it's</w>
s... i'm</w>
s. a.
s- s-
s y,</w>
s se
s outh</w>
s ound</w>
s men</w>
s man,</w>
s lin
s ity</w>
s iss
s es!</w>
s educ
s att
s ass
s app
s and</w>
s al</w>
s </u>...</w>
s </u>,</w>
s ..
s 're</w>
s '?</w>
s "?</w>
ry --</w>
runn ing</w>
runn ing,</w>
ru ther
ru sesabag
ru m</w>
ru dol
row av
row ,</w>
row !</w>
rosen ber
rose mar
room ?</w>
rol ler</w>
rol led</w>
rol l,</w>
rock- n-
rober t
road block
ro zengurt
ro y.</w>
ro ss</w>
ro ok
ro de
ro c
ro am
ro ad.</w>
ris t</w>
ring ele
ring -a-
ring-a- ding
rim ga
right -
ric an
ri pp
ri p-
ri gg
ri es,</w>
ri ell
ri eden
ri ed</w>
ri de</w>
ri de
ri d
ri chi
rhy th
rey n
reven ge
res ound
res ili
res ent
res '</w>
repu gn
rena iss
ren de
rende z
ren d
remb rand
reli ef
relat ed</w>
rek all
regre tt
regi on
reg ard.</w>
refri ger
recei pt
reas sign
read s</w>
reac tion</w>
re zz
re xro
re tro
re tre
re tra
re tic
re tch
re stri
re st,</w>
re spect</w>
re pt
re press
re pres
re new
re neg
re ne
re mov
re medi
re me
re main
re ly</w>
re ign
re hab
re h
reh abil
rehabil it
re gener
re gar
regar d</w>
re fresh
re fra
re form
re d!</w>
re cit
re cent</w>
re appear
re al</w>
re al.</w>
rat ing</w>
rat ed.</w>
rat -
ramp art
rain bow
ra vell
ra spa
ra sc
ra mo
ra m,</w>
ra indro
ra ft
ra dar
ra !</w>
r yo
r ound</w>
r on,</w>
r ine</w>
r hi
r ation.</w>
r ati
r alph
qui re.</w>
qui et</w>
quest i
que en</w>
quarter -
quar rel
quar re
quali fic
qu in
qu ill
qu et.</w>
qu es.</w>
qu ant
pur p
pup p
pun ct
pun ch
pump kin
pu ss</w>
pu s</w>
psycho analy
ps y.</w>
prote cted.</w>
proof ,</w>
pron oun
promis e</w>
prohi b
prof it
probab ly</w>
pro w
pro pri
pro po
pro phe
pro ces
pro c
privileg ed</w>
print s</w>
presu mp
precau tion
pre vent
pre sti
pre scri
pre occupi
pre mat
pre domin
pre dict
pre dat
pre cin
pr un
pr o</w>
pr ero
prero g
pp y,</w>
power ed</w>
poss ession
poss ess
positi ve</w>
positi on?</w>
pos it
pos ed</w>
pop sic
poo f
poly mer
polit ics</w>
polic em
pol ar
po st.</w>
po st-
po p.</w>
po di
plu ton
play ing</w>
play ers</w>
plan -
pla y.</w>
pla st
pil la
pie ce
pic k</w>
pi x
pi sto
pi rac
pi pel
pi one
pi on
pi gg
pi g-
pi e.</w>
pi d</w>
pi c</w>
pi ano
phys ical</w>
pho bi
phil anthro
pharma co
pharma ce
pharmace ut
ph yl
ph oo
ph ill
ph er
ph al
ph .</w>
pet er</w>
person al</w>
person al
perman ent
perim et
per vers
per son</w>
per sist
per s.</w>
per ra
pen al
peac e</w>
pe e.</w>
pe as
pe ...</w>
pay off
pay in'</w>
pay -
pau l</w>
pati ent
pat ch.</w>
pat ch
passion ate</w>
pass wor
pass age
part ic
part -
paren ts</w>
param et
par ti
par t.</w>
par ry
par lor
par is
pan am
pal m
pa y</w>
pa le
pa jam
pa id
p. s.</w>
p ure
p oun
p ou
p neu
p ms
p ly
p lun
p lic
p li
p len
p ine</w>
p in.</w>
p es,</w>
p edi
p ak
p a</w>
p a,</w>
own er
own ?</w>
ow ww
over react
over load
over do
over .</w>
ov .</w>
out weigh
out s,</w>
out ing</w>
out /
out -
out !
ous ;</w>
ous -
our ,</w>
oun ge</w>
ou ch
otherwis e,</w>
ot s</w>
ot e</w>
ori s.</w>
ori es,</w>
ori e</w>
ori a</w>
organ is
ore ,</w>
order ed</w>
or gi
or da
or d
or che
or ac
oper ation
op s.</w>
op pres
op pon
op ardi
oo m</w>
oo d.</w>
oo ?</w>
ong pre
one- of
one- half</w>
on na</w>
on ly
on ia.</w>
on es
on er
omet ric</w>
om ?</w>
ologi st.</w>
ok ,</w>
oh ,
offic e</w>
off end
off ...
oc cur
obs ess
obje cti
ob stet
ob stac
ob no
obno xi
ob liter
ob ay
o-o- o-
o- n-
o z</w>
o z
o y
o ve</w>
o ve
o ther</w>
o stre
o spher
o pen</w>
o on.</w>
o o</w>
o lo
o leg
o la
o ke
o dor
o ch
o c</w>
o ."</w>
ny mp
nymp ho
nut r
nu wand
nu ke
now .</w>
nove mb
not ...</w>
nor the
noo o
no t.</w>
no t,</w>
no stra
no stal
no ir
no ...</w>
nn nn
ninete en-
nin e,</w>
nightma re
night ?</w>
nic k</w>
ni pp
ni m
ni kk
ni e?</w>
nex t</w>
nex t
newspap er
net t.</w>
nes ses.</w>
ne y?</w>
ne y,</w>
ne y
ne ur
ne s.</w>
ne ed</w>
ne cks</w>
ne ck</w>
ne c
ne bu
ne at
navi gat
nau ght
nat ali
narcis su
nar r
nail s,</w>
nag asak
na p</w>
na ils</w>
n s,</w>
n ood
n one
n ish</w>
n inth</w>
n er's</w>
n ed,</w>
n apo
napo le
n a,</w>
n --</w>
myster i
my st
my dick
must a</w>
muse um
musc le
mur do
mun d
mul tip
mu st</w>
mu sli
mu s.</w>
mu m.</w>
mu h-
mu ck</w>
mu -
ms y</w>
mp le</w>
mou st
mother she
moth er,</w>
morn ing
mor row,</w>
mor rh
mor lock
mor al
moo re
mon sie
mon ro
mon ot
mon go
mon es
mones cu
mon d</w>
mon ast
mon !</w>
mole cu
mock y-
mobi le.</w>
mo tt
mo squ
mo r</w>
mo or
mo lo
mo ist
mo h
mo e</w>
mo dul
mmmm m.</w>
mmmm ,</w>
mm m.</w>
mm ...</w>
mit ri</w>
mist er</w>
miss ou
miss ing</w>
mis s</w>
mira cul
minnes o
min t</w>
min im
min er
min e</w>
min e.</w>
min e
mill er
midd le-
midd le
micro chi
mic rowav
mi s</w>
mi mm
mi gu
mi gr
mey er.</w>
mey er
mete or
mess eng
mes ses</w>
mes cal
mer rit
mer r
mer ch
mer cen
mer ced
ment ation,</w>
ment 's</w>
men 's</w>
memb er
medi oc
medi ev
mean ing</w>
mean -
me t</w>
me mph
me ck
me ant
me :</w>
me -
me !
mcin tire
mcg ann
mcclu ske
mc man
mc gover
mbo .</w>
may onna
mau -
mau- mau
mathil da
mat .</w>
mast urb
mast ers</w>
mast er,</w>
massa chu
mas seri
mas quer
mas co
mas car
marsh mal
marri ed
marl bor
mari et
maran zan
mar t</w>
mar t
mar k.</w>
mar il
mar co
mani ac</w>
man ner
man n?</w>
man kind
man g
man che
mal fun
mal en
make -
mak ers.</w>
mak er</w>
mail bo
mag ne
mack el
mac y</w>
mac y.</w>
mac far
mac .</w>
ma ur
ma ster</w>
ma ster.</w>
ma s.</w>
ma p
ma inten
ma in</w>
ma im
ma iled</w>
ma i-
mai- ta
ma i
ma d</w>
ma cre
macre ad
ma ck?</w>
ma ck</w>
ma cau
m ult
m t
m outh</w>
m in'</w>
m i</w>
m ali
ly ss
ly ing.</w>
ly --</w>
lux ur
lun de
lunde ga
luck y</w>
lu th
lu cre
low ing</w>
love bir
lor d</w>
look ing.</w>
look ed</w>
look -
lon el
logi sts</w>
logi st,</w>
log ist</w>
lock ed</w>
lock ?</w>
load s</w>
lo t.</w>
lo s.</w>
lo p.</w>
lo ot
lo de.</w>
lo an
lo 's</w>
lle wel
ll l
little ...
lit hi
list en,</w>
lip ni
ling 's</w>
lin s?</w>
lin ing</w>
lin ed.</w>
lin e?</w>
lin ...</w>
lin !</w>
lik eli
lik e,</w>
light ?</w>
light ...</w>
lif e,</w>
li ver
li veli
li t</w>
li on</w>
li min
li ke.</w>
li ft</w>
li fel
li est</w>
li es.</w>
li es!</w>
li e?</w>
li e...
li e!</w>
li ar
li ais
li a,</w>
lett u
lett e</w>
let on.</w>
les s!</w>
les bo
les bi
les ...
leon ar
leng th
legis lat
leg iti
leav en
lear n</w>
le vi
le stercor
le d!</w>
le an
le </u></w>
le ."</w>
land scap
lan e</w>
ladi es</w>
la zar
la y.</w>
la wn
la val
la ps
la plant
la plan
la mar
la m
la ine
la id
la h.</w>
la ce</w>
la ce,</w>
la ble</w>
la at
l ur
l t;&lt;
l s,</w>
l s
l ound
l ori
l or.</w>
l ist</w>
l ing!</w>
l illi
l i</w>
l er!</w>
l ang
l aloo
l ...</w>
l -a-
kur tzwe
kur t
ku at
kry p
kru e
kra mer
kor r
kop al
kni fe</w>
kni fe.</w>
kne e
knee cap
kir k
kind a</w>
kill ing</w>
kil led</w>
kid s</w>
kid nap
kick ed</w>
ki ,</w>
key s.</w>
kent uck
keep ing</w>
kath ry
ka y.</w>
k rink
k ringele
k obay
k laat
k in</w>
k ham
k g
k et
ket ch
k ers</w>
k er,</w>
k aren
k amp
k am
just ice
jun ta
jun e
jun ction</w>
juli et
ju sti
ju dge
ju are
jor gen
joh n</w>
jo shu
jo ke
jo gg
jo b</w>
jess ic
jes us,</w>
jeri k
jer k-
jeff er
je thro
je opardi
je ct.</w>
je anne
jan e.</w>
jack s.</w>
jack 's</w>
ja h</w>
j. ,</w>
j ure</w>
j o</w>
j i</w>
j ar
j ah
j a,</w>
iz ation</w>
ity ;</w>
itut e.</w>
ition s.</w>
iti ve.</w>
iti ve,</w>
iti es!</w>
itali an-
it z</w>
it y-
it es.</w>
it es,</w>
it a</w>
it ...</w>
it ."</w>
it 'll</w>
ist s,</w>
ist an</w>
iss a.</w>
isra el
ish es</w>
ish ...</w>
is on,</w>
is ite</w>
is cu
is --</w>
ire ?</w>
ir ish
ir ing</w>
ir an
investig ator
inve stor
inter cept
inter -
intelli gen
integr ity
int o</w>
int ed</w>
inn ?</w>
inher it
ing ton</w>
ing s...</w>
ing ness</w>
ing ing</w>
ing </u>.</w>
ing !!</w>
infer i
ine --</w>
inde ed
ind a</w>
incre as
inc t.</w>
inc in
in' t</w>
in' s.</w>
in' -
in ver
in vad
in tra
in spect
in sight
in quir
in op
in o</w>
in just
in human
in furi
in fu
in fla
in fir
in e!</w>
in discre
in differ
in complet
in car
incar cer
in au
inau gur
in adequ
in ."</w>
in --</w>
impres sion
import ant
imp lo
imp ec
imp act
imm un
imbe ci
im ent</w>
illu str
illeg al
ill ?</w>
ill 's</w>
il le.</w>
il ities</w>
il a</w>
if y</w>
if ,</w>
id s</w>
id er
id ent</w>
id el
id 's</w>
ick er
ici al</w>
ic on</w>
ic e...
ic ally
ic --</w>
i... uh...
i. a.</w>
i- i</w>
i'm- i'm</w>
i' d
i z</w>
i van
i red</w>
i ow
i mb
i m.</w>
i m,</w>
i er</w>
i er.</w>
i an?</w>
i ac
i ...i</w>
i --
i 's</w>
hypo crit
hypo cris
hyp no
hy gi
hus se
hur t</w>
hundre ds</w>
hun t</w>
hun h.</w>
humper din
hu t</w>
hu mour
hu man</w>
hu m
howe ver</w>
house ...</w>
house -
horses ho
horri ble
hor se,</w>
hor r
hope less
hoo ,</w>
hone y.</w>
hon ore
hon or</w>
hon est</w>
homic id
hol ding</w>
hol d,</w>
ho t</w>
ho mes
ho mel
ho me</w>
ho me.</w>
ho le,</w>
ho ch
ho .</w>
hmm ...</w>
hill y
hil ari
hil ar
hi jack
hi gg
hh .</w>
hh ...</w>
hh ,</w>
her n
her et
her ...
her --
hen der
hello ?...
hello ,</w>
hel met
hel l</w>
hee- hee-
head s,</w>
head quar
head -
hea ven</w>
he s.</w>
he p
he morrh
he ming
he avi
he ard</w>
he ard
he ar</w>
he 'd</w>
haven 't</w>
haun ted</w>
har ol
har lin
hand ed.</w>
hand cuff
han g</w>
ham !</w>
hall or
hal li
hair dress
ha ul
ha sh
h m.</w>
h m
h it.</w>
h h</w>
h es</w>
h er.</w>
h endrick
h ence
h e,</w>
h an</w>
h a</w>
h a.</w>
gy psi
gun shot
gul li
guil ty</w>
gu y</w>
gu t</w>
gu s</w>
gu s,</w>
gu mp
gu iz
gu ard.</w>
gu ard,</w>
grun eman
gro tes
gro ss
gris so
gri f
gre n
gre go
gre en</w>
gre ek
gre ed
gre at</w>
gras shop
graph ic</w>
grand f
gran t</w>
gran t.</w>
gradu ate</w>
gra pe
gra m
gra ft
gra b
gr ound.</w>
gr ound,</w>
gott a</w>
got ten</w>
gor ge
goo se
goo d.</w>
goo d,</w>
gon na
goddam mit
god des
go ssi
go ph
go ebb
go ,
go 's</w>
glu tt
gla mor
girl s.</w>
gib ber
gi zz
gi z
gi ven</w>
gi ve</w>
gi ve-
gi ov
gi mme</w>
gi gg
gi de
ght ,</w>
gg ed
get .</w>
gest ap
ger oni
geni us
gen u
gen et
gen der
ge kk
ge ez
ge e.</w>
gar lic
gall eri
gal lo
gal ax
gal a
gala xi
ga ve</w>
g- g-
g under
g ull
g t;&gt;</w>
g one</w>
g one.</w>
g n</w>
g lov
g lit
g len</w>
g illi
g ill
g id
g g</w>
g es,</w>
g ers</w>
g ate.</w>
g art
g -</w>
fur twn
full -b
ful fill
fuck s</w>
fuck ing-
fuck in'-
fuck .</w>
fu ss</w>
fu g
fron t</w>
friend s...
fri en
freed om
fre igh
fre e</w>
fre e-
fre dd
fre ck
frau le
fra g
four th.</w>
four teen</w>
four ...</w>
forty- five</w>
fort h</w>
forgott en
foren sic
fore ver
fore clo
for ward</w>
for tre
for t,</w>
for saken</w>
for m,</w>
for ger
for -</w>
for -
foot step
foo t,</w>
foo d</w>
follow ing</w>
fo ss
flo or
fli pp
fle xi
fl ick
fit z
fish .</w>
fire s</w>
fire d
fire ?</w>
fire ,</w>
fire !</w>
finger ti
fing ered</w>
fing er</w>
fin e...
fin e--
fil tr
fift y,</w>
fift h</w>
fidd le
fic ation.</w>
fianc .</w>
fi ve!</w>
fi ve
fi st
fi ght.</w>
fi ance
fi able</w>
ff ing</w>
ff in'</w>
ff er
fel t</w>
feel ing</w>
fe sti
fe min
fe ature
fat ho
fashi oned</w>
fas t</w>
fan at
fam b
fall .</w>
fall ,</w>
fal k
faith ful
fac t,</w>
fac e?</w>
fac e,</w>
fa ir</w>
f ying.</w>
f y.</w>
f ris
f ow
f ly,</w>
f itt
f ish</w>
f ett
f er,</w>
f ell
f ed.</w>
f e?</w>
f aw
f ati
f are.</w>
f ang
f all</w>
f ad
ey e-
explo si
experi ment
exp and
execu ti
excit ed
excit e
excep tion
excali bur
ex- husband
ex ot
ex i
ex hilar
ex cept
ex amp
every th
every body</w>
ev ident
ev e.</w>
esti mate</w>
est er</w>
ess a</w>
es pion
es par
es e,</w>
es ?!</w>
es ...?</w>
ers ?!</w>
ers 'll</w>
eri e</w>
eri a</w>
er ad
erad ic
er ...?</w>
er .
er --
er '</w>
er '
er !!!</w>
ep le
environ mental</w>
enti on.</w>
enthusi as
ent ly,</w>
ent it
ent enni
enor m
enlight en
end s.</w>
end ang
enc ing</w>
enc h</w>
en ge</w>
en ever</w>
en ed.</w>
en e.</w>
en de
ende av
en ber
en a.</w>
en a,</w>
emb ryo
elli ot
ell !</w>
eli min
eli j
eli a</w>
electro -
elect ric
ele ven</w>
ele r</w>
ele ment
ele g
el ot</w>
el lo.</w>
el la.</w>
el it
el da</w>
el bow
el abor
el a</w>
el a
eight ,</w>
ei ch
ego maniac
eg o</w>
eg an.</w>
ed o
ed ith
ed .'</w>
ed '.</w>
ec cent
eat ers</w>
east er
ear s.</w>
eag er
e- to-
e- e-
e y?</w>
e y!</w>
e tic</w>
e th.</w>
e mor
e man</w>
e m,</w>
e e.</w>
e e!</w>
e co
e ck</w>
e cho
e ach
e ....</w>
e "?</w>
dy sle
dy lan
dun witt
dun bar
du ti
du plic
du ke
du an
dre y
dre ss</w>
dre s
dre am</w>
dra in
dra ggin'</w>
dr .</w>
doz en</w>
down town
down ?</w>
doub ted
doub t
dor f
door bell
don t</w>
dog s.</w>
dog !</w>
doctor s</w>
do- goo
do te</w>
do ors</w>
do ming
do me
do in'
do d
div in
dist ingu
dist ast
distast e
disgu st
dise ase
discu ss
dis rup
dis pleas
dis order
dis ney
dis grace
dis gra
dis ci
dir t
ding 's</w>
din osaur
dimen sion
dill ing
dige sti
dict ator
dic -
di t</w>
di stor
di ox
di min
di gni
di g</w>
di es.</w>
di e.</w>
di e...</w>
di e-
di alo
di ,</w>
dev ast
descri p
descri b
des k
des ire
des !</w>
der s...</w>
der i
der ek
der ed</w>
der ang
dep loy
den ying</w>
den omin
del ongpre
del l</w>
del ici
del ic
del gad
del ,</w>
def ici
deep -
dece as
de- rezz
de vi
de vel
de u
de st
de pri
de pra
de port
de ple
de pen
de odor
de mol
de m
de ir
de gener
de fro
de fi
de ep</w>
de co
de clar
de cep
de ca
dd er.</w>
dau ghter</w>
dat ab
dani el</w>
dan bur
dan 's</w>
dammit ,</w>
dammit !</w>
da zz
da sh
da r</w>
da le's</w>
da ff
d. a.
d. ?</w>
d' oeuv
d' et
d wy
d u</w>
d m
d le.</w>
d il
d an</w>
d ."</w>
d 's?</w>
cze cho
czecho slovak
cz y
cy r
cy cle
cur tain
cur fe
cul tiv
cu tter</w>
cu th
cu p</w>
cu p.</w>
cu ck
ctor s.</w>
cti vely</w>
cti ve...</w>
ct ur
ct able</w>
cry stalliz
cru sa
cru i
crui k
crou pi
croco di
crime fighter
cri m
cre denti
cre am</w>
craw for
cra i
cr iti
cr atic</w>
cow boy
cover ed</w>
cour tes
cour se,</w>
countr y</w>
could n't
cos gro
cor vis
cor ro
cor e</w>
cor d</w>
cook i
control .</w>
contro ver
cont ing
constant inop
const itut
consci ous.</w>
congre ss
conf ron
conf is
conf es
condes c
con vent
con tex
con stra
con ra
con k
con di
con dem
con cub
con cu
con cannon
con .</w>
comple x
compla int
compas sion
com ings</w>
colu mb
colo sse
colle ct
collar .</w>
cock p
co ver</w>
co ssack
co re
co pper
co op
co on</w>
co la.</w>
co haag
co gn
co ded</w>
co de-
co de
co ck.</w>
co bble
co ats</w>
co at</w>
co ,</w>
clu tch
clo ck</w>
clitor is
clin ic
cliff e</w>
cli ent</w>
class ic
claim ed</w>
cket t</w>
ck ...</w>
circumst anc
cin eple
ci ous</w>
ci .</w>
chri st,</w>
cho mp
chin at
chil dis
chief .</w>
chick en-
chi p
chi ef</w>
chew ed</w>
check ed</w>
check ?</w>
che vali
che mist
che m
che e
che !</w>
char lot
chang ed</w>
chang e</w>
champi on
chamber la
chal fon
ch romi
ch ro
ch ol
ch ok
ch lo
ch is
ch ink
ch ick</w>
ch ers</w>
ch au
ch att
ch aren
ch ard
ch amb
cent uri
cent er
cent ?</w>
ce t</w>
ce c
ce ;</w>
ce 's</w>
cc i</w>
cath ed
catastro ph
cat .</w>
care ful
care er
car oly
car bon
car av
carav ag
caravag gi
cap u
cap abil
can o
can ce
can adi
cam paign
cam mar
cali br
cal yp
cal m
cal end
cak e.</w>
cadilla c
ca ver
ca ses</w>
ca se,</w>
ca r</w>
ca p</w>
ca i
ca de
c' mer
c s</w>
c ort
c ly
c lon
c et
c ed.</w>
c ca
c ard.</w>
c ake</w>
c add
c act
c a,</w>
bye- by
butter fli
butt ?</w>
but ton</w>
but --</w>
busin ess</w>
bur y.</w>
bur g.</w>
bunn y
bull shitt
bul le
bul l</w>
buff al
buck s
bu y</w>
bu t.</w>
bu sh
bu r</w>
bu bble
bry nn
bru tal
bro om
bro m
bro ke</w>
bro ch
bri s</w>
bri gh
bri g
bri de
break er</w>
bre w
bre ch
bre ach
bra in</w>
bra ck
bra .</w>
br ing</w>
br a</w>
bound ari
bot tom
bor n.</w>
bor n,</w>
book s.</w>
boo ze
boo k,</w>
bon te
bon jour
bon e.</w>
bol lock
body 'll</w>
boat wright
board ing</w>
bo to
bo ss</w>
bo mb</w>
bo li
bo il
bo gy
blu ff
blu est
blu e-
bloo d-
blind fol
ble ek
ble d</w>
ble ...</w>
black mail
bl ur
bitch ,</w>
bit e</w>
bird s...</w>
bir th.</w>
bir d?</w>
bill y</w>
bil lion
bi x
bi oc
bi o
bi n</w>
bi e?</w>
bi anc
bes ide
ber t.</w>
ber t,</w>
ber k
ber g
beli ever
bel ow
beep -
bee tho
beauti ful</w>
beat ni
be yond</w>
be ij
be hin
be gg
be cu
be come
be at.</w>
be an</w>
be ...</w>
be 's</w>
be !</w>
bb ing</w>
bay on
bath ?</w>
bast al
bas e</w>
bart en
barre tt
bar ry
bar ring
bar becu
bap t
bank rup
ban qu
ban k</w>
ban k.</w>
ball s,</w>
ball ing</w>
ball 's</w>
bal one
bal li
bag g
back se
back pack
back ground
back ?</w>
back --
back -
back ,</w>
bab y</w>
ba zoo
ba y.</w>
ba sh
b y?</w>
b ound.</w>
b one
b m
b lun
b i</w>
b av
b au
b and</w>
b age</w>
b age.</w>
b :</w>
b '
ay a</w>
aw ful
aw are</w>
aw are
aw ,</w>
av oid
auth ent
au dit
au .</w>
au ,</w>
att er</w>
att ...</w>
ator s?</w>
ation ."</w>
ati ve...</w>
ate ;</w>
ate --</w>
at s.</w>
at ri
at omic</w>
at ing!</w>
at es?</w>
at er
at e--
at ...</w>
astron au
ast on
ast h
assu mp
asse mb
ass ing</w>
ass ed</w>
as ylu
as simil
as pe
as !</w>
arti fact
art icul
art art
art ,</w>
arrang ed</w>
arm ing</w>
ari us.</w>
ari an</w>
argu ment
are st</w>
are ?</w>
are !</w>
ard o</w>
archa e
ar y!</w>
ar rr
ar row
ar ro
ar ous
ar m</w>
ar gy
ar am
ar 's</w>
appropri ate.</w>
appro v
app li
app le</w>
app lau
app ing</w>
ap ing</w>
ap ie
ap er</w>
anything ...
anxi et
anti bodi
anti bi
anth on
ant s,</w>
ant e.</w>
ant arctic
announ ce
anni vers
ann e.</w>
angel o</w>
anesthesi olog
anest het
andro sco
and-a- half</w>
and er.</w>
and a.</w>
ance ;</w>
anc ed</w>
an sel
an s...</w>
an ."</w>
an -</w>
americ an.</w>
am ster
am ph
am o
am nes
am en
am ...</w>
all y...
all 's</w>
aliz e.</w>
ali stic.</w>
ali en
alex ander
al v
al t
al right.</w>
al man
al led</w>
al ing.</w>
al ger
al brech
al ban
al a</w>
ak ,</w>
ah hhhh
age :</w>
again st</w>
ag grav
ag end
adv ance
admi ral</w>
ade ?</w>
addic ted</w>
ad vers
ad ul
ad ren
ad mit
ad mira
ad dis
ad ...</w>
acqu is
achie ve
ach il
ach es
ach er
ach e.</w>
ach e,</w>
acade m
ac y</w>
ac tion</w>
ac complic
ac commod
ac cep
absol ute</w>
about ...
abo min
ab und
ab sent
ab itch</w>
ab dul
a y.</w>
a y,</w>
a side
a ir</w>
a ing
a in</w>
a ils</w>
a i.</w>
a he
a gh
a er
a der</w>
a ?!</w>
a ...a</w>
a !!!</w>
_ !</w>
[ 5
[5 ]</w>
? ???</w>
? ?!</w>
? </u></w>
? ...i</w>
? ....</w>
? --i</w>
? --
? !!!</w>
<u>h </u>
<u> wife
<u> why
<u> water
<u> time
<u> this
<u> something
<u> secret
<u> say
<u> read
<u> pur
<u> out
<u> nothing
<u> not
<u> listen
<u> life
<u> know
<u> it
<u> is
<u> in
<u> great
<u> good
<u> father
<u> don
<u> do
<u> can
<u> be
<u> are
<u> anything
<u> all
</u> --</w>
: 0
9 0
9 -
8 :
8 7
7 9
6 80</w>
6 ,</w>
55 5-
5 9
5 7.</w>
5 4
5 14</w>
5 00</w>
5 ...</w>
4 93</w>
4 62</w>
4 50</w>
4 4
4 29</w>
4 2
4 0.</w>
3 75</w>
3 41</w>
3 3
3 29</w>
3 16</w>
2n d</w>
27 9</w>
26 8</w>
20 3</w>
20 .</w>
2- 1-
2 ?</w>
2 :
2 94</w>
2 85</w>
2 83</w>
2 56</w>
2 51</w>
2 43</w>
2 28</w>
2 26</w>
2 2.</w>
2 18</w>
2 13</w>
2 12</w>
2 1.</w>
2 .
19 9</w>
19 5</w>
19 1</w>
18 0
17 7</w>
17 .</w>
16 5</w>
15 .</w>
14 4</w>
14 2</w>
14 1</w>
12 -
1 l</w>
1 23</w>
1 2.</w>
00 0</w>
0 -
0 ,</w>
...no ,</w>
.... the</w>
.... ....</w>
... your</w>
... would</w>
... we'll</w>
... uh,</w>
... too</w>
... those</w>
... there's</w>
... the
... some</w>
... she</w>
... oh,</w>
... like</w>
... let</w>
... let's</w>
... is</w>
... i,</w>
... huh?</w>
... got</w>
... get</w>
... as</w>
... an</w>
... </i></w>
.. uh...
.. how</w>
.. ....</w>
. </u></w>
. 2</w>
-wh -wh
-w e</w>
-up !</w>
-in-law .</w>
-in- the-
-b y-
-b ack</w>
--wh y</w>
---------------- ----------------
-- you've</w>
-- we've</w>
-- we're</w>
-- there's</w>
-- no</w>
-- like</w>
-- i'll</w>
-- his</w>
-- go</w>
-- get</w>
-- does</w>
-- are</w>
-- an'</w>
-- after</w>
-- ,</w>
-- "</w>
-- "
- type</w>
- mind
- man</w>
- like</w>
- but</w>
- as
- a</w>
- ...</w>
* who
* me
* do
* ...</w>
's ."</w>
'e m.</w>
' ve.</w>
' v
' spo
' l</w>
' good
' f
' er</w>
' c
' *</w>
&quot; .</w>
& lt;&lt;
& gt;&gt;</w>
% .</w>
$ 7
$ 100
" z
" v
" tu
" test
" talk
" out
" oh
" nice
" me
" hi
" he
" god
" enquir
" dis
" chat
" bla
" accident
" --
! ?!</w>
! .</w>
zz o,</w>
zz i?</w>
zu z
zu ul
zoo .</w>
zoo -
zo ...</w>
zi p</w>
zi on
zi e?</w>
zi e.</w>
zh d
zhd ano
zer o</w>
zer o.</w>
zen o
ze ph
zeph ram
ze e</w>
zam mit
z- mo
z y...</w>
z y
zy dow
z wi
z uri
z o,</w>
z nick
z lo
z lat
z il
z et
z es?</w>
z es.</w>
z en</w>
z el</w>
z ed?</w>
z ai
z a's</w>
yu h</w>
yu go
yugo sla
yugosla vi
ys on.</w>
ys lov
youth ful</w>
yoursel ves
your ...</w>
your *</w>
youn ger
you- you</w>
you' ve...</w>
you </w>
you .</w>
you ..
you ."</w>
you .
you. </w>
you -</w>
yo- yo
yo gur
yo '
yl on.</w>
year-ol ds</w>
year- old.</w>
year s
year ?</w>
year .</w>
yeah ?</w>
yeah -
ye w
ye n</w>
ye e-
ye ah</w>
ye a
yc le</w>
yc at</w>
yanke es</w>
y... that</w>
y... are</w>
y-- to</w>
y- you</w>
y- pank
y- o.</w>
y- dwell
y- do
y- bra
y- back
y'know whati'm
y'know ,</w>
y' know</w>
y' ?</w>
y' ...</w>
y y!</w>
y ur
yur ili
y un
y pic
y ori
y oo
yoo -hoo
y n's</w>
y moone
y le.</w>
y la
y l.</w>
y ing...</w>
y in'</w>
y en
y aw
y ard?</w>
y ard.</w>
y ard,</w>
y ar</w>
y an</w>
y ah.</w>
y ah,</w>
y ah
y add
y a?</w>
y ]</w>
y ...and</w>
y .'</w>
y --the</w>
y 'll</w>
y ".</w>
y 	
xic ?</w>
xi mat
xi a</w>
xen op
x- ray
x- fi
x oph
x on</w>
x ain
xain trail
wy n</w>
ww w!</w>
wu -w
wu-w u-w
wro te</w>
writt en.</w>
writ ten</w>
writ ing?</w>
writ ing</w>
writ ing.</w>
writ er</w>
writ er.</w>
writ e</w>
wre tch
wre ak
wra p</w>
woul d-
worth 's</w>
worl d-
work s,</w>
work s!</w>
work ing,</w>
work in'</w>
work ers</w>
work er</w>
work er.</w>
work ?</w>
word s?</w>
word s,</w>
wor thing
wor th,</w>
wor ms.</w>
wor m.</w>
wor m,</w>
wor m's</w>
wool worth
wood s</w>
wood !</w>
woo ki
woo f
woo d,</w>
wonder ing...
won t</w>
won dr
wom bo
wol l
woll sten
wo w</w>
wo mb
wo man.</w>
wo ck
wo ah...
wn ing</w>
wn ?</w>
wn !</w>
with ,</w>
wit z</w>
wit z.</w>
wit t.</w>
wit ness</w>
wit ness.</w>
wit hh
wit her
wis e</w>
wis e-
wind shiel
wind ing</w>
win s</w>
win do
win d.</w>
will ingness</w>
will ing</w>
will ...
will --
wil let</w>
wil d</w>
wil d,</w>
wife 's</w>
wid th</w>
wick ,</w>
wichit a
wi ves</w>
wi ves,</w>
wi ves
wi red</w>
wi e</w>
wi do
wi de-
why '</w>
who s</w>
who ever
who a...
who a,</w>
who ...</w>
who 'd</w>
whitt les
whit man
whit es</w>
whis k
whi ch?</w>
whi ch.</w>
whi ch
where as</w>
where 'd</w>
wher e?</w>
wher e.</w>
wheel s?</w>
wheel s</w>
wheel chair
whatever .</w>
what ta
what s</w>
what ever</w>
what ...</w>
what ...
what -the-
wh y?</w>
wh or
whor fin
wh ir
wh im
wh att
wh a-
wh -wh-wh
wester n.</w>
weren 't</w>
weren 't
wer y</w>
wer e
wend y,</w>
well- be
well ...</w>
well ..
well --</w>
well !</w>
weir d</w>
weir d
weight s</w>
weigh ,</w>
week s."</w>
wear ing,</w>
weap ons</w>
weak ness
we' ve...
we' re
we ve</w>
we st...</w>
we in
we ep
we ek</w>
we ek.</w>
we ather</w>
we ar</w>
we ar.</w>
we a
we ?</w>
we ...?</w>
we '?</w>
way s.</w>
way s...</w>
way s,</w>
way ...</w>
way ....</w>
way --
wav ing</w>
wav es</w>
wav e.</w>
watch in'</w>
watch dog</w>
wat ers</w>
wat er?</w>
was nt</w>
was n't</w>
was </u></w>
warran ted</w>
warn er</w>
warm ing.</w>
ward 's</w>
war ming</w>
war m</w>
war fare
want ing</w>
want ed.</w>
want ...
wann ab
wann a</w>
walk ing</w>
walk ing.</w>
walk er</w>
walk er.</w>
walk ?</w>
wal t
wal lace
wal k</w>
wait s</w>
wait ress
wait ?</w>
wait ...</w>
wait ...
wait !</w>
wain wright
wag on</w>
wag n
wag g
wa xed</w>
wa ver
wa ve?</w>
wa s.</w>
wa r</w>
wa it.</w>
wa in</w>
wa ff
wa !</w>
w. a.
w-w -w
w w</w>
w un
w ou
w ore
w op
w o-
w ist
w ish</w>
w ings</w>
w in</w>
w ide.</w>
w ick</w>
w ick.</w>
w ich</w>
w ett
w ent
w ench
w ed.</w>
w e.</w>
w au
w ang</w>
w ander
w ad.</w>
w a</w>
w a.</w>
w -what</w>
vulner able.</w>
vor te
volunte er</w>
vol u
vol ta
vol t
vol ati
voic es</w>
voic es...</w>
vo ye
vo y.</w>
vo ir.</w>
vo ice</w>
vo ice.</w>
vo cab
vocab ul
vo ...</w>
vo ,</w>
vit y?</w>
vit amin
visit ing</w>
visit ed.</w>
visi ons</w>
visi on?</w>
visi on,</w>
vis m</w>
vis cer
vis -</w>
viri di
vir us,</w>
vir g
vio let</w>
vio let.</w>
vin s...</w>
vin ce?</w>
vin 's</w>
villa ins</w>
villa in</w>
villa ge
vil li
vil le!</w>
vil le
vil e</w>
view s</w>
view .</w>
view ,</w>
vide o</w>
vide o
victim s?</w>
vici ous
vice- presid
vic e</w>
vic e.</w>
vic e,</w>
vic ,</w>
vi zz
vi vo
vi v
vi des</w>
vi chy</w>
vi ch's</w>
vi bran
vi bes
veter in
veterin ari
vers a.</w>
ver y.</w>
ver y...</w>
ver y--
ver y,</w>
ver sion.</w>
ver se</w>
ver it
ver ing,</w>
ver e
ven u
ven ous</w>
ven id
venid o</w>
ven ice
ven ez
venez u
veloc ity</w>
vel y,</w>
vel ing</w>
ve- robb
ve m</w>
ve id
ve e</w>
ve ?!</w>
ve </u>...</w>
vari et
var la
van qu
van es
vamp ir
valu ed.</w>
valu e</w>
valu able</w>
val e</w>
vad a</w>
vad a.</w>
vac u
vac ant-
vacant- occupi
va le
va h</w>
v' g
v ores</w>
v oo
v ity.</w>
v ity,</w>
v int
v indic
v ets</w>
v ating</w>
v as</w>
v ant
v an?</w>
v acc
v a.</w>
v a-
va- yo
v a!</w>
v ...</w>
ut s</w>
ut ?</w>
use r</w>
use less
us ed.</w>
us ?'</w>
us ?!</w>
us ....</w>
us -
us '</w>
ure s,</w>
ure d.</w>
ure ....</w>
ura ble</w>
ur is
ur g
ur ban
ur ,</w>
ur 's</w>
upp ity</w>
up stat
up per</w>
up per-
up ped</w>
up heav
up d
up :</w>
up ...
up --
up -
up "</w>
unusu al.</w>
untra ce
unpar alle
unnat ur
univers ity
uni on,</w>
ungrate ful</w>
ung ...</w>
ung ."</w>
understoo d</w>
understoo d.</w>
understand ing</w>
understand ab
underst and</w>
under stud
under min
under hill
under estimat
und he
undhe it.</w>
uncer taint
un til
un ted</w>
un sure</w>
un su
un stopp
un stab
un sol
un self
un scre
un scra
un recogniz
un reason
un question
un predict
un limit
un less</w>
un less
un ky</w>
un known</w>
un import
un hoo
un har
un h.</w>
un h,</w>
un gu
un forgi
un forgett
un faith
un explain
un es
un equi
un equ
un doubted
un dete
un desira
un ci
un bal
un attra
un arm
un ap
unap tra
un -</w>
um- hu
um ....
um -</w>
um ".</w>
ultra malen
ultimat e.</w>
ul kn
ul f.</w>
ul ars</w>
ul a</w>
ul ,</w>
uhm --
uh-huh ...</w>
uh- uh.</w>
uh- hu
uh ?</w>
uh ...i</w>
uh ....</w>
uh ..
uh --</w>
ug art
u.s. a.</w>
u. s.</w>
u va</w>
u tion</w>
u sur
u ses.</w>
u sch
u la
u ka</w>
u k
uk rain
u d</w>
u cu
u be</w>
u a</w>
tz fu
typ es?</w>
typ es</w>
typ e,</w>
ty ron
ty pho
ty ing</w>
ty bal
ty ."</w>
ty "</w>
two- fifty.</w>
twenty- tw
twenty- three</w>
twenty- four-
twenty- five.</w>
twent y...</w>
twent y...
tw il
tw ice
tw en
tw at
turt le
turn pi
turn ed.</w>
turn ed,</w>
tur ki
tur ing</w>
tun es.</w>
tu xed
tu st
tu ss
tu s,</w>
tu mor
tu it
tu c
tu b</w>
tu b
tt y</w>
tt in'</w>
tt i</w>
try ing</w>
truth s</w>
trust worthy</w>
trun k
trul y.</w>
tru th</w>
tru th.</w>
tru mp</w>
tru man,</w>
tru e...
tru ck</w>
tru ck.</w>
tru ck,</w>
tru b
trou ble,</w>
tro x
tro ver
tro pic
tro p
trop ical</w>
triple -
triple- dog-
trip --
tril ithi
trick -ri
tri p</w>
tri p,</w>
tri gger</w>
tri es</w>
tri es.</w>
tri but
tri -
treas on
tre mo
tre m
trem end
tre e,</w>
tre ati
tre acher
traum ati
transp aren
transm itt
transfu sion
trans- plen
trans vest
trans l
trans ition
tran sylvani
tran sc
train ing</w>
train ed.</w>
traged y</w>
traff ic</w>
track ed.</w>
tra ys</w>
tra y.</w>
tra vest
tra ps</w>
tra p</w>
tra p.</w>
tra p
tra m
tra ined</w>
tra de</w>
tra ct</w>
tra ck.</w>
tra ce</w>
tra c
tra .</w>
tr y.</w>
tr y,</w>
tr u</w>
tr illion</w>
tr icer
tricer at
tr e</w>
tr att
tratt oria</w>
tow ler
tow er</w>
tour ni
tour ,</w>
tou rel
tou r</w>
tou lo
tou ched</w>
tot al</w>
tor to
tor so</w>
tor s</w>
tor n</w>
tor ment
tor ...</w>
tooth pick
tooth ed</w>
too th</w>
too .</w>
tonight !</w>
tongu e,</w>
ton y.</w>
ton s.</w>
ton ight.</w>
ton i</w>
tomat o?</w>
tol d
tol cho
together ?</w>
together --</w>
toe jam
tob y...</w>
to xic
to ss
to ps,</w>
to pp
to po
to p?</w>
to p,</w>
to p!</w>
to ma
toma haw
to m,</w>
to ken</w>
to in
to il
to ff
to en
to e.</w>
to day</w>
to d
to ad
to -</w>
to *</w>
tit ani
tin a.</w>
time --
time 's</w>
time !</w>
tim ing</w>
tim es?</w>
tight ?</w>
tieth ?</w>
tick lin'</w>
tick .</w>
tick !</w>
tic s,</w>
ti re.</w>
ti m</w>
ti m,</w>
ti ki</w>
ti ght</w>
ti gh
ti ger
ti fied</w>
ti er,</w>
ti er
ti ed.</w>
ti e?</w>
ti de-
tide- pool
ti a</w>
ti a.</w>
ti ?</w>
ti 's</w>
thunder bol
throw n</w>
throw ing</w>
throw er</w>
through .</w>
through ,</w>
thro w</w>
three- three-
three- hundred-
thre sh
thre e...</w>
thre e
thr il
thousand th</w>
thousand ,</w>
thought s</w>
thought ...</w>
thought *</w>
though t</w>
though .</w>
though ...</w>
though ,</w>
thou se?</w>
thou ,</w>
thor ough
thor n</w>
thor k
tho mer
tho les</w>
this -a-
this -
this ,</w>
this 's</w>
this 'll</w>
thirty- six</w>
thirty- seven.</w>
thir ty-</w>
thir teen</w>
thir teen-
thir ds</w>
thir d.</w>
think s</w>
think s.</w>
think ing.</w>
thing </u></w>
thing ...</w>
thing .
thing !</w>
thi ef</w>
they- they</w>
they're ...
they' ve</w>
they re</w>
they ?
they 'd</w>
there's- there's-
there ?
there ."</w>
there 's...</w>
there 'd</w>
therap y.</w>
therap y...</w>
ther ri
ther n</w>
ther lands.</w>
ther e.</w>
ther e...</w>
ther 's</w>
thel ma
the- fires</w>
the y,</w>
the o
theo do
the l</w>
the id</w>
the ft.</w>
the a?</w>
the </u></w>
the --</w>
the !</w>
that ch
that *</w>
that 'd</w>
that '
thanks gi
thank s...
thank s,</w>
thank -
th- the</w>
th- centur
th y,</w>
th ron
th ood</w>
th en...</w>
th an-
th alam
thalam us</w>
th ail
th a.</w>
th a
th </u>?</w>
tex t
tex as
test ing</w>
test ing.</w>
test am
test ...</w>
tes si
territ or
terri b
terran e
terran ce</w>
ter y,</w>
ter s...</w>
ter s!</w>
ter ms</w>
ter mit
ter m?</w>
ter "</w>
ten tion</w>
ten sion.</w>
ten nes
ten aci
ten ?</w>
ten !</w>
tempor ary</w>
temper am
tell in'</w>
tell ?</w>
teles cop
teh ron
teeth ,</w>
teen- year-old</w>
teen th.</w>
ted dy</w>
ted </u>,</w>
technolog y,</w>
techno logy.</w>
technic ol
techni que</w>
tear -
teach ers.</w>
teach er...</w>
te st.</w>
te p
te m</w>
te eth</w>
te am</w>
te am.</w>
te ach</w>
tax ider
tas sel
target ed</w>
tar z
tar '
tang er
tan 's</w>
talk ing</w>
talk in'
tal ks</w>
tal k,</w>
tal ent</w>
tal ent.</w>
tal ent
tak ing</w>
tak ing.</w>
tak ers.</w>
tak er.</w>
tak en</w>
tain ing</w>
tail ,</w>
tai w
tah iti
tag s</w>
tag s.</w>
tact ic
tablo id
tab les</w>
tab le?</w>
ta wn
ta vi.</w>
ta ver
ta s</w>
ta les</w>
ta le.</w>
t... t...
t. ,</w>
t- marti
t- i-
t- down.</w>
t ul
t sk
t rol
t ly.</w>
t ly,</w>
t itt
t issu
t ing
t ics</w>
t ic,</w>
t es,</w>
t el.</w>
t ed...</w>
t ed!</w>
t e,</w>
t ch?</w>
t av
t ary</w>
t art
t al</w>
t 47
t47 /
t47/ 2
t '</w>
system s,</w>
syste ms.</w>
syste mat
syste m,</w>
syn chron
sympathet ic.</w>
symp tom
symb ol
sy ring
sy mbo
sy d
sy cho
sy 's</w>
swor th</w>
swor n</w>
swing ing</w>
swi pe</w>
swe et</w>
swe ar</w>
swe ar.</w>
sway z
swan be
sw ol
sw o
sw is
sw if
sw er
sw ell.</w>
sw amp
suspici ons</w>
suspect ed</w>
susp end
susan 's</w>
surviv ors.</w>
surpris ing
surge on</w>
surfac e</w>
sure ...
support ed</w>
suppor ti
superintend ent</w>
superi or
super numer
super natur
super man.</w>
super girl
super bow
sup pres
sunn y
sun gla
sun flow
sun day</w>
sun -
sul ten
sul lu
suit s.</w>
suit case
suit ...</w>
suic id
sugar ,</w>
suffici ent</w>
suffer ing,</w>
sudd en,</w>
suck ing</w>
suck er.</w>
suck er!</w>
suc c
sub tra
sub terrane
sub si
subsi di
sub scription</w>
sub scri
sub s</w>
sub po
sub mar
sub du
su sten
su stain
su shi
su ri
su pper
su p?</w>
su p</w>
su mmer</w>
su m
su its</w>
su it</w>
su gar</w>
su ga
su ele
su e
su ble
su -nam
su -
sty les</w>
sty le</w>
study -</w>
stud ent</w>
stu s,</w>
stu mble
stumble bu
stu ff</w>
strun g</w>
struct ure</w>
struct ure,</w>
stru st</w>
stru ck</w>
strong ...</w>
stron g,</w>
stro kes</w>
stro ke.</w>
stri pe</w>
stri p</w>
stri p.</w>
stri ke
stretch ed</w>
streng th</w>
stre ssing</w>
stre ssed.</w>
stre et?</w>
stre et.</w>
stre am.</w>
straw ber
strat ospher
strang e?</w>
stran ger
stra ps</w>
stra p</w>
stra l</w>
stra dd
str ung."</w>
str ing</w>
stori es...</w>
store .</w>
store ,</w>
stor ms</w>
stor m?</w>
stor e</w>
stor age</w>
stopp ed.</w>
stop s.</w>
stop ped
stop ?</w>
stop .</w>
stop !</w>
ston es</w>
ston es.</w>
stol tzfu
stock pi
sto mach
sto ck,</w>
stick s</w>
stick s,</w>
sti ff.</w>
sti al</w>
steward !</w>
ster oid
ster ing</w>
steph en
sten ci
sten bau
stel lar</w>
stead y</w>
ste wart</w>
ste pped</w>
ste p.</w>
ste p-
ste n</w>
ste in.</w>
ste en.</w>
ste ad.</w>
statu es</w>
state ment.</w>
state ment...</w>
stat us</w>
stat ement</w>
stat e--
stat .</w>
start ed
star ved</w>
star s</w>
star .</w>
star -
star 's</w>
star "</w>
stand s</w>
stand ing.</w>
stand ard</w>
stand ard,</w>
stand -b
stan zi
stan wy
stan ley</w>
stan is
stak o
stah ved</w>
stack s</w>
stack .</w>
stac y</w>
stabil ize</w>
stab bing</w>
stab b
sta in</w>
sta in.</w>
st y?</w>
st u</w>
st s...</w>
st ress.</w>
st ok
st o</w>
st ing."</w>
st in'</w>
st il
st ation,</w>
st atic</w>
st ard
st ap
st amin
st all</w>
st ake</w>
st able</w>
st ;</w>
st :</w>
st ...and</w>
st 's</w>
ssi on.</w>
ss ss
ss ...?</w>
ss 't
ss '
squ id.</w>
squ att
squatt ing</w>
squ are,</w>
squ ab
spr ing,</w>
spoo k</w>
spoo k
sponsor ing</w>
spo i
splen did
spir ited</w>
spill an
spic oli
spi ve
spi ri
spiri t</w>
spi k
spenc er.</w>
spectac ul
specific ?</w>
specific ,</w>
speci men
speci f
speci ally</w>
speci aliz
speak ers</w>
speak er</w>
spe ed</w>
spe ed,</w>
spe ed!</w>
spe ar
spac i
spac edo
sp ud
sp u
sp run
sp ring</w>
sp ray
sp ran
sp ou
sp ort</w>
sp ort.</w>
sp ool
spool .</w>
sp litt
sp lin
sp lic
sp ine
sp inal</w>
sp in
sp icu
sp hor
sp ent</w>
sp end</w>
sp as
sp ani
sour ces</w>
sound s</w>
sou the
sor sh
sopho more
sophistic ated.</w>
sonofabitch .</w>
sonof abitch</w>
son s?</w>
son s,</w>
son s'</w>
son ny
son hur
son g
son at
son ."</w>
son -of-
son 's
something 's</w>
somed ay</w>
some where</w>
some thing.</w>
some one</w>
some body's</w>
some ,</w>
solu tion</w>
solit ai
soldi er</w>
sol e</w>
sol d,</w>
soci al.</w>
so vere
so s</w>
so on...</w>
so mon
so mm
so met
so mer
so me.</w>
so let
so le
so fi
so fa
so d</w>
so cc
so ?</w>
so ...</w>
so --</w>
so !</w>
snu ff</w>
sne ez
sne ak</w>
snat cher.</w>
snak e-
sn y
sn itch
sn ar
smith .</w>
smi le
smar ten
smar t</w>
smar t.</w>
sm yslov
sm ir
sm en.</w>
sm all-
sm al
slu she
slu g
slow ed</w>
sli p
sli m-
sleight -of-
sleev es</w>
sleep y</w>
sleep less</w>
sleep ?</w>
sleep .</w>
sle y?</w>
sle u
sla w</w>
sla sh</w>
sla m</w>
skir ts</w>
skinn y,</w>
ski pp
ski es</w>
sket e
skept ic
sk ull</w>
sk ra
sk in
sk ill.</w>
sk ate.</w>
sk at
sk ank
size more
six ties</w>
six ties.</w>
six th.</w>
sitt er</w>
sit ters.</w>
sit ter.</w>
sit e,</w>
sit com
sit co
sit -
sist er.</w>
sire e,</w>
sir ra
sir ...</w>
sir ,</w>
sion !</w>
single- mal
single- hand
sing ing,</w>
sing er</w>
sing er.</w>
sing er's</w>
sing ap
simil ar</w>
sign .</w>
sign ...</w>
sieu r</w>
sie u</w>
side burn
side ...</w>
sid er.</w>
sick ?</w>
si zed</w>
si z
si mult
simult ane
si mon</w>
si ght.</w>
si fy</w>
si est</w>
si er
si eg
si e?</w>
si an</w>
si a,</w>
shuff le
shu t</w>
shu ck
shu .</w>
shrink er?</w>
shrink .</w>
shri mp
shre w
show ed</w>
show -
shout in'</w>
should n't
shot s</w>
shot ?</w>
shor th
shop s.</w>
shoo ter</w>
shoo t</w>
shoo t.</w>
sho w.</w>
sho stako
sho p</w>
sho es,</w>
sho el
shoel ac
sho ck?</w>
shit ?</w>
shit !</w>
shir ts,</w>
ship wre
ship s,</w>
ship 's</w>
shiel d
shhhhh !</w>
shhh h
shhh .</w>
shhh ...</w>
sheri ff</w>
shell y?</w>
shell y</w>
shell y,</w>
shell y's</w>
shel f</w>
she e-
she 's...
she 'd</w>
shaw 's</w>
shav ing</w>
share cro
shar k</w>
shar k
shar e</w>
shap ing</w>
shap i
shap e
shan gh
shan 't</w>
sham e</w>
shak in'</w>
shak ed
shak e</w>
shad ow</w>
shad du
sh run
sh rubber
sh rou
sh rin
sh rap
sh ound
sh ould</w>
sh ore</w>
sh one</w>
sh ole</w>
sh itting</w>
sh ire</w>
sh ill
sh i</w>
sh h</w>
sh h!</w>
sh er.</w>
sh ell.</w>
sh e...</w>
sh e...
sh e,</w>
sh at
sh are.</w>
sh amp
sh all</w>
sh af
sh ade</w>
sh --
sey mour</w>
sexu ality.</w>
sexu al.</w>
sex ?</w>
sex !</w>
sever ance</w>
seventy- six,</w>
seventy- five</w>
seventy- eight.</w>
sevent y-</w>
seven-point -
seven-point- two</w>
seven- four-
seven th.</w>
sett le</w>
session s</w>
ses '</w>
serv ed</w>
serv ant</w>
serv ant
serious ly
seri ous</w>
seri al</w>
ser ve</w>
ser s.</w>
ser p
ser mon
ser at
ser a.</w>
ser 's</w>
septe mb
senti ment
sensu al</w>
sen se,</w>
sen d</w>
sen ce
sen ate--
sen ?</w>
sen ...</w>
sell er.</w>
self- righte
self- respect
self- realiz
self- defen
self ?</w>
self .</w>
self ,</w>
sele ction</w>
sel ler</w>
sel l</w>
sel ina?</w>
sel do
seis mo
seem ing</w>
seek ing</w>
see ."</w>
sedu cing</w>
sedu ce</w>
secur ity
secur e</w>
secu red</w>
secu re.</w>
secu re,</w>
secret ari
secre t.</w>
secon d-
seat bel
seas on</w>
sear ch.</w>
sear ch,</w>
se z</w>
se x.</w>
se vel
se t,</w>
se quest
se pt
se mble</w>
se mb
se il
se go
se es
se en.</w>
se eds</w>
se ed
se e?</w>
se ction,</w>
se ction
se c.</w>
se as</w>
se als</w>
se aled</w>
se al
se agra
se af
se a-
se ;</w>
se ..</w>
scrub -
scru gg
scrip tion.</w>
scrip t,</w>
screw -up
scre en
scra mb
scot ch.</w>
sco tch
sco op</w>
sco ob
scienti fic
sci ent
scient ist</w>
sci ence</w>
schu yl
schu y
school teacher</w>
school s.</w>
school ?</w>
scho on
schne i
schnei der</w>
schedul e</w>
schedu le.</w>
sche mat
sch wi
sch ult
sch mid
sch i
sch e.</w>
sch al
sch ?</w>
scen e</w>
scen e.</w>
scand al
sc um
sc out.</w>
sc av
sc ari
sc ared</w>
sc an?</w>
sc an</w>
sc an...</w>
sc am</w>
saying </u>.</w>
say ing...</w>
say in'?</w>
say in'.</w>
say -
sau r</w>
sau er</w>
satisfac tion</w>
satis fied.</w>
sat y
sat s.</w>
sat an
sat .</w>
sar ac
sap ph
sand .</w>
san it
san g</w>
sam ura
sam o
sam e</w>
sal z
sal vad
sal ut
sal twat
sal t</w>
sal t.</w>
sal is
sal in
sal e</w>
sal az
sal am
sal 's</w>
sak es.</w>
sak es,</w>
sak e</w>
said ...
saf e?</w>
sack ,</w>
sa y,</w>
sa xoph
sa t</w>
sa r</w>
sa n</w>
sa m</w>
sa les</w>
sa il</w>
sa id.</w>
s... you'll</w>
s... so</w>
s... maybe</w>
s... a</w>
s. w.a.
s. o.
s. e.
s. ?</w>
s-- just</w>
s-- but</w>
s z
s y-
s ville</w>
s u</w>
s sh!</w>
s r
s ound.</w>
s log
s light
s lant
s land
s k</w>
s ity,</w>
s itting</w>
s ite</w>
s it.</w>
s is?</w>
s is!</w>
s ing,</w>
s ers</w>
s er,</w>
s end
s ed!</w>
s de
s by,</w>
s bisho
s ber
s ati
s art
sart ori
s ari
s ang
s an.</w>
s al.</w>
s ag
sag itt
s ad.</w>
s abo
s able</w>
s ?'</w>
s </u>?</w>
s .]</w>
s *?</w>
s *</w>
s *!</w>
s 've</w>
s !?</w>
s !"</w>
ry u
ry o</w>
ry in'</w>
russi an</w>
russi a
rupt ed</w>
runn ers</w>
run g</w>
run ?</w>
ru thi
ru tag
ru sted</w>
ru mp
ru mour
ru m.</w>
ru le,</w>
ru ined</w>
ru grat
ru e</w>
ru der</w>
ru de.</w>
ru de,</w>
ru ck
ru ben
ru b</w>
rr r
roy al
row n</w>
rout e</w>
round ed</w>
round -the-
round -
rou mani
rou gh</w>
rosal in
ror sch
root ed</w>
room -
roo sevel
roo mi
ron n
ron ?</w>
romi re
roman es
roman ce</w>
roll s</w>
roll ers</w>
roll ?</w>
rol lin
rol ler
rol led.</w>
rol l.</w>
rock ef
rob s</w>
road s</w>
road s.</w>
road ?</w>
road ,</w>
ro y,</w>
ro x
ro ss.</w>
ro sel
ro se.</w>
ro pe</w>
ro p</w>
ro one
ro mar
ro man</w>
ro ed
ro dri
ro dit
ro der
ro d</w>
ro c,</w>
ro ast
ro ach</w>
ro ?</w>
ro !</w>
rit z</w>
ris qu
ris k
ris e</w>
ring-a-ding -
ring s.</w>
ring ing</w>
ring er</w>
right ?</w>
right ...but</w>
right --
right '</w>
right !</w>
rieden schneid
ridicul ous.</w>
ridic u
ridd en,</w>
rick y</w>
rich ter
rich ard
ric o</w>
ric ide.</w>
ric e.</w>
ric ,</w>
ribb on
ri ver</w>
ri ver,</w>
ri val
ri pper
ri o</w>
ri min
ri l</w>
ri ki-
riki- ti
ri fle
ri fied</w>
ri er.</w>
ri er,</w>
ri e
ri dg
ri che
ri b
ri a.</w>
ri ?</w>
ri ,</w>
rhe im
reward s</w>
rever si
rever se</w>
rever end
reti red.</w>
ret t</w>
restri al</w>
restra int</w>
responsi ble</w>
responsi ble.</w>
respon d
resour ces</w>
resour ce
resol ution
resist ed</w>
resi sti
resi du
reser voir
res ort
repugn ant.</w>
rept ili
represent ed</w>
represent ati
report ed</w>
repet ition
repa ire
rep ti
rep li
rep ent
rep ell
rene ga
rendez v
ren t</w>
ren t.</w>
ren qu
ren ce</w>
ren .</w>
remor se
remo tel
remin is
remember ...
religi o
reli qu
reli able.</w>
relev ant</w>
relev ant.</w>
relat ed?</w>
rela y
rela x.</w>
rel ation</w>
rel ate</w>
rekall rekall
reill y</w>
regul ars</w>
regul ar,</w>
regul ar
regi ment
regard ed</w>
refu ge
refle xi
refer enc
redu ce</w>
red o</w>
red be
recor ded</w>
recon na
reconna iss
recon c
reco gn
reck less
reci di
recent ly.</w>
rebe cca
rebe cc
real ity</w>
real ity-
read er.</w>
reac t.</w>
re x</w>
re voir
re ub
re tain
re struct
re st.</w>
re spect.</w>
re pro
re phra
re med
re lu
relu ct
re loc
re ll</w>
re lea
re k</w>
re it
reit er
re ib
re ha
re gn
re gin
re form</w>
re f
re el</w>
re ek
re ds</w>
re dra
re de
re d...</w>
re cyc
re cu
recu per
re cou
re cip
re cept
recept ac
re ced
re ar
re appe
re ally.</w>
re ally...</w>
re ader</w>
re ad</w>
re ach</w>
re 's</w>
ratt les
ration al</w>
ration al,</w>
ration al
rat s,</w>
rat fuck
rat es...</w>
rat !</w>
rasp ber
rapid ly</w>
rand ol
ran ts</w>
ran t</w>
ran k</w>
ran e</w>
ran d</w>
ran ch
ran ce</w>
rais ing</w>
racket e
ra zin
ra ys</w>
ra y...</w>
ra y's</w>
ra y!</w>
ra w
ra ven
ra s</w>
ra s.</w>
ra re
ra pt
ra pp
ra pe</w>
ra n</w>
ra mel
ra mb
ra manu
ra kon
ra je
raje ev
ra ise</w>
ra he
ra h
ra ghead
ra gg
ragg led</w>
ra ck</w>
ra ck
ra ce</w>
ra ce.</w>
ra ce,</w>
ra ban
ra ...</w>
r. a.
r wand
r m
r ings</w>
r ing,</w>
r ine.</w>
r ical</w>
r hon
r het
rhet or
r er
r ari</w>
r alli
r ...
r -w
r ,</w>
quot e</w>
quot e.</w>
quix o
quit e...
quit e-</w>
quick !</w>
qui ries</w>
qui er
qui d</w>
quest ion</w>
quest .</w>
quest ...</w>
quarter s?</w>
quad rup
qu ite</w>
qu in</w>
qu ette.</w>
qu ette,</w>
qu es
qu ent
qu e?</w>
qu art
qu anti
quanti fiable</w>
qu ain
qu aid
q .</w>
py jam
py g
put tan
puss y</w>
puss y
push ers</w>
purpo ses</w>
purpo se
pur pos
pur ple
pur it
pur gator
pur e</w>
pur cha
puppet e
pup pi
pup il
punish ed.</w>
punct u
pun ched</w>
pul le
pul it
pub lic</w>
pu t.</w>
pu shed</w>
pu sh</w>
pu p</w>
pu dd
pt un
psychop atho
psycho logy</w>
psycho -
psychi c</w>
psych ok
prote cted</w>
propri et
proof ?</w>
proof .</w>
proje ction
progre ss
progra ms
profession al
profess or
prof ound
prof ile</w>
prof il
produc er.</w>
produ ction
produ ct</w>
process ed</w>
pro z
pro vision
pro sp
pro pon
pro ph
pro p
prop ell
pro of</w>
pro min
pro men
pro gen
pro ff
proff es
pro dig
pro dded</w>
pro cre
pro cat
pris on</w>
princip al.</w>
princi ple
princi pal
princ et
pric e!</w>
pri dd
prett y
pret ending</w>
press ure</w>
press ing</w>
president 's</w>
preserv ation</w>
pres s?</w>
pres ent</w>
pres cott
pres by
presby teri
prepare d.</w>
prep ared</w>
preoccupi ed</w>
predic am
predat or</w>
pred ator
pre- n
pre vi
pre tenti
pre sence
pre orda
pre mon
pre mis
pre medit
pre limin
pre f
pre cur
pre cri
pre c
practic e.</w>
pra y,</w>
pra iri
pra ct
pr inter
pr ice
pp ing?</w>
pp ing,</w>
pp e</w>
pp a!</w>
pp .</w>
pow ers.</w>
potat o</w>
possi bl
position s,</w>
positi ons</w>
positi on,</w>
pos ing</w>
port foli
port ,</w>
por n</w>
por cup
popul ar
popu lar</w>
pool ?</w>
pool ,</w>
poo r</w>
pon y</w>
pon ti
pomp ous</w>
pollu ted</w>
polit ical</w>
polit ical,</w>
polit an</w>
pol lo
pol ici
pol i</w>
pol .</w>
pois on</w>
point s?</w>
point ing</w>
pocket s</w>
pocket s,</w>
pocket ?</w>
pock et.</w>
po x
po ver
po ps</w>
po pe
po p</w>
po p-
po p!</w>
po lis</w>
po le.</w>
po lack
po la
po ds!</w>
po d</w>
po .</w>
pneu mon
pluton i
plu s.</w>
plu g</w>
plu g.</w>
plu g,</w>
please ...
pleas ure.</w>
plea se,</w>
play wright</w>
play mat
play er</w>
play er,</w>
plat itu
plat form
planet ary</w>
planet ari
place ."</w>
pla y,</w>
pla sti
pla in
pla ces</w>
pla ced</w>
pl ough
pl is
plis sk
pl ate</w>
pl a</w>
pitt sbur
pitch ed</w>
piss ing</w>
piss -
pinker ton.</w>
pink ,</w>
pin z
pin s</w>
pin o</w>
pin ch
pin "</w>
pill ars</w>
pill -
pil ot</w>
pil e</w>
pigg y-back
pier re</w>
pier re,</w>
pie ce.</w>
pie ce,</w>
pick s</w>
pick ers</w>
pick ed</w>
pic o.</w>
pi t</w>
pi pe.</w>
pi n</w>
pi men
pi g?</w>
pi ers</w>
pi er</w>
pi ed</w>
pi e,</w>
pi at
phy si
phy ll
phoo ey,</w>
phon y</w>
phon ed</w>
phon e!</w>
philanthro p
philadelph i
phen om
phenom en
pharmaceut ic
phar a
ph on.</w>
ph ero
phero mon
ph ase
ph a
ph ?</w>
pet s.</w>
pet ers
persu asi
persu a
person s</w>
person nel</w>
person n
perpet u
permanent ly?</w>
perhap s</w>
perfect ly</w>
perfect ...</w>
per spe
per son.</w>
per mission
per m
per jur
per ju
per co
per 's</w>
people </u></w>
people --
peop les</w>
pentag on</w>
pent angel
penn y!</w>
penn sylvani
penit enti
penet r
pen sion</w>
pen sion
pen ny</w>
pen ny
pen ni
pen ic
pen ed</w>
pen der
pen ?</w>
pel oqu
pee- pant
ped est
pedest ri
peck er</w>
peanut s.</w>
pean ut</w>
peach es!</w>
peac e.</w>
peac e-
pe psi
pe p
pe gg
pe er
pe ep</w>
pe ep
pe e?</w>
pe e!</w>
pe e
pe a.</w>
pay- per-
pav on
pav ed</w>
patri zi
pati ents</w>
pati ent</w>
path et
pat ing</w>
pat ho
pat hi
pat er
pat ed.</w>
pat ch</w>
pat .</w>
pat ,</w>
passen ger
passage way</w>
pas s,</w>
partn er.</w>
particul arly</w>
particul ar
part y</w>
part ,</w>
paren ts,</w>
parap sycho
parap hern
paraphern ali
parano iac
param ed
par lor.</w>
par k</w>
par k.</w>
par d</w>
par ch
par ade
par ac
papp y</w>
papp a</w>
pap ers
pap er.</w>
pan si
pale stin
pal ook
pal indro
pal er
pal e</w>
pak ist
pair .</w>
pair ...</w>
paint bru
pad rin
pack ...</w>
pacif ism</w>
pa leon
paleon to
pa is
pa ir</w>
pa ink
paink ill
pa in</w>
p. h.
p. d.</w>
p. a.</w>
p- p-
p y</w>
p seu
p se</w>
p rud
p ound</w>
p oul
p ough
pough keep
p ing
p g
pg &
p end
p en.</w>
p da
p d</w>
p ate</w>
p al</w>
p age</w>
p act
p a.</w>
p ...e...
p '</w>
oxy gen</w>
ox n
own s</w>
own ,</w>
ow ed</w>
ow ...</w>
ow !</w>
over sight
over ru
over pric
over power
over hear
over crow
over char
over ?</w>
over ...</w>
out s</w>
out ing,</w>
out fit
out door
out .
out "</w>
ous ness</w>
ous ly!</w>
ous ....</w>
oura ble</w>
our ish
our ?</w>
our ...</w>
oun der</w>
oun ce</w>
ought a</w>
ought ,</w>
ou ve
ou l</w>
ou i
otherwis e</w>
ot to</w>
ot to
ot ta
ot o</w>
ot e.</w>
os ce
ort ed</w>
origin al.</w>
orient ed</w>
ori um.</w>
ori fic
ori es?</w>
ori e.</w>
ori an</w>
ori a.</w>
organ ized</w>
ore s.</w>
ore g
ordin ar
orang e</w>
or sin
or ship...</w>
or o
or nit
ornit ho
or n</w>
or n
or g
or der</w>
or der.</w>
or dell
or de
or d</w>
or chu
or al</w>
or al.</w>
or a.</w>
or </u></w>
or :</w>
or ...?</w>
or ....</w>
or -in-
or --</w>
or --
or -
opti mist
opti mis
opportun ity
oper ative</w>
oper ative...</w>
oper ation!</w>
oper ated</w>
oper ate.</w>
op tical</w>
op in
opin ion
op /
op ...</w>
op -doo
op-doo -doo
oooo o,</w>
oo ops!</w>
oo ohhhh
oo ohh
oo oh,</w>
oo o,</w>
oo k</w>
oo h,</w>
oo f
oo -
ones el
one-of -a-
one- on-
one- night</w>
one *</w>
one 's.</w>
on- camer
on s!</w>
on s
on o</w>
on o,</w>
on ly</w>
on ize</w>
on ion
on ic</w>
on ia</w>
on i</w>
on es,</w>
on ed.</w>
on da
on d
on ce</w>
on a?</w>
on a</w>
on ..</w>
on ....</w>
on -</w>
on 's.</w>
omi god,</w>
omet ry</w>
ome let
om y,</w>
om n
omn is
omnis ci
om a</w>
old smo
ol y</w>
ol ul
ol it
ol er
ol der
ol de
ol ation.</w>
oke y-do
okay ...
okay ."</w>
okay .
oka y</w>
ok ?</w>
ok ...</w>
oil -
oh my
oh ....
offici ally</w>
offic er
off- limit
off land
off ."</w>
of t</w>
of ?</w>
of -
oct avi
occup ation</w>
occu r</w>
oc cult
obje ction
obje ct</w>
obe ying</w>
obe y</w>
ob solet
ob sc
ob itu
ob edi
o. k.</w>
o. k.
o. d.</w>
o. ,</w>
o'clo ck</w>
o' clock
o' bri
o y.</w>
o x.</w>
o ves</w>
o ved</w>
o ss
o sco
o on's</w>
o mist
o me?</w>
o mah
o lo?</w>
o is</w>
o is,</w>
o ink
o id,</w>
o gl
o gi
o es.</w>
o ed</w>
o dra
o d.</w>
o as
o 's.</w>
ny lon
ny ah's</w>
nutr iti
nut s?</w>
nut s,</w>
nut s!</w>
nut me
nur ser
nur se...</w>
nun .</w>
numb er</w>
numb er-
numb -
nucle ar</w>
nu t</w>
nu is
nu gg
nu clear
now :</w>
now ...</w>
nothing ...no
nothing ...
nothing !</w>
noth in'!</w>
not- quite-</w>
not ch</w>
nostr il
nostal gi
nor ris
nor mal</w>
nor 's</w>
none the
non- negoti
non- believer
non sense
non e!</w>
non 's</w>
no v</w>
no li
no lan</w>
no ctur
no body</w>
no body...</w>
no body's</w>
no ble
no ?</w>
no ..</w>
no ...no
no ...i</w>
no ....</w>
no ,
no !</w>
nix on</w>
nitro gen
nitrogen iz
ninotch k
nineteen- sixty-
ninete en
nin e?</w>
nin e
night mar
night club
night clu
night ...
night ."</w>
nigg er
nick s</w>
nick el
nick ?</w>
nic e-
nic e,</w>
ni ze</w>
ni st.</w>
ni s.</w>
ni n</w>
ni k
ni g
ni et
niet z
ni est</w>
ni es.</w>
ni er.</w>
ni e's</w>
ni c</w>
ni bal
ni as</w>
new swee
new man,</w>
new ly</w>
new -
never min
never ...</w>
never -
neuro -
ness '</w>
nes t</w>
nes ...</w>
nerv ous</w>
nerv ous.</w>
ner o.</w>
neigh bour
neg lect
neg ative.</w>
neg an</w>
need le-
need ing</w>
need ed</w>
ne ys.</w>
ne y...</w>
ne v
ne ptun
ne o,</w>
ne ither
ne ith
ne il.</w>
ne il,</w>
ne il
ne en
ne bra
nebra sk
ne bble
ne arly</w>
ne apo
nb c</w>
navi gator
nation al.</w>
nat ure.</w>
nat che
nat al</w>
nast y.</w>
narco le
narcis sist
nap kin
nap al
nam es</w>
nam es
nam e</w>
nam e...
nam e--
nam e's</w>
nam .</w>
nam 's</w>
nak ed</w>
nak ed
nail s?</w>
nail s.</w>
na ze
na ve!</w>
na m</w>
na il.</w>
na h</w>
n. y.</w>
n- no.</w>
n't </u></w>
n ouve
n ori
n oon</w>
n on?</w>
n on,</w>
n n</w>
n ished</w>
n inten
n et,</w>
n ed.</w>
n c
n ations</w>
n ant
n an
n ah.</w>
n ab
n -</w>
myster y</w>
myster ious</w>
my tho
my th
my </u></w>
my -</w>
mut e</w>
mut ant</w>
mush room</w>
mun ci
mul ti-
mul ler</w>
muh- muh-
much ...
mu th.</w>
mu sn
mu ski
mu skete
mu mbo
mu m!</w>
mu gg
mu ell
mu da.</w>
mu d
ms y.</w>
ms .'</w>
mr s.</w>
mph atic</w>
mp h!</w>
mp ed</w>
movi es</w>
movi e</w>
movi e"</w>
move ment
mouth s.</w>
mouth ?</w>
mour n
moun ted</w>
motor s,</w>
mother- fuck
mother ing.</w>
mother 's</w>
most </u></w>
mosqu it
morn ing,</w>
mora es</w>
mor de
morde cha
mor b
mor ally</w>
mor al</w>
moon shin
moon ing</w>
moo n</w>
mont go
montgo mer
mont agu
monkey bone</w>
monke ys</w>
monke y-
mongo lo
money --
mon tre
mon th</w>
mon tal
mon t,</w>
mon str
mon sieur</w>
mon olo
mon ia</w>
mon goo
mon dri
mon day,</w>
mon d.</w>
momm y,</w>
mol davi
mocky- lock</w>
mobil e</w>
mobi les,</w>
mobi le,</w>
mo zar
mo wer.</w>
mo ving</w>
mo tion
mo th</w>
mo th.</w>
mo st...</w>
mo st!</w>
mo ss</w>
mo ss...</w>
mo s.</w>
mo rel
mo red</w>
mo ms</w>
mo m</w>
mo m,</w>
mo la
mo jit
mo ff
mo e
moe bi
mo du
mo ...</w>
mo ,</w>
mmmmmm m!</w>
mmmm m</w>
mm m</w>
mm m...</w>
mm m-
mm ers</w>
mm er
mm and
mm a</w>
mix ture</w>
mitch ell,</w>
mistak en</w>
mistak e.</w>
mist res
mist er,</w>
mission s</w>
mission ary?</w>
miser y?</w>
mis stat
mis sion,</w>
mis sing
mis plac
mis interpre
mis fortun
mis de
misde mean
mis calcul
mis '</w>
mira jan
mir ror
minute --
minut e,</w>
mini ature</w>
mini at
miniat uri
ming ton</w>
min or
min neapo
min e,</w>
min e's</w>
min dread
min '.</w>
million aire</w>
million ai
milli ons.</w>
milli on?</w>
milli on.</w>
milli on-
milli meter</w>
mill e</w>
mill .</w>
mil l</w>
mil iti
mil ic
mil d
might y</w>
might </u></w>
might ...
micro sco
mick ey
mich el
miam i</w>
mi yam
mi x</w>
mi stri
mi ster
mi s.</w>
mi ri
mi les
mi le,</w>
mi le
mi ke,</w>
mi grant
mi ght</w>
mi g
mi es</w>
mi er
mier zwi
mi chi
mey er</w>
mexic an?</w>
metho dic
metap hor
met ter
met ro</w>
met ric</w>
met ers.</w>
met all
met abol
met a-
met ,</w>
met !</w>
mess y.</w>
mess ag
mescal ine</w>
mes si
mer lo
mer it
mer ingu
mer cur
mer chand
ment ed.</w>
ment ation.</w>
ment ally</w>
ment al,</w>
ment </u></w>
ment ."</w>
ment --</w>
men stru
men ac
men ?</w>
men ...</w>
memor ab
memorab ili
memo ir
mel y</w>
mel v
mel odra
mel inda</w>
mel ano
mel ani
meet ing
medi ates</w>
meck l
mechan is
mechan ics,</w>
mean- mad
mean ...
me than
me mp
me l</w>
me in</w>
me gat
me et</w>
me e</w>
me al</w>
me al.</w>
me ;</w>
me .]</w>
me '</w>
mck enn
mck endrick
mcinto sh
mc nut
mc nugg
mc lu
mc donal
mc der
mc cur
mc conn
mc car
mc call
mc c
mb ry</w>
mb ers</w>
mb all</w>
maybe ?</w>
maybe ...maybe</w>
maybe ...</w>
may n
may he
may fair
maver ick
matri mon
mathil da,</w>
mathemat ici
mat usch
mat ur
mat ters</w>
mat ter.</w>
mat t
mat ing</w>
mat ine
mat h?</w>
mat e?</w>
mat e...</w>
mat ched</w>
master s,</w>
master -
master 's</w>
mast er?</w>
massachu sett
mas sive</w>
mas se
mas h</w>
mas e</w>
martin s</w>
marti n</w>
marshmal low
marsh al</w>
marri ot
marri ed</w>
mark er</w>
mark ed</w>
mark ?</w>
maril yn's</w>
marcu s</w>
mar zz
mar y.</w>
mar y,</w>
mar ty</w>
mar seil
mar ry</w>
mar ry.</w>
mar ry,</w>
mar ket</w>
mar k,</w>
mar j
mar ge
mar gar
mar ching</w>
mar c
manufact ur
manife st
mani a</w>
mang led.</w>
manage able</w>
manag er
man tu
man tin
man ic
man hood
man go
man d</w>
man chu
man ?!</w>
man ;</w>
man :</w>
man ."</w>
man --</w>
man --
man 's.</w>
mam moth
mam a</w>
mam a's</w>
mam .</w>
mall s,</w>
mall or
malari a</w>
mal lo
mal function
mal e</w>
mak ing</w>
mak ing.</w>
mak ing,</w>
mak er.</w>
mak er,</w>
mak e,</w>
maj or,</w>
mainten ance.</w>
maid s</w>
maid s.</w>
magu a</w>
magne tic</w>
magn es
magazin es,</w>
mag noli
mag go
mag gi
mag ell
mag del
mademois el
mad marti
mad e.</w>
mad do
mach ine</w>
macdonal d
mac ?</w>
mac ,</w>
ma- ma-
ma y</w>
ma y.</w>
ma x</w>
ma x.</w>
ma ure
ma t</w>
ma ste
ma le,</w>
ma jo
ma it
ma in.</w>
ma iling</w>
ma il,</w>
ma id?</w>
ma har
mahar a
ma h</w>
ma gi
ma fuck
ma de-
ma cul
macul ate</w>
ma cle
ma c</w>
ma -</w>
ma --
m. o.</w>
m. ,</w>
m- o-n-
m- 1
m' sieu</w>
m' sieu
m' lor
m' de
m y!</w>
m stead
m l
m ing?</w>
m ed,</w>
m boy
m ation</w>
m ati
m ....</w>
m '</w>
lyn don</w>
ly ing?</w>
ly can
lycan thro
ly </u>.</w>
ly ."</w>
lunch box
lun g,</w>
lun g
lun che
lun ch.</w>
lun ch,</w>
lul la
luck y.</w>
luc y</w>
luc ille</w>
lu min
lu mber</w>
lu mber
lu ke</w>
lu dwi
lu cr
lu ci
lu ca
lu c</w>
lu c.</w>
lu br
lubr ic
lu bo
loyal ty.</w>
low- level</w>
low n</w>
love jo
love ".</w>
lov in'</w>
lov ett
lov ed.</w>
lous y,</w>
loud mouth
lou r</w>
lou ise,</w>
lou is</w>
lou is.</w>
lou gh</w>
lou el
lou d-
lot ta,</w>
lore le
lor d...</w>
lor d's</w>
loop s</w>
look- ali
look it</w>
look ing?</w>
look :</w>
look .</w>
loo p</w>
loo m.</w>
loo ded</w>
long shank
long fellow
long er</w>
lon ge
lon eli
lon e</w>
lomb ar
logi st.</w>
logi st!</w>
lock er</w>
lock ed.</w>
lock 's</w>
lock !</w>
locat ing</w>
local s</w>
load ed.</w>
lo ving</w>
lo ves
lo vely</w>
lo ved</w>
lo tte.</w>
lo ts</w>
lo s,</w>
lo s!</w>
lo ret
lo ren
lo ph
lo oni
lo mp
lo ma</w>
lo lli
lo g</w>
lo ft
lo dg
lo cu
lo co
lo boto
lo af</w>
lo -
lo !</w>
lloy d,</w>
lloy d's</w>
lll p!</w>
llewel y
liz ard?</w>
liv es!</w>
liv ed</w>
listen ing!</w>
listen !</w>
list ed?</w>
lis b
ling u
ling s.</w>
ling k.</w>
ling ing</w>
ling er
lind gre
lin ne
lin ks</w>
lin k</w>
lin er</w>
lin ear</w>
lin e...</w>
lin e-
lin dre
lin da
lin ation</w>
lin a</w>
lil ac
like -
lik ed</w>
light sab
light s</w>
light n
light ing.</w>
light 's</w>
ligh thead
ligh ten</w>
lift ing</w>
lift ed</w>
life boat
life 's</w>
life !</w>
lif y</w>
lif t.</w>
lif es
lie ber
lie b
lick s</w>
licen sed</w>
li zz
li ves</w>
li ven
li ve?</w>
li on.</w>
li on,</w>
li mous
li me
li king</w>
li gan
li eg
li ed.</w>
li dd
li d</w>
li by
li bel
li abil
li .</w>
li ,</w>
levi ath
lev y</w>
lett ing</w>
lett er</w>
lett e,</w>
lett 's</w>
let ter,</w>
let te?</w>
let on?</w>
let -
les ab
les ...?</w>
ler "</w>
leon itch
len i
lei gh</w>
lei bel
legis l
leg s.</w>
leg ...</w>
left -w
lef to
leel oo.</w>
leav ing</w>
leas t</w>
leas h</w>
learn ing</w>
learn ed
leaf .</w>
lead ing</w>
lea ve
lea der</w>
le y...</w>
le wis
le wi
le w
le ven
le u
le per</w>
le on</w>
le on.</w>
le o.</w>
le o,</w>
le mme</w>
le mal
le gen
le g</w>
le ffer
le en,</w>
le ed
le e</w>
le e,</w>
le don
le ct.</w>
le bar
le b
le ather
le </u>.</w>
le -b
le *</w>
law s</w>
law s.</w>
law n</w>
law ?</w>
laun ch
laun cel
lau ghter
lat s</w>
lat est
lat er?</w>
lat er.</w>
lat ely</w>
lat e.</w>
lat e,</w>
las agn
lar g
lar e</w>
lap se</w>
langu age
land s,</w>
land ers.</w>
lanc elot
lan t</w>
lan g</w>
lan e,</w>
lan di
lan ce?</w>
laborator y/
labor at
la- de-
la zin
la you
la y-
la x
la va</w>
la ura</w>
la under
la sted</w>
la min
la me.</w>
la ma</w>
la m</w>
la ke
la id.</w>
la hor
la h</w>
la g</w>
la dy</w>
la d.</w>
la cy.</w>
la "!</w>
l ish.</w>
l is?</w>
l is,</w>
l ings</w>
l has
l b
l ant,</w>
l ance</w>
l ance.</w>
l --</w>
ky le
ku lo
ku j
ku .</w>
krueg er's</w>
krue ger
kri sten
kre mp
kre m
kra ut</w>
kor os?</w>
kon g.</w>
ko mmand
knowle dge</w>
knowle dge
know- how
know s</w>
know ...</w>
kno cking</w>
knife ...</w>
kni gh
kitt en
kis ses</w>
kir ke
kinder gart
kind ...</w>
kinca id
kin s!</w>
kin d.</w>
kin ?</w>
kin !</w>
kim -
kill ing.</w>
kill er.</w>
kidnapp ing</w>
kid s.</w>
kid do
kid .</w>
kid ,</w>
kick er</w>
kick -
ki mber
ki ev
ki es,</w>
ki el
kiel bas
ki e?</w>
ki ?</w>
kh an</w>
kg b</w>
ken sing
ken ny
ken ne
ken !</w>
kell y
keep er</w>
kee pers</w>
ke ys</w>
ke y!</w>
ke v
ke stenbau
ke ith
ke en
ke e</w>
ke "</w>
kath ar
kar p
kar la</w>
kansa s.</w>
kan s
kan it
kal in
kal i</w>
k- and-
k s?</w>
k repla
k rend
k ram
k ook
k ong
k ok
k nap
k n-
k kin
k it?</w>
k int
k ing...</w>
k ing,</w>
k ing!</w>
k hur
k ft
k ers,</w>
k er's</w>
k ap
k amin
k ab
k ...e...
k...e... o...
k -</w>
just ....
just -</w>
just --
jurisdic tion</w>
jung le.</w>
june bu
jump er</w>
juli e...
judg ed</w>
ju ven
ju st.</w>
ju mbo.</w>
ju ep
juep ut
journ al</w>
jor -
johnn y</w>
joh n-
joh n,</w>
joe y,</w>
jock ey
job s</w>
job ?</w>
jo in</w>
jo e</w>
jo b.</w>
jo anne
jimm y...</w>
jim ...</w>
jim !</w>
ji m</w>
ji m,</w>
jesu s...</w>
jen ny
jell icle</w>
jeffer son</w>
jeff-- listen
jeff eri
jeez ...</w>
jeez ...
jeez !</w>
ject ed</w>
je ff</w>
jay 's</w>
jan u
jan et</w>
jan ei
jan e,</w>
jan e's</w>
jam ming</w>
jam es."</w>
jak '
jak' tah
jag -
jaco bi
jack as
jack ?</w>
jack ...</w>
jac ul
jab ez
jab ber
ja y.</w>
ja y,</w>
ja w</w>
ja i
j.d. ?</w>
j. j
j. ?</w>
j- j-
j op
j iz
j edi
j e-
j ano
jano s
j ank
j agu
j aff
j acu
jacu zz
j 's</w>
j '
iz z
iz e.</w>
iz ation.</w>
iv ory</w>
ity :</w>
ity ."</w>
itt ed.</w>
itt ed,</w>
ition ist.</w>
ition 's</w>
iti s</w>
iti ous?</w>
iti es...
ite m</w>
itch es</w>
itch es.</w>
itch ?</w>
it. </w>
it- it-
it's... it's</w>
it's --
it z.</w>
it z
it s...</w>
it ors</w>
it in
it h</w>
it e!</w>
it arian</w>
it a!</w>
it ]</w>
it ?!</w>
it :</w>
it --</w>
it 's,</w>
it "</w>
ist s?</w>
ist ic,</w>
ist er.</w>
ish ma
ish -
iscu it.</w>
is nt</w>
is n't</w>
is m...</w>
is m!</w>
is k</w>
is es</w>
is er</w>
is ep
is ed</w>
is ed.</w>
is a
is :</w>
is ...you</w>
is ...?</w>
is ....</w>
is --*
is '</w>
ir rig
ir resisti
ir repar
ir ?</w>
io din
invisi ble
introdu ce</w>
interrupt ed</w>
interest ed</w>
interest ?</w>
inter ven
inter pret
inter national</w>
inter fac
inter cep
intelli gent</w>
intelli gent
intelli g
intellectu al.</w>
int ric
int rep
int oler
int ing</w>
int ended</w>
int ance</w>
int ?</w>
instru ction
institu tion</w>
instin ct
instant ane
inst all
inspe ctor</w>
inse cto
insecto pi
ins ist</w>
inno v
inn y</w>
inn er</w>
inn a</w>
inn .</w>
ing s....</w>
ing enu
ing ed</w>
ing ]</w>
ing ??</w>
ing ?!!</w>
ing </u>...</w>
ing </u>
ing ...i</w>
ing ...!</w>
ing --in</w>
ing *</w>
ing "?</w>
ing ".</w>
inform ed.</w>
inform ation</w>
infor m</w>
influ ence
infe cting</w>
infe cti
inf lic
indul gent</w>
indu ced</w>
indiffer ent</w>
indic t
indi gn
indi an?</w>
incre a
incin er
incident '</w>
inc rimin
inc enti
inc ap
in' d</w>
in test
in subordin
in sti
in spire
in side</w>
in s...</w>
in o,</w>
in o
in ject</w>
in je
in i</w>
in i,</w>
in fin
in filtr
in fel
in fat
infat u
in experienc
in experi
in ev
inev it
in ess...</w>
in ep
in don
indon es
in deli
in cura
in corpor
in conceiv
in con
in comprehen
in ce
in bur
in bre
in ad
in accur
in ?"</w>
in ....</w>
in .'</w>
impris on
impress ed.</w>
impres sive</w>
import ant</w>
import -
import- ex
imper tin
imper fe
impec cab
imp regn
imp eri
imp edi
impedi ment
imp aire
imp act</w>
immort al
immedi at
imm in
imm er
imm en
imb al
ima ge</w>
im o</w>
im maculate</w>
im ho
illi n</w>
ill o</w>
il y!</w>
il ity?</w>
il ...</w>
ii j
ii i</w>
ii ?</w>
ight ,</w>
ig no
if- if</w>
if ?'</w>
if ...</w>
ie !!</w>
identi fied</w>
id ent.</w>
id ...</w>
icu lar</w>
ick y</w>
ice- sit
ice- cu
ice ber
ice --</w>
ically "?</w>
ic o
ic ep
ic entenni
icentenni al</w>
ic e!</w>
ic an,</w>
ic al?</w>
i... it's</w>
i... i...
i... "
i. t.</w>
i. a.
i- i,</w>
i'm- i'm-i'm</w>
i' m.</w>
i' m,</w>
i x</w>
i um,</w>
i ron</w>
i ra.</w>
i ke</w>
i i.</w>
i gu
i e...</w>
i e!</w>
i bi
i ans</w>
i ans,</w>
i an,</w>
i ...you</w>
i -</w>
i --i</w>
i --i'm</w>
i "</w>
i 	
hyster ical</w>
hypo thet
hypo thes
hypo der
hyper dri
hyper -
hygi ene</w>
hydro gen
hy dra
hy dr
hy d
husband s</w>
hus band</w>
hur ry</w>
hur ry!</w>
hur rican
hur ri
hungr y</w>
hundre d?</w>
hun t.</w>
hun ner
hun h?</w>
hun ch.</w>
huh -
hu x
hu ski
hu sh.</w>
hu mil
hu mid
hu gh
hu gg
hu dd
hu b
how 're</w>
how 'd</w>
how '
how !</w>
house ."</w>
house !</w>
hous es,</w>
hou m
hotel ...</w>
host ile</w>
horse- hair
hor ses</w>
hor ses,</w>
hor se</w>
hor net
hor n!</w>
hop ing</w>
hook ers</w>
hook er.</w>
hood ?</w>
hoo p
hoo ligan
hoo ks</w>
honor able</w>
honeymo on,</w>
honest y</w>
honest .</w>
hone y--
hone y-
hone y,</w>
hon ored</w>
hon olul
hon e.</w>
homes ear
home -
home ,</w>
holo cau
holi er-
holi c</w>
hol low</w>
hol low
hol ler
hol land</w>
hol ding.</w>
hol den</w>
hol d.</w>
hol d!</w>
hob ic,</w>
ho ts</w>
ho tel</w>
ho sti
ho se
ho r</w>
ho ps.</w>
ho met
ho mb
ho les,</w>
ho le
ho i</w>
ho f</w>
ho bo
ho ax
ho ag
ho ,</w>
ho !</w>
him ."</w>
hil l</w>
hil d
high- strung."</w>
high way</w>
hi t</w>
hi s.</w>
hi p</w>
hi king</w>
hi jueput
hi ght
hight a
hi e</w>
hi ?</w>
hi .....</w>
hi !</w>
hey... he
het ero
hes h</w>
hero in</w>
hero es</w>
here about
her s.</w>
her s
her o's</w>
her e?</w>
hen slow
hen ri
hello ...</w>
hello !</w>
hell ,</w>
heaven ,"</w>
heart ening</w>
heart beat
heart ?</w>
heart ."</w>
heal thy</w>
head s?</w>
head s.</w>
head s...</w>
head ed,</w>
head a
head ....</w>
head 's</w>
he mat
he ir
he i
he h.</w>
he els</w>
he el</w>
he el
he e</w>
he --</w>
he 'll</w>
he !</w>
hayd n.</w>
hav ing</w>
hav an
haun ted?</w>
has h</w>
hart !</w>
harri et
harmon y.</w>
har sh
har ry</w>
har ry,</w>
har old,</w>
har al
happen s</w>
happen ed</w>
happ y,</w>
happ ily</w>
hank y-pank
handic app
hand s?</w>
hand s.</w>
hand ling.</w>
hand ed,</w>
hand bag
hand ?</w>
han cock
han a,</w>
ham unaptra
ham mo
ham mer</w>
ham ?</w>
hali fa
half .</w>
half ...</w>
half -w
half -h
half -b
half --
half ,</w>
halde man</w>
hal l</w>
hal brook
hair ...</w>
had don
hab itu
hab it
ha t</w>
ha p</w>
ha ired</w>
ha ire
ha il</w>
ha aa
ha ...</w>
ha -ha-ha
ha !</w>
h y-bra
h ull
h ru
h ound.</w>
h ort
h ir
h ing
h idd
h er,</w>
h en.</w>
h appe
happe n</w>
h ano
h ah
h ag
h ac
gy m
gut ter
gun ?</w>
gun !</w>
gul l</w>
guit ar
guide ?</w>
guerr illa
guard s</w>
guard s.</w>
gu y.</w>
gu s?</w>
gu s.</w>
gu lar</w>
gu ff</w>
gu es</w>
gu es.</w>
gu en
guen ever
gu e!</w>
gu ard?</w>
gru dge</w>
gru ber's</w>
gru bb
ground s</w>
grou p</w>
grou p
grou ch
gri ft
grenad es,</w>
great ...</w>
gre w</w>
gre na
gre ent
greent e
gre ed</w>
gre ase
gre as
graph y?</w>
graph .</w>
grand mother.</w>
grand ma</w>
grand childre
grand .</w>
gran d</w>
gran ce</w>
gramm oo
gra ves.</w>
gra ve-robb
gra ss</w>
gra ss
gra mp
gra m,</w>
gra ff
gra dy.</w>
gra ding</w>
gra de,</w>
gra d
gr inn
gr ing
gr ind
gotta '</w>
gott schal
goti st
gor y</w>
gor ith
gor e</w>
gor don</w>
gor don.</w>
gor do
goose bump
goodby e,</w>
good-by e,</w>
good-b y.</w>
good night</w>
good night,</w>
good ?</w>
good ...
gon z
gon na</w>
gon dor
gol it
gol d</w>
gol d-
goddamn it,</w>
goddam n</w>
god- aw
god z
god f
god dam</w>
go- round.</w>
go tch
go t,</w>
go sp
go ons</w>
go me
go ing-
go in'</w>
go in'.</w>
go ff
go ds</w>
go d!</w>
go "</w>
glori a</w>
gla ucu
gla s</w>
gla dy
gla des</w>
gl end
give- a-
give away
giv vem</w>
giv in'</w>
girlfriend ?</w>
girl s</w>
girl ...</w>
girl -
gir dle</w>
giov anni
gi t</w>
gi st.</w>
gi raff
gi m
gi ff
gi es,</w>
gi e!</w>
gi bar
ghost bust
gho st</w>
ghet to
gh oul
gh hh!</w>
gh ast
gh an
gg y.</w>
gg ling</w>
gey man.</w>
gett ys
gett ing</w>
gett in'</w>
get ,</w>
ges ser
geral d</w>
genet ic
genes is
gener ous</w>
gener ally</w>
gener al</w>
gender -
gen ous</w>
gen o
gen ev
gen ci
gel ati
gel at
ge ologi
ge ese</w>
ge es
ge ek
ge ar
ge ;</w>
gaz ers</w>
gat or.</w>
gat e...</w>
gat e,</w>
gas t</w>
gas ol
gar ters</w>
gar t</w>
gar ro
gar .</w>
gar ,</w>
gan t.</w>
gan !</w>
gam es,</w>
gam e</w>
gam e.</w>
gam e,</w>
gam e
game bir
gallagh er</w>
gal vin</w>
gal bra
gal ah
gad get</w>
ga ins
ga in</w>
ga in
ga iij
g. i.</w>
g- and-
g our
g oul
g ment</w>
g ling</w>
g le
g land</w>
g i</w>
g av
g ation</w>
g an?</w>
g al,</w>
g ah
g a,</w>
furtwn gl
fur ther
funn y-
fun ded</w>
fun d</w>
fun d-
fun ."</w>
fulfil led</w>
ful l.</w>
fuck ing-</w>
fuck in-
fuck in'</w>
fuck er</w>
fuck ?</w>
fuck ,</w>
fuck !</w>
fu uuuu
fu t
fu ss.</w>
fu se</w>
fu r</w>
fu n</w>
fu ego
fu dg
fudg es
fu dd
fu ch
fu .</w>
fru it.</w>
froz en</w>
fron t?</w>
fro st</w>
fro st
fro g
fro ck
fright ening</w>
friend s</w>
friend ly.</w>
friend ?</w>
friend </u>.</w>
fri day
frequ ently</w>
fren ch</w>
fren ch-
freez ing</w>
freez er</w>
freel anc
freak ,</w>
freak !</w>
fre sh</w>
fre es
fre e,</w>
fre ddy</w>
fre d.</w>
fre d
fre ak</w>
frau d
frank fur
franci s</w>
fran k</w>
fran k.</w>
fran co
fran ca
fra me
fra id</w>
fra gi
fra ct
four- and-
four-and- one-half</w>
four th</w>
four !</w>
foun tain
foss il
forty- seven</w>
forty- nine.</w>
form s</w>
form ing</w>
form id
form ation</w>
form al
forgi ve</w>
forget </u></w>
forget .</w>
foreign .</w>
fore ver!</w>
fore seen</w>
fore bod
for ward,</w>
for um.</w>
for ty-</w>
for tuit
for th
for t</w>
for t.</w>
for sy
for re
for k
for got
for get</w>
for cing</w>
for ces
for cep
for ce.</w>
for c
for ...</w>
for ...
footste ps</w>
fool -
foo ting</w>
foo t?</w>
foo t!</w>
fon d
follow in'</w>
fol low</w>
fol li
fol k.</w>
fol d.</w>
fo x</w>
fo d
fly ing...
flu or
flu ff
flow er.</w>
flow .</w>
flo w</w>
flo c
flo at
flight s</w>
flet ch
flat ,</w>
fla sh</w>
fla me
fla g</w>
fla g
fla emm
fl y?</w>
fl u</w>
five- angel
fitz simm
fit s?</w>
fish ing</w>
fish ?</w>
fish ,</w>
fish !</w>
fire s.</w>
fire d.</w>
fire d...
fired... your</w>
fire crack
fire arm
fir st</w>
fir st,</w>
fing ers</w>
fing er's</w>
financ ed</w>
fin ner
fin landi
fin ished</w>
fin ish</w>
fin e-
fin e,</w>
fin ally
fin al</w>
fil l</w>
figu red.</w>
figu re.</w>
figu re
fight ing</w>
fight ing.</w>
fifty- five.</w>
fift y?</w>
fift y
fif th.</w>
fif teen.</w>
fif teen-
fiel ds,</w>
fiel d's</w>
fiel d
fidd le.</w>
fic tion</w>
fic tion.</w>
fic tion
fi zz
fi x</w>
fi x.</w>
fi ve--</w>
fi le.</w>
fi le's</w>
fi ji
fi j
fi ght</w>
fi gg
fi er
fi ed!</w>
fi ber
ff ff
fet ched</w>
fertil iz
fern and
fen se.</w>
fen ny
fel t.</w>
fel low</w>
fel l</w>
feder al</w>
fed orchu
feather s.</w>
fe wer</w>
fe et
fe el</w>
fe ed</w>
fe e
fe bru
fe at
fe ared</w>
favor able</w>
fati gu
father s</w>
father ?</w>
father 's</w>
father 's
fat al
fast ?</w>
fasci st?</w>
fart sbisho
far rel
far e</w>
fan ch
familiar ize</w>
famili ar</w>
famb ly
fam ous</w>
fam ily</w>
fall ...</w>
falk ste
fal len</w>
fair y
fair fa
fag got
factor y?</w>
factor y,</w>
fact ory</w>
face less</w>
fac t</w>
fac ing</w>
fac e-to-
fac e!</w>
fab i
fa zel
fa ulkn
fa ire
fa iling</w>
fa il</w>
f.b. i.
f u</w>
f ton</w>
f ring
f rat
f ly.</w>
f loy
f itted</w>
f idel
f i</w>
f ay
f au
f ather</w>
f ate</w>
f ann
f a.</w>
f '
f !</w>
eye brow
ey es!</w>
ey e,</w>
ey "</w>
extra vag
extra d
extr ater
extr a</w>
ext ingu
expres sion</w>
expo sure.</w>
experi mental</w>
exper t</w>
expen sive</w>
expe cted</w>
exp end
exp el
exor ci
exhi bit
exhau sti
execu tion
excit ed.</w>
excit ed,</w>
excell ent!</w>
excell ent
excellent ...
exc es
exc av
exact ly
ex- cia
ex u
ex trover
ex teri
ex qu
ex port
ex pi
ex oner
ex cis
ex ce
ex act</w>
evol ved</w>
evol ution
evil do
evident ly</w>
every thing.</w>
every one</w>
every one's</w>
every body.</w>
ever ...</w>
ev ic
ev e,</w>
ev asi
ev ap
evap or
eu ph
ett le</w>
ett ing</w>
ett ...</w>
ett 's</w>
eth yla
eth nic
eth ics.</w>
eth ical</w>
eth an,</w>
eter s...</w>
et to
et te's</w>
et s?</w>
et op</w>
et ing</w>
et e</w>
et ceter
et amin
etamin es.</w>
estab lish</w>
est ee
est ate</w>
est a</w>
est </u></w>
est ...</w>
ess enti
ess ."</w>
esc a.</w>
es ses</w>
es ome</w>
es is.</w>
es e?</w>
es cre
es cal
es ?.</w>
es ?'</w>
es </u></w>
es .'</w>
es ,'</w>
es ,"</w>
es "?</w>
ers "</w>
ern ity</w>
eri an</w>
er. *</w>
er vil
er ty</w>
er s--</w>
er ot
er oom</w>
er in'</w>
er ed!</w>
er a.</w>
er </u>...</w>
er ....</w>
er 'll</w>
er '.</w>
equip ment</w>
equi val
equ er
equ ator
epidemic !</w>
epi zoo
epi -
epi- zoo-
ep sil
ep s.</w>
ep it
enz o</w>
entrepre neur
ento po
ento mo
enti re
entertain ment</w>
enterpris e-
ent y</w>
ent ry</w>
ent rap
ent oura
ent er</w>
enri qu
enhanc ing</w>
enh ance
engine ered.</w>
engin es</w>
engin e</w>
eng el
eng age</w>
ener gi
ener g
endor se
end ur
end ing?</w>
end en
end ...</w>
end -</w>
end !</w>
enci es</w>
ence ;</w>
ence :</w>
ence ."</w>
enc y!</w>
enc lo
enc es?</w>
en roll
en ig
en gra
en force
en ess.</w>
en ed
en dear
en chil
en a</w>
en </u></w>
en -</w>
en !?</w>
emper or</w>
emp tin
emp ir
emp ath
emotion al.</w>
emer genci
emer al
embezz le
emb ryo</w>
emb ol
emb ell
emb ass
emb ank
emb al
eman ci
em en.</w>
em ed</w>
em as
emas cul
em ...</w>
elli n</w>
elli e...
ell y</w>
ell y.</w>
ell o</w>
ell i</w>
eli gi
eleven -
eleven ,</w>
electro cu
elect rici
elect ric</w>
elect ed</w>
elect ,</w>
ele ss
ele k
ele ction</w>
el u
el t</w>
el se</w>
el s?</w>
el lo's</w>
el ler</w>
el ine.</w>
el ic
el dri
el ap
el -ra
eighty- two...
eight y</w>
eight y.</w>
eigh teen</w>
eh ...
egyp ti
egomaniac al</w>
eg ghe
effici ent</w>
effe ctive</w>
ef er</w>
ee eee
educ ation</w>
educ ation,</w>
edit ori
edit ing.</w>
edi e</w>
ed- out</w>
ed ward?</w>
ed v
ed na</w>
ed ly,</w>
ed ith.</w>
ed inbur
ed gar</w>
ed dy</w>
ed ?...</w>
ed </u>,</w>
ed ...i</w>
ed ...?</w>
ed -off</w>
ed ,"</w>
ed '</w>
ed !?</w>
econ omic</w>
ech el
ec stas
ec es</w>
eat in'</w>
eat h</w>
eat er!</w>
eat en</w>
easter n</w>
eas y.</w>
eas y...</w>
eas t</w>
ear s</w>
ear ned</w>
ear l</w>
ear ,</w>
e... what</w>
e... i'll</w>
e... and</w>
e... "</w>
e. m.
e- up</w>
e- r.</w>
e- out.</w>
e- ay
e ve...</w>
e ure
e min
e jacul
e ith
e is
e h,</w>
e gotist
e eri
e cr
ecr ation</w>
e ck
e ach</w>
e ?"</w>
e --i</w>
e '?</w>
e "...</w>
e !
dy ing</w>
dwi ght
dwi gg
dun ge
dump ty</w>
dul y</w>
duck !</w>
du val
du rac
du mb</w>
du ke</w>
du ke.</w>
du h...</w>
du ff.</w>
du elli
du e.</w>
du de's</w>
du ck</w>
du ch
du blin
du .</w>
dry er</w>
dru m.</w>
dru gged
dro pping</w>
dro pp
dro p</w>
dro p.</w>
dro p,</w>
drive -b
drink --
dri ving</w>
dri ve</w>
dress ing</w>
dream t</w>
dream s</w>
dream s,</w>
dream ing.</w>
dre w</w>
dre ss.</w>
draw n</w>
drag on's</w>
draft s.</w>
dra w</w>
dra g</w>
dra ft</w>
dra ft.</w>
dr y</w>
dr y!</w>
doy le
down s.</w>
down ...</w>
down !</w>
dough -
dou glas</w>
dor sett
dor man
door s.</w>
door kno
doo ms
doo fu
doo .</w>
don't ...
don't *</w>
don o
don e.</w>
don e,</w>
don ?</w>
don 't.</w>
domin o
dollar s</w>
does n't</w>
does n't
doctor ,</w>
doc to
do s</w>
do re,</w>
do or.</w>
do o</w>
do lore
do lo
do ing</w>
do ing.</w>
do gs</w>
do g.</w>
do ck?</w>
do bis
do ber
dober man
do bb
do b
do ....</w>
do -</w>
divor ced</w>
divor ce
div a</w>
distur bed</w>
distri bu
distribu tion</w>
distra u
distra ct
distingu ished</w>
distin ct
dist inct</w>
dist inc
dist ance</w>
dist anc
disclo sed</w>
disci ple
disast r
dis su
dis sid
dis sert
dis sent
dis se
dis position</w>
dis pen
dis orient
dis integr
dis illusion
dis h
dis da
dis crimin
dis coun
dis conne
dis comfor
dis belief
dis bar
dis ap
dis allow
dire ction.</w>
dire cti
dir ty</w>
dir t...
dinn er</w>
dinn er.</w>
ding ...
dig iti
dig ay
differ ent?</w>
differ ent.</w>
differ ence
didn't ?</w>
did nt</w>
did n
dick son</w>
dick in
dick en
dick .</w>
dick ,</w>
dic- tis.</w>
dic tion
diabet es?</w>
di xi
di s</w>
di p
di n</w>
di mitri</w>
di minu
di me</w>
di lem
di gest
di eu
di es...
di es,</w>
di ed</w>
di e?</w>
di dd
di d,</w>
di d!</w>
di ar
di ans</w>
di al</w>
di al.</w>
di 's</w>
dg ing</w>
devic e</w>
develop ed?</w>
devel oper
dett e</w>
determin ed</w>
dete ctive</w>
destin ation.</w>
dest ined</w>
desper ate.</w>
descri bing</w>
des pic
des p
des ign</w>
des ecration</w>
des ec
der iv
der elic
dep lo
deni al
den ial</w>
den by
demon ic</w>
delu x
delu sion</w>
deli ber
delan ey</w>
del acro
delacro i
del .</w>
deir dre
degre es.</w>
degre e</w>
definit ely</w>
defin e</w>
deed s?</w>
deck er</w>
debor ah</w>
deal ing</w>
dead ,</w>
de w</w>
de vil</w>
de ver
de ut
de tri
de tach
de t
de pu
de priv
de po
de mil
de men
de let
de et
de cks</w>
de ck</w>
de brief
de bat
de au
de ar</w>
de als</w>
de ad.</w>
de --</w>
dd ya</w>
dd a</w>
day s...
day a</w>
day !</w>
datab a
dat 's</w>
dar ling
dar e</w>
dani el?</w>
danc ing</w>
dan ak
danak il</w>
damn ...</w>
damn ...
damag ed?</w>
dam n-
dam n,</w>
dam age
dam .</w>
dais y.</w>
dadd y</w>
dad s</w>
dad e.</w>
dad ...</w>
da wn...</w>
da le?</w>
da ir
da i
da d</w>
da -y
d. c.</w>
d. ,</w>
d' ya</w>
d' am
d' al
d'al g
d well</w>
d uring</w>
d r</w>
d led</w>
d in'</w>
d ili
d ents</w>
d ell.</w>
d ed,</w>
d at.</w>
d ari
d ared</w>
d are,</w>
d ance,</w>
d al</w>
d ak
d ah
d ad.</w>
d ..</w>
d 	
cycle s</w>
cyc lon
cyc le</w>
cy ru
cy clo
cy cl
cy bor
cy ano
curren tly</w>
cur ricul
cur e</w>
cult ures</w>
cult ure
cul t.</w>
cuis in
cu z</w>
cu z,</w>
cu te?</w>
cu t.</w>
cu t,</w>
cu ous</w>
cu m</w>
cu ff</w>
cu cam
cucam ong
ctor ...</w>
ction s?</w>
ct ed
ct !</w>
crush </u>
crun ch
cruik shan
crow d</w>
crow d-
cross- examin
cross ed</w>
cross bre
cro w</w>
cro ss?</w>
cro p.</w>
cri st
cre st</w>
cre epi
cre ek
cre ative</w>
craz y!</w>
craz ed</w>
crash ?</w>
cran ial</w>
crack ing</w>
cra cks</w>
cr ate</w>
cover s</w>
courtro om</w>
course </u></w>
cour ty
cour teous</w>
cour t</w>
cour t.</w>
cour t-marti
countr y-
counter -
count y</w>
count in'</w>
counc ill
cott on
cost el
cost a</w>
corrup tion</w>
corro bor
corri dor</w>
corri dor
correspon d
corpor al</w>
corn wal
cor sic
cor rupted</w>
cor ps
cor ner
cor le
cor d.</w>
cor bett
cop y</w>
cop -
cool ....
cool ,</w>
cook ed</w>
convinc ing.</w>
conven tional</w>
conven e</w>
controver si
control la
contro l</w>
contra p
continu e</w>
contin ent
contemp lat
contamin ation</w>
contamin ated</w>
cont ent.</w>
cont agi
consu mer</w>
consu mer
constitut ed</w>
constant ly</w>
conspirac y</w>
consider ing</w>
consider ate</w>
consi gli
consi der</w>
consci ous</w>
conne ction?</w>
congratul ations.</w>
congratul ations,</w>
confu sed
confis cat
confir med.</w>
confir m</w>
confidenti al,</w>
confid ent</w>
confess ed</w>
conf ident
conf eder
condition ing</w>
condes cen
concer ned</w>
concent rat
con vul
con s...</w>
con ject
con gen
con form
con fi
con cre
con cept
con -
comput er</w>
compu ter,</w>
compromis ing</w>
compre h
complic ated.</w>
compli ment
comple x</w>
compens ate</w>
compar able</w>
compani on
comp ress
comp res
comp on
comp ieg
comp ad
communist s.</w>
committe e</w>
commission ed.</w>
commis sion</w>
commander -in-
comm ande
combin ation?</w>
comb ined</w>
comb .</w>
coman che
com o</w>
com mon</w>
com ing,</w>
com bu
com ,</w>
colum n</w>
colon el
colo red</w>
colo mb
colle ge
col son.</w>
col lis
col lin
col lar</w>
col laps
col d-
col d
coffe e...</w>
cock roach
cock ed.</w>
coca -
coat s.</w>
coast al</w>
co- ordin
co z</w>
co x</w>
co x.</w>
co x!</w>
co tt</w>
co t
co s</w>
co re,</w>
co pe</w>
co p</w>
co mor
co log
co le
co l</w>
co itu
co in
co iff
co gh
co de.</w>
co ck</w>
co ch
co at.</w>
co at,</w>
co ar
co al
co ?</w>
co ...</w>
clu e
clou ds</w>
clou d
close r</w>
clos ing.</w>
clos ed?</w>
clos ed,</w>
cloak ing</w>
clo ver
clo thes
clo se</w>
clo cks</w>
clo ck?</w>
clo ck.</w>
clo b
clob ber
cli t</w>
cli ps</w>
cli pper
cli p?</w>
cli ft
cli ff,</w>
clean ed</w>
cle ar</w>
cle an</w>
class -
clar k</w>
clar issa.</w>
clar in
cla vi
cla sses</w>
cla ss.</w>
cla ss,</w>
cla re
cl enden
cket t.</w>
cket t,</w>
cket ?</w>
ck in
ck -
civiliz ed.</w>
citiz en</w>
cit y-dwell
circu s</w>
circu it</w>
cigarett e</w>
ci ous.</w>
ci l</w>
ci des</w>
ci a...</w>
ci a,</w>
chur ch</w>
chu tes.</w>
chu mp
chu m,</w>
chu ck</w>
chu bb
chro mo
christ ma
christ 's</w>
chri sten
chri st.</w>
choo se
chocol ate.</w>
cho sen</w>
cho co</w>
cho ,</w>
chin o</w>
chin am
chimer a
chill ?</w>
chil l</w>
chief s,</w>
chief ?</w>
chi p</w>
chi osaur
chi m
chi ,</w>
cher lindre
chemi str
chees e-
check ing
check ed,</w>
check ,</w>
che ster?</w>
che st-
che m</w>
che eri
che ch
che ap</w>
chard onna
character ist
char lie</w>
char ley</w>
char is
char g
chann el
chang ed.</w>
chance ...</w>
champ agn
champ ?</w>
cham p.</w>
chal k</w>
chair s</w>
chair s.</w>
chair !</w>
cha ir</w>
cha ins.</w>
cha ...</w>
ch ut
ch um
ch ry
ch or
ch o.</w>
ch lori
ch lor
ch imp
ch id
ch ess
ch es!</w>
ch es
ch en.</w>
ch e,</w>
ch ate
ch at.</w>
ch at,</w>
ch app
chapp aqu
chappaqu id
ch ance</w>
ch ag
ch a.</w>
certi fied</w>
cer taint
cer tain</w>
cent ral</w>
cent !</w>
cen timet
cen sor
cell o</w>
cel loph
ce as
ce ?!</w>
cav an
cavan augh
cav ali
caul dron
cau ti
cau se...</w>
cau se,</w>
cathed r
cat s</w>
cat eg
cat ching</w>
cat cher</w>
cat cher.</w>
cat ch</w>
cat ap
cat aly
cat a
cata comb
cast s</w>
cast le
cas pi
cas es,</w>
cas b
cas ano
cart wright,</w>
carri age,</w>
carni val
care ful,</w>
cardi ff</w>
card in
card en
car ry</w>
car ruther
car pet</w>
car o
car mel
car ib
car e</w>
car d</w>
car at</w>
capit alist</w>
cap ture</w>
cap tiv
cap ti
cap tain</w>
cap t'
cap su
cann on.</w>
cand le</w>
canc el
can t</w>
can not</w>
can nibal
can ned</w>
can e</w>
can e,</w>
can ap
can ?</w>
can *</w>
camp in'</w>
cammar eri
camer am
camer a?</w>
cam p</w>
cam elot
cam e.</w>
called --
call s...</w>
cal vin
cal ver
cal m,</w>
cal lo
cal li
cal led</w>
cal lah
cak es.</w>
cait lin
cad aver
cab in</w>
cab bag
ca ve-
ca shi
ca sh,</w>
ca se?</w>
ca se!</w>
ca ledon
ca ffe
ca fet
ca b</w>
c- c-
c' mon</w>
c' mon,</w>
c zar
c ite</w>
c icer
c ets</w>
c ed?</w>
c b</w>
c at</w>
c ard,</w>
c air
c ah
c age.</w>
c ade</w>
c able</w>
c a.</w>
c ...</w>
c ...
c -</w>
c 's</w>
by- the-
by stand
by gon
by e</w>
buzz ing</w>
butt er</w>
but t</w>
but cher
but ?</w>
but --
busin ess.</w>
burn ing</w>
burn er</w>
burg er</w>
bur y</w>
bur ton.</w>
bur sts.</w>
bur st.</w>
bur g,</w>
bur den</w>
bur bank
bun ked</w>
bun ch,</w>
bump ing</w>
bullshit !</w>
bull doz
bull -
buljan off,</w>
bul k
build ing!</w>
buil ding
buff alo
bud weis
buck ing
buck et</w>
buck ar
bubb a.</w>
bu t,</w>
bu ster.</w>
bu s?</w>
bu s,</w>
bu m</w>
bu gs</w>
bu gs.</w>
bu gg
bu g.</w>
bu ding
bu -bu
bru ss
bru sh.</w>
bru ck
bru ce,</w>
brow sing.</w>
brow n</w>
brother s</w>
brother s...</w>
brother hood
brother -</w>
bron f
brok ers,</w>
brok en.</w>
bro ther</w>
bro ker</w>
bro ken</w>
bro ke
bro d
bro ck</w>
brigh am
bri s.</w>
bri ef</w>
bri dge,</w>
bri des
bri ber
bren tw
breed ing.</w>
breath ,</w>
break s</w>
break fast</w>
break er.</w>
break .</w>
bre t
bre e
bre ckin
bre ad</w>
brand ed</w>
brain er
bra ssi
bra ins.</w>
bra in.</w>
bra chiosaur
bra cele
br o</w>
br inging</w>
br indis
br at
brat wur
box es</w>
bow ling</w>
bow -
bour ge
bour b
boun ty</w>
bou qu
botto m</w>
bor sch
bor ough
book kee
book -
boo th</w>
boo t-
boo st</w>
boo m</w>
boo gey
boo ger
boo by</w>
bonte cou
bon es</w>
bon d.</w>
bon av
bonav ent
bon apart
bon apar
bon an
bomb ing</w>
boli an
bod y-
bob bi
boat s,</w>
boat ?</w>
board s</w>
board s.</w>
board !</w>
bo y-
bo x?</w>
bo w</w>
bo w.</w>
bo th</w>
bo th
bo t</w>
bo so
bo sni
bo red.</w>
bo o</w>
bo hemi
bo gg
bo geyman.</w>
bo ge
bo ating</w>
bo ?</w>
bo ,</w>
blue print
blu ff</w>
blu ef
blood sh
bloo ded</w>
block a
block ?</w>
blo ck</w>
bless ed</w>
ble ach
black ...</w>
bla z
bla st</w>
bla ir
bla h,</w>
bla h
bl iss
bl anc
bitch es</w>
bitch ...</w>
bitch !</w>
bit r
bit e?</w>
bit ch</w>
bisho p</w>
bisho p.</w>
bis hop
bird s?</w>
bir th,</w>
bir ming
biograph ical</w>
bioc y
bin oc
bill y-
bill y
bill .</w>
bill ...</w>
bill 's</w>
bil ity.</w>
bien venido</w>
bic ar
bi o</w>
bi mbo
bi ke</w>
bi jou
bi gu
bi gge
bi eder
bi de
bi b
bib lic
bi anch
betwe en</w>
bet ,</w>
bes ieg
bern ard
ber tr
ber t's</w>
ber t
ber nie</w>
ber lin.</w>
ber et
ber ...</w>
benn y's</w>
ben sonhur
ben d</w>
ben ch-
ben at
bell y</w>
bell y-
bell .</w>
believ able.</w>
belie ve
bel oved</w>
bel ov
behav e,</w>
beep- beep-
been ...
bed room</w>
bed raggled</w>
bed ever
becom ing.</w>
beck ett
beauti ful.</w>
beau ?</w>
beat en</w>
beat ,</w>
bear ing</w>
be ware</w>
be thes
be t</w>
be in'</w>
be hold</w>
be have</w>
be gun</w>
be gan</w>
be g</w>
be es</w>
be er!</w>
be e.</w>
be e-
be coming</w>
be come</w>
be ck.</w>
be avi
be au</w>
be as
be arer</w>
be ard</w>
be ar</w>
be ar.</w>
be ar,</w>
be ans.</w>
be ani
be am.</w>
be ac
be a</w>
be ?</w>
be -</w>
bb ling</w>
bb le.</w>
bb er.</w>
bb er,</w>
bb ed,</w>
bav mor
bath ing</w>
bath .</w>
bath -
bath !</w>
bat man</w>
bat h</w>
bat e
bat .</w>
bat -
bask ervil
base man</w>
bas qui
bas ic
bas ed</w>
bart on,</w>
barn hard
barn es</w>
bare ly</w>
barbar a...</w>
bar zin
bar ter
bar ric
bar reng
bar ber
bank s</w>
bank s.</w>
bang s.</w>
bang k
ban za
ban ist
ban g</w>
ban an
bam bi
balti more
ballo on--
ball s?</w>
ball park
bal list
bal led</w>
bal d</w>
bag s?</w>
bag s</w>
bag ged</w>
bag ?</w>
bad ge</w>
back up,</w>
back s
back log
back ed</w>
bac teri
bac ter
babys it
baby "</w>
bab y.</w>
bab y...
bab y,</w>
bab i
bab bl
ba se?</w>
ba se,</w>
ba at
ba aa
ba -
ba 's</w>
ba '
ba !</w>
b y...</w>
b y!</w>
b u</w>
b ound</w>
b o</w>
b lin</w>
b lat
b itt
b it.</w>
b ind
b in.</w>
b icker
b et.</w>
b est</w>
b es,</w>
b ers</w>
b ent.</w>
b ed?</w>
b aw
b at</w>
b ant
b an</w>
b amb
b ach.</w>
b /
b ...</w>
ay e-ay
ay ...</w>
ay -
ay 's</w>
awk ward
aw ww.</w>
aw right.</w>
aw are.</w>
aw are,</w>
aw ard
aw .</w>
avi t</w>
avail able</w>
av oc
av er</w>
av al
auto -
author ized</w>
augu st
au tum
au g
attra ction</w>
attra cti
attor ney</w>
att itude</w>
ator s!</w>
ator 's</w>
ation al.</w>
ation --</w>
ation 'll</w>
ation "</w>
athe tic</w>
ate </u></w>
at ypic
at ra</w>
at lan
at i</w>
astron om
astro -
astero id
ast ing</w>
ast er
ast ,</w>
assu me</w>
asse ts</w>
asse t
asse ga
assa ult
ass- kiss
ass ess</w>
ass ess
ass a</w>
asi s.</w>
ash es</w>
ash ed</w>
as shole</w>
as ser
as k.</w>
as ?"</w>
articul ate</w>
arti f
arthur 's</w>
art ist</w>
art ill
art ?</w>
art 's</w>
around !</w>
aro o</w>
arm s?</w>
arm it
arm -
ari es.</w>
ari ans.</w>
ari a!</w>
are a</w>
are a.</w>
are -
ar y...</w>
ar y
ar teri
ar t.</w>
ar son
ar ound</w>
ar mp
ar m.</w>
ar m,</w>
ar ly
ar ling
ar kad
ar bo
ar bitr
ar a
aqu ari
appropri ate</w>
appro ximat
appro ach</w>
apprehen sive.</w>
app rais
app le.</w>
app endi
apologi zed</w>
apol lo</w>
apo calyp
apar theid</w>
ap r
ap e</w>
ap e,</w>
anywher e,</w>
anything !</w>
any where
any way</w>
any time</w>
any thing.</w>
any body</w>
any body.</w>
any body
any ...
antibi ot
anti hi
anti gen
anti do
ant isep
ant enna
answ ered</w>
ano ther</w>
ano ther,</w>
anni e's</w>
annab el
ann ul
ann u
ann n
ann e,</w>
ann ap
ann a.</w>
ann a,</w>
ang ling</w>
ang le.</w>
ang -
androsco gg
and a
and --
anch or</w>
anc y</w>
anc y.</w>
anc es,</w>
anarch y</w>
an y...</w>
an us</w>
an toin
an ore
an o</w>
an ism</w>
an gie.</w>
an gel</w>
an emi
an alo
an ach
anach ron
an ...?</w>
amster dam
amph etamines.</w>
amon g</w>
amo e
americ ans</w>
americ ans.</w>
americ an."</w>
americ a</w>
americ a!!</w>
americ a
amb ition
amaz ing</w>
amar go
am yt
am y</w>
am os</w>
am ong
am mun
am monia</w>
am es</w>
am en</w>
am bigu
am -
aly ss
alway s</w>
alu min
alter ing</w>
alter ed</w>
alright ?</w>
alright ...
alphab et
alon e,</w>
alon e!</w>
aller g
all y-
all s</w>
all ing</w>
all :</w>
all ...</w>
all -</w>
aliz ation.</w>
ali sts</w>
ali st,</w>
ali a</w>
albu quer
al t-
al ot
al one</w>
al most</w>
al most.</w>
al lo
al led.</w>
al ing?</w>
al icor
al ice-sit
al i</w>
al gorith
al gi
al fon
al f</w>
al der
al d
al bert</w>
al an-
al ab
alab am
al a.</w>
al ;</w>
al ...?</w>
ak ?</w>
air lin
air .</w>
aid s</w>
ahhh h
ahhh ...</w>
ahhh ,</w>
ahh nnn
ah- ah-
ah h.</w>
ah a,</w>
ah ."</w>
age ;</w>
again ....
ag ripp
ag ricul
ag o</w>
ag i,</w>
ag er</w>
ag ency</w>
ag enc
ag e...
ag ath
ag at
afterward s,</w>
afterno on
afra id</w>
affor d
affe ction
aff id
af ter.</w>
af ghan
advant age.</w>
adren al
adi o</w>
adel fi
ade s.</w>
ade n</w>
add ition
ad s</w>
ad s.</w>
ad ore
ad on
ad ole
ad o,</w>
ad o!</w>
ad mit</w>
ad am?</w>
ad agi
ad -li
actu ally,</w>
activ ity</w>
activ ated</w>
act ress
act or
act ing.</w>
acro ss
acro phobi
acqu ire</w>
acqu a
ack .</w>
ack !</w>
ach i,</w>
ach ed</w>
ach ...</w>
ach ,</w>
accoun ted</w>
accoun t</w>
accor ding</w>
accomp ani
accept able.</w>
ac y.</w>
ac y,</w>
ac s,</w>
ac ry
ac id
ac e.</w>
ac ,</w>
absur d
about ...?</w>
abomin able</w>
abo ard</w>
ab yss
ab use
ab rupt
ab ru
ab o?</w>
ab ly,</w>
ab err
ab bot
aar on
aaaa aaaa
aaa ah!</w>
aa !</w>
a- s-
a x</w>
a x.</w>
a way,</w>
a side</w>
a les,</w>
a is</w>
a hi
a head</w>
a g</w>
a fire!</w>
a e</w>
a con</w>
a b</w>
a ...i</w>
a ..
a ".</w>
_ ...</w>
[ i</w>
?? ?!!!</w>
? ..
? --what</w>
? !...</w>
<u>this </u></w>
<u>pur ity
<u>out </u></w>
<u>all </u></w>
<u> z
<u> yesterday
<u> yes
<u> year
<u> writ
<u> word
<u> women
<u> without
<u> will
<u> watch
<u> want
<u> up
<u> un
<u> too
<u> stop
<u> sound
<u> somebody
<u> shoot
<u> sho
<u> sense
<u> rough
<u> right
<u> remember
<u> reason
<u> really
<u> rache
<u> quick
<u> party
<u> on
<u> okay
<u> nin
<u> negati
<u> need
<u> names
<u> my</u></w>
<u> murder
<u> more
<u> month
<u> money
<u> mill
<u> matter
<u> lugosi
<u> lives
<u> lik
<u> kill
<u> if
<u> hu
<u> how
<u> home
<u> history
<u> he
<u> has
<u> from
<u> free
<u> found
<u> forget</u></w>
<u> first
<u> fag
<u> engage
<u> earth
<u> don't
<u> dinner
<u> die
<u> did
<u> dead
<u> crush</u>
<u> credit
<u> business
<u> boot
<u> bomb
<u> big
<u> before
<u> been
<u> beautiful
<u> base
<u> bad
<u> back
<u> baby
<u> away
<u> any
<u> america
<u> afflic
<u> "
<i> you
</u>-- <u>
</u> ?"</w>
</u> :</w>
</u> ...
</ b>
: "</w>
9 :
9 9.</w>
9 68</w>
9 43</w>
9 00</w>
9 0.</w>
8 98</w>
8 8.</w>
8 5
8 46</w>
8 37</w>
8 35</w>
8 2
8 18
8 00</w>
8 /
70 ,</w>
7 th</w>
7 70</w>
7 57</w>
65 53
6. 7
6 th</w>
6 ?</w>
6 7.</w>
6 6
6 2
6 10</w>
6 00</w>
6 ...</w>
6 -
53 -
50 8</w>
50 3</w>
50 -
5- 4-
5-4- 3-
5-4-3- 2-1-
5 th</w>
5 4,</w>
5 27</w>
5 00.</w>
40 8</w>
40 3</w>
4- 3
4 94</w>
4 83</w>
4 72</w>
4 5.</w>
4 26</w>
4 25</w>
4 21</w>
4 12</w>
4 00</w>
4 .
30 7</w>
30 6</w>
30 ,</w>
30 's.</w>
3 89</w>
3 88</w>
3 86</w>
3 8
3 31</w>
3 30</w>
3 28</w>
3 22</w>
3 13</w>
3 11</w>
3 00</w>
3 ,</w>
27 b/
27 7</w>
27 5</w>
27 4</w>
27 2</w>
26 9</w>
26 6</w>
26 4</w>
26 3</w>
26 0</w>
23 96</w>
23 7
22 ?</w>
20 7</w>
20 5</w>
20 4</w>
20 2.</w>
2 97</w>
2 87</w>
2 49</w>
2 47</w>
2 44</w>
2 40</w>
2 4-
2 4
2 38</w>
2 37</w>
2 25</w>
2 24</w>
2 17</w>
2 16</w>
2 15</w>
2 1
19 8</w>
19 7</w>
19 6</w>
19 46
19 3</w>
19 2</w>
19 ,</w>
18 7</w>
18 6</w>
18 5</w>
18 4</w>
18 3</w>
18 .</w>
18 ,</w>
17 8</w>
17 6</w>
17 3</w>
17 1</w>
17 0</w>
17 ,</w>
16 4</w>
15 9</w>
15 4</w>
15 1</w>
15 0
15 ,</w>
14 9</w>
14 6</w>
13 22</w>
13 20</w>
13 0.</w>
13 .</w>
12 .
11 ,</w>
100 9</w>
10 62</w>
10 .</w>
10 ,</w>
1 33</w>
1 30</w>
1 28</w>
1 1.</w>
1 /
1 ,000.</w>
00 ,</w>
0 4.</w>
/ 99</w>
...you .</w>
...y es.</w>
...y es...</w>
...y es,</w>
...what ever</w>
...what ?</w>
...what ...?</w>
...wh y?</w>
...wh enever</w>
...wh en?</w>
...please ...</w>
...please ....</w>
...o ver</w>
...no thing.</w>
...no ...no
...no ...</w>
...no !</w>
...i' d</w>
...al most</w>
...<u> no
.... you</w>
.... you're</w>
.... how</w>
... were</w>
... uh...</w>
... two</w>
... twenty</w>
... they're</w>
... tell</w>
... take</w>
... saving</w>
... or,</w>
... on</w>
... nice</w>
... love</w>
... little</w>
... how's</w>
... her</w>
... fifteen</w>
... everything</w>
... can</w>
... can't</w>
... before</w>
... and,</w>
... about</w>
... 3
... '
.. the</w>
.. it's</w>
.. and</w>
. 5
. 00</w>
. --</w>
. &quot;</w>
. !</w>
-wh ite</w>
-wh en</w>
-wh atta</w>
-w op-doo-doo
-w ise</w>
-w ise.</w>
-up s,</w>
-up ?</w>
-up ...</w>
-tra ck</w>
-of- shit</w>
-mind ed.</w>
-hoo -hoo
-ha !</w>
-h ouse</w>
-b icentennial</w>
-b ased</w>
-b -b
--wh ich</w>
-------- --</w>
-- your</w>
-- you'll</w>
-- without</w>
-- uh--
-- turn</w>
-- they</w>
-- there</w>
-- then</w>
-- out</w>
-- let</w>
-- kinda</w>
-- i've</w>
-- have</w>
-- from</w>
-- do</w>
-- come</w>
-- can't</w>
- you-
- well,</w>
- that's</w>
- sw
- she</w>
- over</w>
- na
- it</w>
- in.</w>
- in-</w>
- i-
- girl</w>
- down</w>
- ass
- a-</w>
- 	
,000 ,000.</w>
,000 !</w>
, 7
, ..
*you *</w>
* us
* truth
* no
* him
* care
't a</w>
's --
'em ...</w>
'em !</w>
'ch u</w>
'ch a.</w>
'by e,</w>
'b out</w>
'b out.</w>
' y</w>
' ud</w>
' time
' they</w>
' r
' primiti
' pri
' please
' on</w>
' nu
' maybe
' ly</w>
' look
' li
' kay
' job
' exploit
' du
' doctor
' civiliz
' action
' able</w>
' ]</w>
' 7
' ...i</w>
' -</w>
&quot; the</w>
&quot; ?</w>
& d</w>
$3 ,000
$ 60
$ 2.
$ 15
$ 10
# 6
"tu bab
"se infel
"de ar</w>
" witchcraft
" wick
" type
" triumph
" titan
" they
" that
" subject
" stuff
" security
" sales
" real
" read
" ray
" piggy-back
" park
" mom
" mole
" mind
" justice
" jennifer
" item
" is</w>
" integrity
" if
" hello
" happen
" ham
" guest
" gotta
" gang
" flash
" ex-cia
" earth
" e
" dracu
" day
" date
" call</w>
" cal
" but
" bolian
" ble
" bad
" back
" anni
" ?!</w>
" </u></w>
" -</w>
!... let's</w>
! ?"</w>
! </i></w>
! ...i</w>
! ....</w>
! --
	 p
	 i
