#version: 0.2
#version: 0.2
#version: 0.2
#version: 0.2
#version: 0.2
#version: 0.2
#version: 0.2
#version: 0.2
#version: 0.2
#version: 0.2
. .
i n
e r
a n
o n
r e
a r
e n
a t
s t
.. .</w>
l e
o r
a l
.. .
i t
s .</w>
o u
c h
t h
s e
i c
e l
in g
r o
e d
e s
r a
' s</w>
i s
i l
c o
in g</w>
d e
r i
u n
s h
l o
t i
e d</w>
l a
s ,</w>
l i
s i
m a
e .</w>
c k
- -
a m
en t
u >
u r
y .</w>
o o
e t
a d
g h
at i
a s
i r
o l
s p
c on
m e
s ?</w>
a c
d i
e r</w>
u l
a p
a b
< /
o w
y ,</w>
t er
an d
m p
w h
e ,</w>
m o
v er
e s</w>
s u
a g
r u
< u>
o n</w>
u t
m m
p er
n e
h e
b o
q u
- -</w>
ed .</w>
e ?</w>
m an
i d
n o
t e
f f
b e
p o
er .</w>
ati on
al l
a y
e x
gh t
c t
p ro
f i
ing .</w>
ar d
d o
t o
v e
b u
s o
h o
c e
y ?</w>
ic k
el l
a k
1 0</w>
m ar
1 1</w>
g o
c a
r an
l u
p h
f or
d er
s ...</w>
ou n
t .</w>
p re
m b
n i
v i
w e
s c
a l</w>
</ u>
on .</w>
. "</w>
d .</w>
g u
p e
s !</w>
il l
1 2</w>
m ent
m i
g e
an t
a .</w>
c u
1 3</w>
d is
e s.</w>
h a
h er
v e</w>
u ></w>
</ u></w>
ou r
d u
t ra
c i
b a
... ?</w>
w or
o p
ar t
g i
y -
s a
f e
m on
l e</w>
es ,</w>
t a
l y</w>
m in
w a
k e
in '</w>
f u
er ,</w>
ed ,</w>
th e
ing ,</w>
p i
d a
le .</w>
g ra
it i
in t
en c
h i
p a
o k
1 5</w>
ti on
en d
1 4</w>
y ...</w>
th er
s on
? !</w>
y !</w>
j u
re n
an c
e st
... .</w>
j o
! !</w>
d ,</w>
y ou
m u
l in
u p
c or
ou t
b er
g g
c ar
s k
re s
ing ?</w>
h u
er s</w>
en t</w>
co mp
er ?</w>
st e
f a
an g
p p
t w
on e
is h
v en
sp e
o t
b i
al i
a u
m or
es ?</w>
n ow
m .</w>
u re
le s
t t
1 8</w>
b ar
m at
j e
y o
p ar
ati on</w>
1 7</w>
lo w
an d</w>
1 6</w>
se l
a ,</w>
ch e
p l
in '
at h
w i
y e
g r
c re
p la
a h
or t
e !</w>
at e</w>
a t</w>
s y
ed ?</w>
on ,</w>
co l
m is
a n</w>
b le
e ...</w>
b ur
n es
f ul
al .</w>
1 9</w>
ro w
s er
y 's</w>
sh i
oo d
in k
m er
e v
i '
g n
co mm
p u
an n
o re
o .</w>
i n</w>
f t
s w
o m
t r
p en
c ra
f re
b re
s e</w>
le t
i mp
a ch
wh at
e -
a a
st er
it t
b r
l l</w>
d ?</w>
le d</w>
o r</w>
in ter
d on
s ur
p r
g re
a ?</w>
2 2</w>
se .</w>
j a
in c
b ut
yo u</w>
s en
d d
w ar
si on
o ff
i st
p le
an .</w>
z z
f in
un der
s s
ow n
ation .</w>
v el
t ,</w>
h ar
o ver
e 's</w>
.. ..
l y
t or
st i
le ,</w>
er s.</w>
s ch
d el
co m
b b
2 1</w>
c ti
r y
r on
f ri
d es
2 0</w>
c lo
c le
t ri
ou l
it y</w>
a st
it ch
f ac
b ra
an k
c la
b el
at ed</w>
so me
ic i
. '</w>
th ing
h h
a re
1 9
w ell
th at
b ro
w al
se d</w>
in d
in .</w>
fu ck
es s
s t</w>
d ay
at t
2 3</w>
g er
an y
ou s
i z
a ir
. .</w>
ma n</w>
he ad
en .</w>
o b
m il
m ,</w>
e p
w ay
t u
r e</w>
n a
l and
de d</w>
d y
d re
c oun
al ,</w>
' ll</w>
	 	
st u
k now
... i</w>
g en
c an
oo k
ch i
c ap
b la
1 0
p ri
ou s</w>
b l
st .</w>
e n</w>
at or
l y.</w>
ch ar
t on
e ver
c k</w>
? "</w>
v o
t ur
t ?</w>
h el
w it
t re
ing ...</w>
i ght
h un
h ol
v is
t ru
po s
l ar
wor k
v e.</w>
ba ck
oun d
m ent</w>
h and
f -
c tion
c at
b or
2 5</w>
w il
v ic
p ol
e le
</u> .</w>
t ran
g in
" .</w>
se s</w>
p .</w>
2 4</w>
0 0
' s.</w>
h or
g a
b ri
an i
u h
r it
es t</w>
all y</w>
se ,</w>
n '
er 's</w>
c ur
" ?</w>
pre s
g et
d ra
c h</w>
w at
ti m
ou gh
o -
n u
m it
ed ...</w>
... wh
r at
h ap
ed !</w>
or i
f ran
an ,</w>
st ar
on ?</w>
le s</w>
h ou
h al
c am
ab le</w>
2 6</w>
th re
k .</w>
th e</w>
g ar
f l
es ...</w>
en ,</w>
? ?</w>
oo l
ch o
c er
3 0</w>
' re</w>
t y
st ru
le ?</w>
d ...</w>
as s
lo g
l on
in e</w>
a v
t s</w>
g ood
d -
b on
a -
! !!</w>
r un
m et
ing !</w>
i t</w>
f la
de r</w>
c al
u s
o ,</w>
f un
ar i
th ir
p or
p at
p art
ic .</w>
d e</w>
con t
s co
ni ght
ne w
m al
lo ok
l l
h am
c e</w>
an ?</w>
? ...</w>
v al
su b
n or
i s</w>
c ent
a f
2 7</w>
t al
h y
re .</w>
r is
o h
n er
lo o
k id
h ow
g e</w>
d ic
ct or
t h</w>
r ic
n .</w>
ma y
m ?</w>
i on
e k
e ...
b al
2 9</w>
st ra
ri ght
m en
li ght
gh t</w>
e f
st o
sh o
sh it
m y
k i
, "</w>
n am
man .</w>
it y.</w>
g .</w>
e ar
b en
s ...
f ic
at ing</w>
w ard
s '</w>
et t
es !</w>
d ri
d ar
c ru
b ab
t en
st and
s al
o per
k in
er !</w>
de .</w>
an t</w>
se ?</w>
p t
for t
d !</w>
ck .</w>
at e
1 4
2 8</w>
w in
v ent
t -
sh e
s ol
n in
i .</w>
ch a
c ro
! ?</w>
ta in
st ,</w>
s we
s qu
re d</w>
la w
l y,</w>
k e</w>
i >
b ul
at e.</w>
wh er
v il
m s</w>
il d
d own
con f
... you</w>
v e,</w>
st or
si x
no t
ment .</w>
me an
m c
ja ck
f el
er i
ch .</w>
c as
b all
at her
ar y</w>
ab le.</w>
z i
su per
st ri
r y</w>
li st
e y
ca u
e m
3 1</w>
y '
w el
u s</w>
s or
ri st
on e</w>
o f
ic al</w>
f ar
en ti
d am
ti me
si gn
le s.</w>
le r</w>
i' m</w>
h on
a w
a r</w>
th .</w>
s si
p ra
l ou
it 's</w>
c y
bu t</w>
o ?</w>
m ur
in ,</w>
g ro
c ri
c lu
ation s</w>
</u> ,</w>
p lo
p et
oul d
l ing</w>
ing s</w>
h ard
g ir
fu l</w>
f il
enc e</w>
c li
a se
a d</w>
a ...</w>
3 2</w>
u m
s le
ma g
ju st
in' .</w>
f o
bo d
b ir
al ?</w>
3 4</w>
v ol
ti on</w>
s --
le g
f ore
er ...</w>
b il
ard .</w>
y our
st r
p sy
ou s.</w>
mo ther
m ed
is t</w>
c our
b oo
b et
th o
t !</w>
st re
si de
sel f
s ay
s am
pl an
n ic
m ul
iti on
gra ph
g oo
er s,</w>
d g
ag e</w>
1 5
s in
re ad
p ur
or .</w>
hi gh
gr and
g ri
d in
c ut
v es</w>
v er</w>
u gh
tran s
t ed</w>
sp on
qu i
p ul
p ,</w>
l an
j i
it u
e w
d ol
ca re
c ou
ation ,</w>
ar .</w>
anc e</w>
< i>
x .</w>
tw ent
spe ct
s at
p ic
mm mm
g ent
f er
en n
e e
ation ?</w>
</u> ?</w>
3 3</w>
ye ah
s n
re st
p ort
m id
jo h
it .</w>
in e
il i
f oo
f lo
e mp
d s</w>
ch ,</w>
</u> !</w>
4 4</w>
1 6
v e?</w>
th or
t ...</w>
p per
p ow
g an
fi re
ever y
d ro
d or
c t</w>
b at
3 8</w>
... !</w>
-- i</w>
y s
w on
un i
th ink
t in
s la
re l
p s</w>
man ,</w>
i ></w>
g l
fri end
a le
3 7</w>
3 5</w>
ye ar
ter .</w>
te mp
t ing</w>
sh ow
ou t</w>
mar k
m e</w>
l ic
in e.</w>
for m
b ru
b ook
a 's</w>
</ i></w>
v or
u m</w>
s on</w>
r ing
n n
lo ck
en ce
el .</w>
d ou
as k
an s</w>
a s</w>
wa it
ti on.</w>
thir t
se ...</w>
p ay
p al
les s</w>
is h</w>
in ?</w>
h .</w>
g un
f ro
ent .</w>
b lu
ar d</w>
aa aa
v it
th is
t ak
s un
re -
re ,</w>
p as
n on
li fe
i d</w>
f ra
f le
en ?</w>
el y</w>
b ow
... and</w>
' s
y es
wh o
p il
o c
j er
j an
i -
g la
d r
b un
ap pe
a !</w>
1 8
t oo
si on</w>
se d.</w>
sc re
s m
p ?</w>
l at
k ,</w>
it e</w>
hap pen
ff er
don '
bre ak
b e</w>
ar ch
a ut
... "</w>
z e
w rit
w o
u p</w>
st ?</w>
s ing
s an
po int
pla y
per son
per i
p in
n ,</w>
mb er
in st
h ur
fi el
et .</w>
bla ck
anc e.</w>
! "</w>
z e</w>
t ro
s mo
qu est
m -
h oo
g am
e ight
di st
c ab
b ed
ap p
an t.</w>
al s</w>
ad d
</u> ...</w>
3 6</w>
2 0
ur e</w>
th i
t s.</w>
spe ci
se s.</w>
sc i
s and
m y</w>
le ...</w>
l .</w>
in -
i f</w>
he art
d '
ck ,</w>
ce p
c ul
bo y
b an
a i
z .</w>
st ro
si d
ph il
on s</w>
ment ,</w>
g ,</w>
e --
de c
b loo
b le</w>
at ed.</w>
an ti
... th
' .</w>
wh i
v ir
twent y-
tur n
th ou
t ou
p lu
n at
ma c
m el
lo gi
le y</w>
is ,</w>
i c</w>
hi m
f our
f ol
es s</w>
enc e.</w>
al l</w>
ac c
3 9</w>
1 7
' d</w>
ve -
v ed</w>
th ,</w>
t ar
si st
s ul
s --</w>
re g
p ho
one -
m ou
it s</w>
id ent
hun dre
gir l
g -
fi ft
ex c
e t</w>
e l</w>
e g
d o</w>
d ing</w>
cti on</w>
c e.</w>
b and
at .</w>
an o
4 5</w>
4 1</w>
x i
w ind
w as
tw o-
sk i
se !</w>
s on.</w>
ro om
pro f
p un
or ,</w>
o '
man ?</w>
j es
it y,</w>
go d
f ir
et ,</w>
an ce
a in
w ant
ve n</w>
ve ...</w>
v ing</w>
ti c</w>
re spon
ran g
l un
i l</w>
ho me
er ic
el l</w>
de f
de ad
d en
ch rist
c ir
bur g
b y
b ag
ac t
you 're</w>
t ure
se x
s il
row n
nes s</w>
n y
mi st
j un
j am
in di
il .</w>
co ver
co ck
b it
all y,</w>
ac k</w>
4 2</w>
' ?</w>
w ill
w e</w>
ter s</w>
t ick
su ck
st at
son ,</w>
se con
pro du
nes s.</w>
m ut
k ing</w>
ic ,</w>
her e
g or
g al
g ?</w>
e u
d un
d ick
ch ?</w>
c all
al ...</w>
a ff
...wh at</w>
, 00
wit h
w .</w>
u s.</w>
sp o
sh oo
s ak
ro o
ment s</w>
le d.</w>
in s</w>
i mm
i gn
hel p
f ather
er s?</w>
el li
di d
de ,</w>
ch in
be au
ation s.</w>
at es</w>
2 5
" ...</w>
wh at</w>
t on</w>
t o</w>
sel f-
s s</w>
s lo
r y,</w>
p ap
p an
or ?</w>
min ut
m ic
m ...</w>
l ing
k il
ic e
i gh
he ar
g res
comm un
co p
ch ild
c in
bo ard
bel i
and -
ag e
4 7</w>
4 0</w>
-- --
we ek
w ood
ter ,</w>
t er</w>
ser v
s ar
ro ck
re ?</w>
qu ot
man i
le s,</w>
le !</w>
k ill
k ?</w>
g ran
ele ct
e at
de al
ch ick
b ill
b ad
ab il
a si
a .
-- you</w>
y ...
w er
t ow
sh .</w>
s ou
s li
re as
p ut
oun d</w>
mur der
la r</w>
k o
is e</w>
in' ,</w>
in ve
h ,</w>
gen er
e z
dre am
do or
di re
d ru
d res
ch ang
c e,</w>
bur n
b .</w>
ap o
ag e.</w>
4 8</w>
wal k
vi ew
te le
t y</w>
st on
se ven
se e
sc ri
s ing</w>
qu ar
n ick
mar ri
list en
joh n
it ,</w>
h at
g on
f ish
f am
en g
el ,</w>
ed i
d 's</w>
c r
b le.</w>
ar m
a m</w>
? ??</w>
4 3</w>
-- and</w>
' s?</w>
' s,</w>
wat er
so ci
sh ar
se s
s -
ph on
p oo
mo re
lo y
lo ve
k no
k e.</w>
ju st</w>
je ct
ho w</w>
h en
f ing
ex plo
et ?</w>
de s</w>
d s.</w>
d at
con tra
col le
b ell
b ank
ar ,</w>
? '</w>
3 0
' ve</w>
! ...</w>
v id
ure .</w>
under stand
shi p
ro ll
p ick
ok ay
ne ed
le tt
h ell
g ol
fran k
f ur
er ed</w>
ed u
e mb
d .
cti on.</w>
ck s</w>
ch u
ap pro
4 6</w>
z ed</w>
wor l
wa y</w>
v in
v an
that 's</w>
th r
te st
tal k
su pp
sp ir
sp ac
se tt
ra di
r y.</w>
pu bl
pp ing</w>
po st
ple ase
ould n'
n ut
li f
le a
l or
ke y
it h
hou se
h ill
go dd
g s</w>
che ck
ch am
bo dy
an s.</w>
am eric
all y.</w>
al s.</w>
5 6</w>
. ]</w>
x ,</w>
vi ol
ve !</w>
tr ou
the m
ter ?</w>
su re
s ;</w>
ro b
ra p
pr is
ple as
p end
on i
ma .</w>
li ke</w>
it e
h e</w>
h -
ful .</w>
f lu
ed -
d y</w>
c row
c .</w>
5 3</w>
5 0
4 9</w>
won der
wat ch
wa y.</w>
v a
to -
tim e</w>
the y</w>
th ing</w>
th er</w>
st op
sp i
si r
si on.</w>
sh ot
s h</w>
s "</w>
ro l
ri ch
r or
p -
ma in
m un
m a</w>
le t</w>
it ?</w>
ish .</w>
is ?</w>
ing -
in' ?</w>
il ,</w>
es s.</w>
ent ,</w>
en -
d er.</w>
c l
at e,</w>
2 .</w>
... no
... i'
wil li
wa sh
ver .</w>
u m.</w>
thirt y-
te n</w>
te ch
sp ar
sh op
se vent
se d,</w>
se cre
re li
p ed
ou s,</w>
non -
n -
m r
it s.</w>
ing s.</w>
il l</w>
i .
ha ir
fi ght
ff e
ex peri
et s</w>
en d</w>
en ...</w>
e th
de ?</w>
d ge
d ad
coun t
co ok
co mb
at or</w>
al !</w>
af ter
a ck
5 1</w>
5 0</w>
... i'm</w>
y n
thre e-
thou ght
t own
st s</w>
st ick
st ic
st er</w>
st art
st an
ser i
sch ool
s ."</w>
ron g
re s</w>
re d
re ali
r ick
pro te
pp ed</w>
p e</w>
or der
oo oo
o ther
o 's</w>
o !</w>
n ur
n o</w>
ment s.</w>
me ,</w>
man 's</w>
ma k
m s.</w>
m ir
m ed</w>
m e.</w>
les s.</w>
le -
k ick
iti on</w>
iti on.</w>
ic e</w>
h ook
fa ir
f at
f .</w>
don' t</w>
ch ed</w>
ce i
c ess
b att
b -
ar e</w>
ag re
a sh
a s.</w>
5 2</w>
... the</w>
... it's</w>
... but</w>
y --</w>
ve s.</w>
tion ,</w>
ther e
th ous
spe ak
sp ort
son ?</w>
sh ort
se s?</w>
s ic
r and
pho to
p s.</w>
or gan
on s.</w>
o s
n it
ment ?</w>
m es
lon g
li v
le y.</w>
l y...</w>
l en
j or
in n
in e,</w>
i r</w>
i ma
i de
he al
h one
g ge
fi f
fe el
f low
er ing</w>
enc e,</w>
du mb
di ffer
da y</w>
con ne
c ed</w>
bu sin
ar y.</w>
an ...</w>
ad .</w>
ac ti
6 0</w>
5 5</w>
- up
' n</w>
y ing</w>
y ard
w oo
vis i
v inc
ter s.</w>
ter min
t on.</w>
t ol
t it
su p
su c
sp it
si ght
sh ak
se s,</w>
sc u
sc en
re d.</w>
re cor
ra c
on 's</w>
o s</w>
ma s
m !</w>
li k
la .</w>
iti es</w>
id .</w>
i e</w>
he a
ha w
h it
godd am
f li
el i
el ?</w>
des er
de b
d ition
d an
con ver
con st
c ed
bo at
at e?</w>
as s</w>
ag u
ab out
7 1</w>
' t
" ,</w>
z ,</w>
w ,</w>
tr ick
t 's</w>
su it
si ve</w>
si mp
si der
sh er
sh el
sh a
se d
s ma
s ad
re me
ra y
psy cho
pres ent
pr int
pla ce
pe op
p on
p ac
o f-
mor n
me r</w>
me n</w>
m ol
m ill
l y?</w>
k is
k !</w>
it y?</w>
it or
ing ...
in t</w>
il e</w>
h es
h all
gu ard
gre at
fran c
f ron
f ool
f ly
f f</w>
er o
ent er
en s</w>
del i
d s,</w>
ct .</w>
ch !</w>
c -
bu ck
be at
b y</w>
b itch
b ath
ation s,</w>
appe ar
ant ,</w>
al li
,00 0</w>
y u
wh y
wel l</w>
w -
u se
u s,</w>
the -
th ank
ter n
t ap
t ab
st air
st !</w>
shi p</w>
sh ut
sh u
s o</w>
s l
ru p
re gi
pol it
pe ac
pa ck
p .
on !</w>
o log
o .
ne g
n ed</w>
n ar
mo t
lu ck
le 's</w>
la u
ju li
inter est
in e?</w>
il li
il ?</w>
id ,</w>
i g
i ,</w>
ho t
go ver
g y
g e.</w>
g ard
fort y-
foo t
ex pe
ex -
er s!</w>
ell .</w>
e as
dra w
de n</w>
da y.</w>
co me
cir cu
ce le
bu ff
bro ther
bo mb
bloo d
ati ve</w>
at ta
an e
ag e,</w>
a k</w>
5 9</w>
2 8
0 0</w>
, '</w>
wher e
the y
th u
th ro
ter ri
t un
t am
sy n
sy mp
sur vi
sti g
st er.</w>
st ay
st a
so ph
si g
sh ,</w>
s now
re ver
r y?</w>
quest ion
p up
ous ly</w>
ou s?</w>
ou r</w>
o ...</w>
mou th
mo v
mil li
mar i
m oun
le s?</w>
land .</w>
k u
j our
it y
it e.</w>
ing s,</w>
ing 's</w>
ind ic
id e</w>
hal f-
h mm
h an
g row
g er</w>
g e,</w>
fl at
fi ed</w>
f ru
f ant
en !</w>
do ctor
cu s
ct ed</w>
cont in
con cer
cle an
c e?</w>
c ard
bul l
bre ath
bra in
bo x
ble ,</w>
ation ...</w>
anc e,</w>
an sw
ag ain
ad ,</w>
ab le,</w>
a ma
6 2</w>
6 1</w>
5 4</w>
. </i></w>
wh e
we ir
w all
ugh ter
t s,</w>
st ore
st ed</w>
st ...</w>
some thing
smo k
sh e</w>
se r</w>
s wi
s mar
qu e
pos si
pa ren
ou t.</w>
or din
no -
mother fuck
mon ey
m .
lo w</w>
la ugh
k s</w>
k ar
j ok
int en
ic s</w>
ic ally</w>
i s.</w>
ha ve</w>
gre en
go ti
g ut
g ang
ful ly</w>
fort un
f all
ex am
er s
ent ?</w>
e i
d y.</w>
d ul
d ow
d ge</w>
con sci
co w
co ol
cle ar
ch op
ch est
ch es</w>
ce pt
c .
bu ild
bu dd
b ol
b lin
as se
ant ?</w>
an 's</w>
al y
ah ,</w>
ac qu
ab o
6 6</w>
5 7</w>
... a</w>
-- the</w>
-- th
& quot
z o
y oun
w ed
v ul
t ell
sle ep
sa il
s y</w>
s ....</w>
pre sid
pre ci
pra ct
pi e
per .</w>
p pi
p ant
o graph
ni gg
n' t</w>
mis sion
ma d
m p</w>
l ,</w>
k e,</w>
in s.</w>
high -
h !</w>
ge t</w>
g as
fi ve</w>
ex ist
er -
el y.</w>
dr ink
d anc
cra ck
cor n
comm and
ck et
ch an
c ry
c lar
c ell
beau ti
b ,</w>
ar ti
ap point
an ni
acc ident
? ]</w>
6 7</w>
6 3</w>
3 .</w>
... we</w>
x ic
x ?</w>
ul ar
trou ble
tre at
tra in
tou ch
ti es</w>
th en
ta il
stu ff
st ing</w>
st ag
si on,</w>
sh ap
sco t
sat is
s ick
s .
reas on
re spect
re ac
re ...</w>
ra l</w>
pl at
ph ys
per fe
par k
p ir
p ati
p ag
off ic
nin et
mo tion
may be</w>
m ess
le y,</w>
l is
k ir
j on
it ...
imp res
i i
i e,</w>
i a</w>
hy po
hel lo
he 's</w>
h our
h ang
h ab
good -
go t
gent le
ge or
g ru
g ab
f t</w>
f ab
ex tra
es sion
enc y</w>
en gin
el s</w>
e ven
du mp
di g
di e
de te
cti ve</w>
cor re
con sider
commun ic
child ren
ch il
ch ap
cam er
c es</w>
br and
bod y</w>
b s</w>
ator .</w>
at ure
at ,</w>
anti -
al low
ac tu
9 1</w>
7 7</w>
7 2</w>
6 5</w>
.. ...</w>
you '
y a</w>
y -</w>
wh it
well ...
w y
w ol
v ari
th ?</w>
sto ck
st up
st al
son 's</w>
sh am
se qu
scre w
sc ar
s s.</w>
s mit
s ent
re port
re la
re al
ra in
po t
pl ic
pa u
pa int
p e.</w>
ol d</w>
o t</w>
nes s,</w>
ne goti
mon t
mo vi
mo on
me mor
me et
m ing
li ke
li e
les s,</w>
le y?</w>
le on
la ,</w>
l itt
l and</w>
l ?</w>
k a
ju mp
je ff
it ed</w>
is su
is m</w>
is m.</w>
inve stig
in du
in de
ima gin
ic e.</w>
ic ?</w>
hu s
ho spit
hh hh
her o
he ad</w>
h ...</w>
gr ou
g h</w>
f y</w>
f or</w>
et er
enc e?</w>
dol lar
do es
d ang
ct s</w>
contin u
con ven
comp et
ch er
ch el
cele br
c rit
c ath
busin ess
be cau
b low
ar ra
any thing
an -
a way
9 0</w>
8 2</w>
7 0</w>
5 8</w>
1 3
-- but</w>
' t</w>
	 *</w>
z er
z e.</w>
you ...
wo man
willi am
wh is
w rong
vic tor
v ac
the at
th ur
te ach
t z
t end
sur pri
su gge
su ff
st rang
st in
sh ed</w>
sa v
sa id
s :</w>
run n
ro man
ro g
re co
r out
r .
pro ble
pic ture
ou s!</w>
op en
on g
no thing
ne y</w>
ne igh
mo m
mic ro
mb er</w>
ma x
ma ,</w>
m n
lo ad
le d,</w>
le ar
k en
it !</w>
ish ed</w>
ir e</w>
ic k</w>
i es</w>
hu man
hor se
hap p
gg ing</w>
g are
fi ve-
fa st
f as
es cap
e ye
e m</w>
e gg
dou ble
do min
de s.</w>
d ent
d al
ction ,</w>
comm it
col on
clo se
cla u
cla i
ch air
ch a</w>
ca st
c ran
c lou
c art
beli ev
be ha
ba se
b our
b oun
b as
au thor
ation al</w>
ati c</w>
at ing.</w>
ard ,</w>
ar y,</w>
an !</w>
al t
ah .</w>
ad v
9 7</w>
8 3</w>
. 	
- in-
' s...</w>
z in
y s</w>
y --
wor d
wind ow
well ,</w>
ver ,</w>
vel op
v es,</w>
v ad
tra vel
ter 's</w>
t on,</w>
t a</w>
swe et
sup po
stru ct
stre et
st oo
sk et
sh ell
se arch
scri p
sa f
s ound
s a</w>
s ...?</w>
s '
ru ssi
ro t
respon si
re t
re d,</w>
r in
p el
p ass
p !</w>
or s</w>
on e.</w>
mon th
min d
mar tin
m and
m '
lin e</w>
li n</w>
li ber
le ad
la p
l er.</w>
l -
k y</w>
k es</w>
it y...</w>
it ut
ic s,</w>
i e.</w>
i a.</w>
i ...
ho p
her e...
h il
h ay
h as
ge !</w>
g ur
g ing</w>
ful ,</w>
fri ght
for get
fing er
fif te
fa vor
fa il
f t.</w>
expe ct
ex e
e qu
dg e.</w>
def en
de mo
de -
da ughter
co lo
ck ?</w>
ci vil
ch ri
cat ch
ca se
c es
c and
bu zz
b ou
b ack</w>
at ed,</w>
ard ?</w>
ar gu
an s,</w>
acti v
a h</w>
6 4</w>
0 .</w>
y est
wor th
wit h</w>
well --
we ak
wa y,</w>
w w
w r
w ag
vis ion
vel y</w>
val u
ur b
un t
u g
tw el
tr y
ton ight
tion ?</w>
t our
t .
su sp
su mm
sp a
sh ir
sex u
se as
s low
s ke
s it
ro se
ro ad
re !</w>
qu ick
pro gra
photo graph
per ver
p is
or e</w>
on s,</w>
on ...</w>
on -
o v
ne ver
n un
n e</w>
n ap
mu st
mu gg
me s</w>
me ?</w>
man n
m ing</w>
le d
know ...
k ur
k ind
k e?</w>
k ay
k an
just ...
j en
j .
ing s?</w>
ing </u></w>
in !</w>
ill e</w>
id ?</w>
ic s.</w>
ic e?</w>
i di
i ?</w>
ho pe
head .</w>
h is
h ad
g s.</w>
g o</w>
fift y-
ff .</w>
f ,</w>
er r
end ing</w>
enc es</w>
ell ,</w>
el !</w>
e y</w>
do cu
di vor
de fin
de ath
de ...</w>
d oo
d ir
cra w
com e</w>
co oper
clo th
ck ed</w>
cer ti
ce ...</w>
ca n</w>
c ann
bu d
be gin
b lo
ati ve.</w>
ar ri
ar ?</w>
apo logi
ant s</w>
and er
an ch
am .</w>
ag e?</w>
ad e</w>
ab ly</w>
aaaa aaaa
a vi
? !!</w>
9 .</w>
8 5</w>
7 6</w>
4 0
...th at</w>
... what
-- a</w>
-- -</w>
- of-
z u
z a
wi fe
we 're</w>
v ali
ure ?</w>
uni ver
uh -
u m,</w>
tw o</w>
ti ght
ti es.</w>
te x
ta x
sy ste
sti c</w>
st om
st ink
st ate
six t
si de</w>
shi p.</w>
se d?</w>
sco tt
sc ul
sa u
s our
s inc
s </u></w>
roo m</w>
ri dd
re s,</w>
re cei
publ ic
psy ch
pro mi
pre ss
phil li
p ing</w>
p er</w>
p ent
p ed</w>
ori gin
one !</w>
ok a
of f</w>
o th
o li
o f</w>
ni fic
neigh bor
ne u
n y.</w>
mo n</w>
mo mm
mist ak
min ist
mi ra
mi ght
me xic
mar sh
ma ch
m our
m oo
m o</w>
m bo
m 's</w>
lu c
lo .</w>
le v
le av
la un
ke ep
k y
k at
k -
jour n
je w
iz e</w>
iti es.</w>
ish ,</w>
in vit
in sul
imp ort
ill .</w>
il lu
id enti
ic e,</w>
i ra
hus band
hone y
hon est
he av
g ed</w>
fre ak
fol low
fac e</w>
f ut
f ren
f al
every thing
er y</w>
el 's</w>
ear th
e ."</w>
e -</w>
do .</w>
dis gu
der ,</w>
de stro
cu sto
cre d
cont rol
con dition
comp u
comp la
col or
co .</w>
ck ing</w>
ch ris
ch ing</w>
ce !</w>
but ter
bro ad
bo t
bar n
b lock
b in
aut o
at tra
at ?</w>
ar s</w>
anc e?</w>
an k</w>
am b
ac h</w>
6 9</w>
5 .</w>
1 2
1 1
---- ----
-- ?</w>
&quot ;
z ing</w>
wor k</w>
wit nes
wh ore
we st
war d</w>
w ra
ve l</w>
v ot
v .</w>
u su
u s?</w>
tw o
tru th
to r</w>
to mor
tion s</w>
ther e</w>
ther e's</w>
the n</w>
th row
ter ror
sy l
su spect
stup id
stu di
ste ph
st y
st rat
sp ot
sor ry
sk y
si ster
sh oul
sh e's</w>
ser vic
sen ator
secon d
sal v
s s,</w>
s oul
s ni
s -</w>
ro w</w>
reme mber
re s.</w>
re comm
re all
ran ge
r y!</w>
r -
pro per
pr in
pow er
po p
perfe ct
pe ar
part ic
pa ul
p itch
ou s...</w>
nat ur
n y</w>
n a</w>
mor e</w>
mo de
min i
may be
man !</w>
ma ke
ma chin
lo t
lo c
le ft
le ct
la d
l s</w>
l a</w>
k s.</w>
k ni
k itt
k enn
jo b
j ur
itt ing</w>
ing --</w>
in ti
in stru
in f
imp ro
ick .</w>
i es.</w>
i e
hy p
hon or
ho li
hard -
h ut
gr at
goo d</w>
gg ed</w>
g ay
fla sh
fiel d</w>
fac tor
f on
ev er</w>
et ...</w>
er y.</w>
er ci
en ough
el y,</w>
el s.</w>
e p</w>
do g
dis appear
deli ver
del u
d run
d ani
cra z
comp let
com fort
ck !</w>
car ri
cap it
c ris
c anc
c '
bu il
be fore
b is
b es
b .
as sho
ap art
all .</w>
al ity</w>
ak e</w>
ag o
ad i
a x
a ...
8 1</w>
4 .</w>
-- if</w>
' s...
" !</w>
! !!!</w>
	 	</w>
z ?</w>
your self
you r</w>
you -
year -
y or
y el
y ed</w>
worl d
wh ist
well -
we b
w ow
w ouldn'
w is
ver ?</w>
v es
v ed.</w>
uh ...
u .</w>
too th
to ge
to .</w>
thous and
ter s,</w>
te am
tak e</w>
ta in</w>
t ti
t es
sw itch
stra ight
so me</w>
so ...
sion s</w>
si ve.</w>
shi el
sh aw
sevent y-
se cur
s ne
s ant
ro y
ro n</w>
ro ber
re vol
re fu
r ing</w>
r .</w>
qu e</w>
pur po
pris on
ph one
peop le
pa ir
p s,</w>
p ill
p he
p ard
oun d.</w>
ol e</w>
oc cu
o x
o h</w>
o d
new sp
ne x
n ing</w>
n ...</w>
my ster
mp .</w>
mmmm mmmm
mis s
mi cha
me as
me ...
ma ster
ma il
ma gn
ma ?</w>
m ck
lin e.</w>
land ,</w>
la mb
k ne
k ing
k ed</w>
k ...</w>
k 's</w>
joh nn
iz ed</w>
iti z
iti on,</w>
is i
in' ...</w>
in form
in cre
il s</w>
i' ll</w>
i m
i f
hu mil
hor ri
h ood
h ?</w>
go -
g ul
g lo
for man
fi gu
fam ili
fa ith
f it
f et
f ed
f ag
ex pres
ex pen
er e</w>
en s.</w>
en gl
eight y-
e ven</w>
e mm
e --</w>
di ff
des cri
de cor
de !</w>
day ?</w>
da y,</w>
da w
da ,</w>
cri min
cre ep
coun ter
cor por
con gres
con fu
comp lic
comm is
co ff
ck s.</w>
ci p
ci gare
bri ef
bo y.</w>
beha vi
ba st
b ran
b e.</w>
b ang
at o
at es.</w>
as sist
are d</w>
and ...
al way
al o
ac cept
a s,</w>
</ i>
9 9</w>
9 4</w>
8 7</w>
8 6</w>
7 3</w>
2 1
... if</w>
- up</w>
- and-
z or
z oo
z e,</w>
yest er
y er
y a
y ...?</w>
whe el
wh oo
wh en</w>
wh a
w id
vi de
ure s</w>
ul t
u s!</w>
tre as
to ...
ti ve</w>
th ough
ta st
t ut
t ank
sur f
sur e</w>
st am
sp ook
sp l
so ft
sen s
se ssi
sc ru
s lu
s ac
ru pt
re pe
ra .</w>
prof ession
pri v
pre -
pract ic
pr inc
po is
pi er
peac e
pat ri
p e,</w>
oh -
oh ,</w>
not ic
no th
no t</w>
no ...
newsp ap
n t</w>
n e.</w>
n ation
mu sic
mid d
ment s,</w>
ment ...</w>
med ic
mat e</w>
mar ti
man ag
ma u
ma sk
ma l</w>
m s?</w>
ly n
log y</w>
lo v
li g
la s
la ?</w>
l y!</w>
l il
l .
kid d
k er</w>
k ath
ju dg
j est
j as
iti es,</w>
it --
it -
ish ing</w>
is ...</w>
int elli
ing ly</w>
in vol
in side
in san
in s,</w>
in k</w>
in ing</w>
in fe
ill ,</w>
id s</w>
i- i-
i led</w>
i ...</w>
hur t
hundre d-
hou se</w>
hi stor
hea ven
he y
ha ven
ha u
h in
gu ar
gr ound
go t</w>
g er.</w>
fi x
ff ,</w>
fel low
far m
fa shi
exc it
et !</w>
es e</w>
es '</w>
ent s</w>
en jo
en er
el se
e motion
e ffe
double -
di d</w>
der s</w>
de velop
de pend
de mon
de fe
de ar
dang er
da vid
d ut
d rown
d a</w>
d a.</w>
cu stom
ct u
ct or</w>
ct ing</w>
cro ss
con su
con stru
comp ani
com mo
co lu
co at
cla ss
che e
char ac
ch es
ch ...</w>
c ing</w>
c en
bo y</w>
bo di
bi g
beauti ful
be e
bal l</w>
b ?</w>
ator ,</w>
ass ass
as t</w>
as sign
as ?</w>
ar ound
ar ing</w>
an a</w>
all -
al mo
al ity.</w>
agre e
ad mir
ad just
ach .</w>
ab le?</w>
ab l
a il
</u> ...?</w>
9 5</w>
9 2</w>
8 4</w>
7 8</w>
6 .</w>
10 3</w>
... you're</w>
... maybe</w>
.. i</w>
-- !</w>
* !</w>
's -
' ,</w>
z ed.</w>
you --
y "</w>
wi f
wh en
w itt
w itch
vir gin
ve st
v am
v .
ure ,</w>
uh ,</w>
to p
to mm
to ?</w>
tim e.</w>
ti p
thre e</w>
thr ough
they 're</w>
th er.</w>
t ough
t ell</w>
t ed
swe e
sw al
su dd
st ron
st ori
st ak
sp or
some time
sion ?</w>
si s</w>
sh eri
sen ti
se ver
se par
se n</w>
se em
se cu
scre am
s ca
ri ght</w>
ri es</w>
res t</w>
rela x
reg ul
re turn
re ti
re present
re por
re gre
re bel
ran ger
r a</w>
qu ir
pu sh
psy chi
pro gres
pro b
pper .</w>
pp er</w>
pos ition
part ner
oo n</w>
ol d
off en
o s.</w>
o on
o logi
o hh
no vel
no ,</w>
n er</w>
mi x
med i
man u
ma st
ma ck
m s,</w>
low -
lo s
lo ad</w>
li mit
let 's</w>
le y's</w>
le n</w>
l it
l ing,</w>
l er?</w>
l ang
ke !</w>
jes us
je al
it ali
inter view
inter fer
in ed</w>
in ...</w>
imp o
il y</w>
il leg
ic !</w>
i' m
i fic
hyp no
hol e</w>
h id
gu est
gu e</w>
gra du
gover n
ge ...</w>
g s,</w>
g one
g an</w>
fun ction
four -
fi gh
ex pla
ex pl
ev ol
eu ro
ett e</w>
et s.</w>
ent ly</w>
ence ...</w>
en i
en ed</w>
en e
en d.</w>
ell ?</w>
elect ro
e mer
e ff
e "</w>
dow n</w>
dou b
don' t
docu ment
do ing
do c
dis appoint
der ?</w>
de ci
de ce
dar k
d on</w>
d ed.</w>
cur ren
ctor .</w>
cro s
comp li
commit te
co tt
co -
clo ck
ch ur
ce ed
cas u
care ful
car l
c ould
c ali
c ak
bu st
bro ok
bo bb
bir d
bat ter
b y.</w>
b rown
b ett
b ble
b art
b ak
b a</w>
ator s</w>
ation !</w>
as su
as le
ap preci
ap ple
ant !</w>
an th
an aly
am ,</w>
all y?</w>
all y...</w>
al s,</w>
al ph
ah !</w>
ad dic
ab sol
a z
a de
8 9</w>
8 0</w>
8 .</w>
7 5</w>
7 4</w>
6 8</w>
10 0</w>
...th is</w>
... it</w>
... '</w>
... "
.. ...
-- it's</w>
- to-
y ?!</w>
wher e</w>
we ight
we '
w rest
w oul
w end
vil la
ver y</w>
ver s</w>
ver on
ven u
ve get
v ick
v es?</w>
v al</w>
un cle
ty pe
tru ck
tomor row
to day
tim es
ti es,</w>
thre at
ther ap
th s</w>
th er,</w>
th at</w>
th -
te sti
te s.</w>
te !</w>
t ort
t att
sw ed
sugge sti
ste n</w>
st res
st one</w>
st ol
st itut
squ ir
spe ed
some th
sk i</w>
sixt y-
sion s.</w>
si de.</w>
sh ad
seri ous
se w
se -
sc ra
sa w
sa under
s mi
s che
s care
s ab
ro mi
ro .</w>
rich ard
ri d
res er
ren g
recomm end
re qui
re ck
ra m
ra i
r y...</w>
r ound
r o</w>
qu il
pu mp
psychi at
pre gn
pre dic
pra y
pp in'</w>
po pul
ple a
pl ant
pil ot
phil o
paren t
par ano
p ool
p ad
out ,</w>
oun d,</w>
or s.</w>
or 's</w>
on e,</w>
ob serv
o ver</w>
o m.</w>
o ce
o ak
nu mber
no v
night ma
ni e</w>
ne y.</w>
ne cess
na i
n' t
n y,</w>
n er.</w>
n ?</w>
my self
moun tain
mo ti
me tho
me at
mani ac
ma ss
m itch
m en.</w>
lo ,</w>
li ght</w>
li ft
li ed</w>
let s</w>
les t</w>
les s
le vel
le d?</w>
law y
la y
la mp
l ing.</w>
l er,</w>
kno ck
ke y</w>
k on
k it
k er
k a</w>
jo se
j ell
j ak
it s,</w>
ist .</w>
is m,</w>
in 's</w>
imp er
ic h</w>
ic al.</w>
ho m
hes it
hal f
h ic
go tt
gi e</w>
gi e.</w>
gh o
ge s.</w>
g li
g au
fre ez
for e</w>
for d</w>
for ce
fl or
fa v
f art
f an
f ak
exe cu
exc ell
ex per
ex cep
ett e.</w>
et h</w>
er s...</w>
enter tain
ent !</w>
emp loy
ele v
ei ght</w>
ed it
e y.</w>
e per
e f</w>
don al
dist urb
di se
di e</w>
des t</w>
de stin
de pres
d y,</w>
d one
cu ri
ction s</w>
ction ?</w>
cra sh
conver s
con vic
con du
co ward
co t
co st
co o
circu m
chi ef
che ap
cam p
c itiz
c ,</w>
bre w
br un
bo y,</w>
bo tt
bo ard</w>
bo ard.</w>
bl ank
bil li
ber n
b row
b id
b er</w>
b ber
b >
ati ve,</w>
ath er</w>
at ter
at h</w>
at ely</w>
at ed?</w>
ast .</w>
as e</w>
ard ...</w>
ar y?</w>
ann oun
ani mal
ang el
anc es</w>
an a.</w>
an a
ale x
ad am
ac u
ac ro
ac coun
ab out</w>
ab le...</w>
aa a
a wa
a u</w>
a ren
9 3</w>
7 .</w>
00 .</w>
...i' ve</w>
... y
-up .</w>
-- in</w>
- fuck
' em</w>
' a</w>
z a</w>
youn g
y </u></w>
wor ry
we ather
w ound
w om
vir tu
vi o
vam pi
v ille</w>
v ag
up .</w>
up ,</w>
un t</w>
ul t</w>
u cin
tra g
tow n</w>
tion s.</w>
the y'
ter !</w>
ta ,</w>
t y.</w>
t ren
t le
t in'</w>
swi mm
susp ici
ster s.</w>
ste p
ste ad
st reng
st on</w>
st ill
st en
st ation
st -
sp ring
sp ok
sol di
sn ak
sm all
six -
si s.</w>
si mul
si mon
si e
sh in
sh hh
sh are
se e</w>
sa les
s y.</w>
s wor
s oo
s ?!</w>
ru bb
ro th
res s</w>
reco g
recog ni
re sist
re quest
re p
re in
re fle
re d...</w>
re d-
re con
ra bb
quar ter
pro to
pro pos
pro ject
pre ach
pp ed.</w>
pos ses
port un
pol ic
pl ann
pi zz
pi g
philo soph
per cent
par as
pa st
p ink
p e?</w>
out ?</w>
ough t</w>
ou ght
ot ,</w>
ori ent
or y</w>
or ...</w>
op portun
on y
on e?</w>
on ce
no w</w>
ni e.</w>
ne ?</w>
n au
mur ph
mu s
mp h
mo ve
mo tor
mo le
mo der
mo .</w>
mis er
mi c</w>
ment al</w>
ment !</w>
me y
mb i
mat eri
ma ma
ma jor
m ick
m ed.</w>
look ing</w>
log ical</w>
lo tt
lin .</w>
li z
li e,</w>
let ?</w>
let ,</w>
le s...</w>
land ?</w>
l !</w>
k er.</w>
k al
ji mm
ji m
je wel
j ab
it her
ish ed.</w>
ish ?</w>
is ing</w>
ira q
ir re
inve st
int ro
inc lu
inc ident
in' !</w>
in t.</w>
in spe
in e's</w>
in a</w>
imm edi
il ing</w>
ic al,</w>
i' ve</w>
i m</w>
i ght</w>
i e?</w>
hy ster
humil i
hu h
hu d
hol d</w>
her e</w>
happen ed
hall ucin
h ul
h ind
gu y
gu il
gu id
gu ess
goo f
gab ri
g lu
g ing
g il
g ag
fun er
fro m</w>
fre sh
fre d
fi ed.</w>
ff ?</w>
fel la
fashi on
f is
ex cu
et ti
et 's</w>
est abl
es s,</w>
es "</w>
er --</w>
engin e
ence s.</w>
emb arra
eight -
ed ic
ed </u></w>
e mil
e k</w>
e igh
e .
dy nam
down .</w>
do -
di ver
di plo
dete cti
des ign
de vil
de stru
de part
de ep
dam n
da mag
d y?</w>
d ing.</w>
d ann
ctor s</w>
coun sel
contra ct
con sul
con n
con clu
con cent
con ce
comm erci
co co
cla ren
cigare tt
chris sak
chri sti
chick en
ch ic
ch es.</w>
ch ann
ch al
certi fic
cer tain
cer e
cap tain
can 't
ca sh
c y</w>
c rat
c ed.</w>
burg lar
br it
br ing
blu e
be ar
bab y
b y,</w>
b ren
b ask
ator y</w>
asse mb
as soci
ar rest
ar chi
any way
ant ...</w>
ance ...</w>
an est
al v
al ter
al right
al le
al e</w>
al co
ag a
ad ver
ad vent
ac cu
ab u
a ur
a in'
a c</w>
? .</w>
? --
7 0
6 0
2 2
15 5</w>
1 18</w>
... my</w>
... just</w>
-in- law
--th is</w>
--th at</w>
-- what</w>
- nam
' m</w>
' ...</w>
z ar
yester day
year- old</w>
yeah ,</w>
y y
wil d
whis per
wh y</w>
wh ack
we ar
we ap
wash ing
ward .</w>
ward ,</w>
war m
w right
w ould
w ish
w es
w and
vis it
vi g
v ok
v ,</w>
ure d</w>
ur .</w>
u ri
u m?</w>
u .
u ,</w>
tur e</w>
tra ck
ton ?</w>
ton 's</w>
to o</w>
to m
ti e</w>
thur s
thous and</w>
tho mp
that ...
ten -
temp er
t ool
t ed,</w>
t ;
t '
suc cess
su re.</w>
su gar
sti mul
ste ven
star v
st y</w>
st rong
st ers</w>
squ are
some thing</w>
so m
sne ak
sn oo
sn ap
sma sh
sm oo
sm ell
sk y</w>
sk ul
si x</w>
si ve,</w>
si e</w>
sh ould
sh an
seven -
se y</w>
se t
se ly</w>
se du
sc rat
sa ,</w>
s ort
s ..</w>
s .'</w>
s "?</w>
rob ber
ro bb
ri ver
ri dic
responsi bil
rel ation
reg ard
re tt
re sign
re sid
re cover
r ough
r ink
pre tt
po et
po cket
pi ge
person al
peri o
per hap
pe pper
pal ac
p s?</w>
p ound
p le</w>
p it
p ath
ow n</w>
ow .</w>
over -
oun d?</w>
ore d</w>
op in
one ...</w>
on s?</w>
on ly</w>
on g</w>
oka y,</w>
off ici
off .</w>
oc ca
ob vi
ob je
no i
no .</w>
ninet e
night .</w>
nic o
ni e,</w>
nam e
n s</w>
n el
n e,</w>
mon i
mid -
met ap
me chan
mb er.</w>
mar t
m itt
m en,</w>
lo ver
lo mb
light .</w>
le dg
la w</w>
la dy
la di
l ant
ke n</w>
ke 's</w>
k ore
k am
jeff re
ja il
j ess
j ap
iz ation</w>
ist s</w>
is ol
is ...
is !</w>
ir .</w>
intro du
ing ."</w>
inc h</w>
in vent
in te
in sur
in no
in iti
in es</w>
ill a</w>
idi ot
ici an.</w>
i es,</w>
i an.</w>
i --
hundre d</w>
hundre d
hu st
ho st
ham p
ha m</w>
h itch
h ann
h ag
gu in
grat ul
gra v
gra ci
gi ven
gi ft
gen i
g ill
g es</w>
g e?</w>
g all
g a</w>
fu ck</w>
fre e
fo cu
fiel d.</w>
fam il
f ound
f let
expl or
ex po
ever .</w>
ev id
es s?</w>
es --</w>
ent s.</w>
ent ...</w>
enc y.</w>
en 's</w>
ell a</w>
el y?</w>
el o
e ag
dis cre
dis cover
dis appe
diff ic
di et
destro y
des per
den i
def end
deb bi
de ton
d ill
d enn
ction s.</w>
cru sh
cour se
coun tr
cou ra
cou ple
corre ct
cor on
conven i
cont ac
conne ct
conf ir
con tain
con sequ
cock suck
ci gar
ch ron
ch anc
ch all
ce s.</w>
car ry
c un
c ouldn'
c o</w>
c er</w>
bon d
ble !</w>
bir th
ber t</w>
ben ef
becau se</w>
be aut
be ach
ball .</w>
b ed</w>
b ay
b ap
au di
au d
atta ck
at temp
at e...</w>
as sa
ari es</w>
ard !</w>
ar range
appro pri
ano ther
ama z
ak .</w>
ah ?</w>
ag n
ag gres
ag ed</w>
adv ant
ac count
absol ut
abil ity</w>
a int
? ...
9 8</w>
9 0
8 8</w>
7 -
19 8
19 7
19 3
.... i</w>
.... ?</w>
... are</w>
... -
.. ?</w>
-- they</w>
-- he</w>
' em
z ed
z an
you' re
you 've</w>
yo .</w>
y on
y :</w>
y 's.</w>
work .</w>
wor ri
wil der
what -
what 's</w>
well .</w>
wed d
war ran
wa s</w>
w- w-
w yn
w inter
w ing
w ick
w ?</w>
w ...</w>
vis u
vil le.</w>
vil le,</w>
vid u
vic tim
ve hic
val ent
v au
v ar
v a</w>
ut en
up ?</w>
un ion
u -
tri pp
tri gg
tri but
tra ff
to i
tion s,</w>
ti e.</w>
thu mb
this ...
thirt y</w>
thir te
th ru
th is</w>
th ...</w>
ter s?</w>
ter ...</w>
tele phon
tar get
t s?</w>
t ed.</w>
t e</w>
t ag
t act
swee the
supp ort
super i
sudd en
stu d
stre t
str ick
st un
st s.</w>
st ed.</w>
spe e
spac e</w>
sp er
son ...</w>
son !</w>
so li
smit h
sk inn
sk i.</w>
shoo t
shi ft
sheri ff
sh ouldn'
sh ore
sh av
sh -
sevent e
ser ge
sel f</w>
se ven</w>
se le
se ...
scu mb
scri pt
sci enti
sch u
sch ol
sand wi
sa ur
s y,</w>
s nu
s mugg
s itu
s ing.</w>
ru mor
ro s
ro of
ro d
ro ,</w>
ridic ul
ri bb
revol u
rest aur
re mark
re f
re cep
re ach
radi o
ra il
ra ck
ra ,</w>
r ou
r hy
r ation
qu ali
pu ff
pro po
pro ced
pre pa
possi bil
por tra
po ster
pleas e</w>
ph re
ph ili
per su
per forman
pen n
pe an
pe !</w>
p es</w>
p ...</w>
out h</w>
ou ra
one 's</w>
oh ...
off -
ob lig
o swal
o m</w>
ni ght</w>
neu ro
ne t</w>
ne ar
na vig
n ine</w>
n ed.</w>
n ath
n app
mu ch
mor t
mo ment
mm ing</w>
mm .</w>
mira cle
mil it
mi t</w>
me ...</w>
mag nific
ma xi
ma jest
ma ga
ma dam
m m</w>
m b</w>
m ali
look ,</w>
lo ck</w>
lo ?</w>
ll ll
lit er
lin e,</w>
lic en
li ver
li qu
li p
li es</w>
li br
le s!</w>
le agu
lat er
l y-
l ick
l enn
kin s</w>
kenn ed
ke y.</w>
ke ...</w>
k s,</w>
k ru
k ra
k night
k new
k k
k es.</w>
k ell
jo ck
jess ic
jam es
j enn
j acqu
j ack</w>
j .</w>
it ing</w>
ist ,</w>
is ra
is o
ir on
int ru
inst itu
ing ...?</w>
indi vidu
ind ul
inc id
in se
in ju
in i</w>
in e!</w>
impo ssi
ill ?</w>
il s.</w>
il la
ic ally,</w>
i 's</w>
hypo th
hou se.</w>
ho le.</w>
ho ff
head ,</w>
har ri
ha ve
ha i
ha ck
h ir
h art
gra ve
gra ce
gr un
gr ate
gol d
go .</w>
go ,</w>
gla s
gl en
girl friend
gi v
gg y</w>
g ren
g !</w>
ful l-
ful ?</w>
ful !</w>
ft er</w>
fright en
fre ed
franc is
for m</w>
fir st
fi ve.</w>
fac il
fac ed</w>
f ying</w>
f our</w>
f ood
ex ten
ex hi
ex clu
ex act
et t</w>
est i
est .</w>
es ;</w>
emer g
el le
el ...</w>
ed- up</w>
ed s</w>
e z</w>
e ve</w>
e qui
e per.</w>
e c
e ast
e ?!</w>
e ;</w>
e :</w>
don n
do ,</w>
dis pos
dire ct
di stra
di gn
de gre
day s</w>
day -
da vi
da ?</w>
d il
d ell
d edu
d add
cy c
cu t</w>
cru ci
cre ature
coun c
cor respon
cor ner
conf id
comp le
comp en
comp an
com ra
com ing</w>
col lap
co ordin
co n</w>
co ast
clu b
cli mb
cli ent
ch ed.</w>
ch as
c ous
c oul
c el
c ad
but ton
but t-
but ch
bull shit
bu mp
bro k
bri ght
br on
bod y's</w>
bo b
ble ?</w>
bl on
be en
be ck
be a
bar bar
bal lo
bal d
back .</w>
b ye
b ly</w>
b ani
auto mat
att er</w>
ator s.</w>
ath er.</w>
at tor
at s</w>
at ro
assass in
asle ep
as h</w>
ar t</w>
ar ro
ar rang
ar !</w>
ap plic
ap h
answ er
ani m
and re
an ge
am oun
am ?</w>
all ?</w>
al s?</w>
ag es</w>
ag es.</w>
aff e
aff air
ad ul
ad el
ach e.</w>
ab le!</w>
ab le
a vo
a is
a -</w>
? --</w>
? !?</w>
? 	
<u> you
< b>
7 9</w>
6 ,</w>
5 5
4 -
2 3
2 ,</w>
19 6
19 5
14 1</w>
10 7</w>
1 31</w>
1 29</w>
1 22</w>
1 14</w>
1 13</w>
1 11</w>
...i' ll</w>
... she</w>
. ,</w>
-- that's</w>
-- my</w>
-- i'm</w>
- h
,00 0
' 6
$ 3
" ...
yeah .</w>
y' d</w>
y p
y n</w>
y ing.</w>
y i
y et
y es.</w>
y ell
y ....</w>
x x
woo d</w>
wol f
wit hou
wi re
wi n</w>
what 's-
wh o</w>
we al
wait res
wa i
w ed</w>
w ad
vol un
vi n</w>
vi k
vi et
v y</w>
v et
v al,</w>
up stair
up se
univer s
un fortun
un ce
uh ...</w>
uh --
u hh
twel ve-
turn -
tro op
tran sport
tol er
toge ther
to ,</w>
ti l</w>
thi ef
the o
ter rit
tech nic
te ar
t ing
t e.</w>
t ay
t ane
t ;</w>
symp hon
syl v
swe at
sur ve
suff ici
sub ject
su mp
su ici
su ffer
stru gg
stop p
st on,</w>
st er,</w>
st and</w>
st ac
squ ee
spar k
sp read
sp id
sp her
sp ell
son s</w>
son -of-
soci et
so on
so f
so .</w>
sn app
six te
sinc er
sig nific
si mm
shot gun
sho t</w>
sho ck
shit -
shi p,</w>
sh out
sh ab
sh !</w>
sens iti
sen se
sen .</w>
secon d-
se y
se d...</w>
scumb ag
sch edu
sc out
sc or
sat ur
s ink
s er.</w>
s ?"</w>
s !!</w>
row .</w>
room ,</w>
roo m.</w>
ri fic
ri c</w>
reli gi
rel ati
recor d
re stra
re se
re main
re le
re i
re hear
re fer
re d?</w>
re cru
re al</w>
r y's</w>
r ate</w>
qu itt
qu ad
proble m
pro vok
pro stitut
pro mis
pro je
pro bab
pre fer
pra i
pr ou
pr ic
pol y
pois on
po k
po int</w>
plan et
pla y</w>
pi mp
ph y
ph ra
ph en
ph a
per cep
pen et
pean ut
pe s.</w>
pe n</w>
partic ular
pap er
p y</w>
p age
ous ly.</w>
oun ded</w>
or t</w>
on ly
olog ical</w>
oh .</w>
occu pi
ob ses
ob ject
o' ne
o w</w>
o t.</w>
o s,</w>
o me
o ber
nu mb
nor mal
ninet y-
ni e
new s
nes s...</w>
ner v
ne y
ne w</w>
ne ut
ne ck
nar c
n ing,</w>
n er,</w>
n er's</w>
n anc
n ak
n .
n !</w>
mu sket
mu se
mu ff
mor ph
mon ster
mon key
mon e
mo del
mo bil
mm y</w>
mm ed</w>
mir ror
min ded</w>
met e
mer s.</w>
mb led</w>
mar cu
mar ci
mani pul
mani fe
man -
ma id
ma ...</w>
ma '
ma !</w>
m ook
m mer</w>
m atic</w>
lo vel
list en,</w>
lin k
lin d
light ,</w>
lif e</w>
lie uten
li e.</w>
let s.</w>
lan tern
lan gu
la sh
la n</w>
la !</w>
l ut
l loy
l ing?</w>
kin d</w>
ke t</w>
k s?</w>
k ry
k rist
k re
k or
k el
k a.</w>
jose ph
itu de</w>
it y!</w>
it ch</w>
is land
is ion
inter rup
inter rog
inter pre
inter n
inte gr
in visi
in spir
in sight
in qu
in ed.</w>
in ...
immedi at
ill ing</w>
il y.</w>
il ...</w>
ick ,</w>
ic or
hu mp
hu mor
hoo d</w>
ho ck
ho bb
hi de
head ?</w>
he y,</w>
hal f</w>
ha v
h ick
h et
h ank
gu es
gra vit
go d-
go ?</w>
gla d
gl ori
gi ve</w>
gi ve
gi n</w>
gi e,</w>
gg in'</w>
ger man
gentle men
gard en
ga r</w>
g at
g ast
g an,</w>
g ad
g ...</w>
g 's</w>
ft ?</w>
fri ed
fran ki
four te
for d.</w>
foo t</w>
flo or
fir st</w>
fift y.</w>
fiel d,</w>
fi ve
fi es</w>
fi ed,</w>
fas cin
fant as
fa re
f loo
f id
experi enc
ex tre
ev ent
eter n
et s,</w>
es om
es :</w>
er s'</w>
engl ish
end s</w>
ence !</w>
en a</w>
embarra ss
el s,</w>
el er
edu c
ear li
e z.</w>
e w</w>
e pi
e ither
e ...?</w>
e ....</w>
dro pp
dor oth
dol lar</w>
do z
do y
do --
dis cus
dire ctor
di an
del ic
dec ision
de vic
de ta
de p
de 's</w>
dar ling
dad dy
d ur
d ing
cy n
cti ve.</w>
conf identi
conf es
con vinc
con serv
con gratul
comp as
commis sion
co stu
co ffe
co ,</w>
cli ff
cla ssi
cla s
cl er
circum st
cho col
chic ag
chee se
cham pi
cham ber
chall eng
ch oo
ch ill
ch ast
ch art
ch -
ce met
cath ol
cas in
car ol
can '
cal cul
ca r</w>
ca .</w>
c ze
c ent</w>
c att
bu ri
bri dge
bre ast
bra ck
bot to
blu e-
ble ed
ble ...</w>
bi gg
bi g-
ber t.</w>
bel ong
be ver
be l</w>
be am
batt le
b y?</w>
b ound
b ></w>
aw ak
au stri
ation s?</w>
ath ,</w>
at es,</w>
at e!</w>
ard s</w>
ard s.</w>
ard 's</w>
ar m</w>
ap pre
any th
ant s.</w>
ant ly</w>
ann ab
an xi
an s?</w>
all ,</w>
al tern
al read
al fre
al 's</w>
ag ger
ag es,</w>
ag ent
ag e!</w>
af ric
ad ?</w>
acqu aint
ac tion
ac comp
a zz
a way</w>
a venu
a p</w>
<u> what
</u> ?!</w>
</u> ...
9 6</w>
6 .
4 5
4 ,</w>
3 5
16 7</w>
10 5</w>
10 2</w>
1 19</w>
1 16</w>
1 -
00 ,</w>
...what 's</w>
...wh er
...wh en</w>
...i' d</w>
... that's</w>
... don't</w>
-------- --------
-- just</w>
-- he's</w>
-- -
- a-
& g
! '</w>
zz i
z y
z on
z es</w>
z e?</w>
z !</w>
yo -
ye ar</w>
x -
x !</w>
woo d.</w>
withou t</w>
wil l</w>
wi se
wi g
what ever
what ...
wh ite
wh ale
wed nes
was ...
ward s</w>
war ri
war e</w>
w s</w>
w ink
w art
vul ner
volun te
vo ic
vi vi
veron ic
ver s.</w>
ver b
ven ge
v y.</w>
v ell
v al.</w>
ure ...</w>
ure !</w>
uni form
un believ
un -
ul t.</w>
ul t,</w>
uh- hu
u se</w>
u s...</w>
u ra
u mm
u lar</w>
u d
tw ist
tun n
tri u
tran quil
tra mp
tr un
tor ped
ton gu
to x
tion al</w>
time -
time ,</w>
ti s</w>
ti s.</w>
thor wal
thor ough
ther s</w>
ther e...
the or
the ir
th under
th ank</w>
ter ra
ter ing</w>
ter es
temp or
tele gra
tech no
tech ni
ta ste
ta ck
t- t-
t le</w>
t an
symp at
sylv ani
sweethe art
sur ger
sur ge
supp li
super -
suit ca
sub st
su zi
su it</w>
stu bb
stre am
stat u
sta y</w>
st y.</w>
st ic.</w>
st er?</w>
st ain
st abil
st ab
speci fic
spe ct</w>
sp r
sp len
sp in
sp ic
sou th
son-of- a-
some wher
sol u
so r</w>
sni ff
ske let
sk at
sil ver
si vely</w>
si ve?</w>
si ble</w>
short -
sho vel
shit .</w>
shi p?</w>
she il
sh ri
sh re
sey mour
sen i
self ,</w>
secon d</w>
se d!</w>
se cut
se am
se a
se --</w>
sch ul
sch iz
scen ari
sc atter
sc an
sc al
sac rific
sab ot
sa y</w>
sa fe
s mil
s me
s lic
s is
s i</w>
s ,"</w>
s ".</w>
ru s
roth ste
room ?</w>
rob in
ro me
ro ach
ric k</w>
ri ple
ri f
res our
ren .</w>
rele ase
re view
re tri
re si
re scu
re produ
re pres
re plic
re mo
re fri
re au
ra y</w>
ra oul
ra ch
r ul
qu it
qu inc
qu e.</w>
qu art
pup pet
pu zz
pu s
psycho log
psychiat rist
prote ct
pro of
pro ceed
pri m
predic t
pre tend
pre mi
pre co
pr itch
por no
pol ice
pla u
pla ce</w>
pi stol
pi gg
phys ic
phre ak
ph one</w>
ph i
per si
pat ch
pas sport
paras it
par ti
par o
par ad
pac ific
p- p-
p t</w>
p enc
p am
ox y
own .</w>
out side
ou gh</w>
ou ch
or t.</w>
or g
oper ation
op i
ol d.</w>
okay ...
off er
ob ser
o s?</w>
o l</w>
o dd
o ct
nur se
nor m
nn nn
ni e?</w>
na z
n' t.</w>
n y?</w>
n ing.</w>
n et
n ag
mu sh
mr .</w>
morn ing
mon u
mo bi
mo ?</w>
mis sion.</w>
milli on
mil k
mi ster
mer ci
mer ch
ment 's</w>
mean ing
me s.</w>
me --
me !</w>
mck in
mc ca
mb o</w>
mat the
mat ter
mat ri
marri ed
mar vel
mar qu
mar k</w>
man eu
m y.</w>
m s
m on.</w>
m er.</w>
m -</w>
ly di
lu x
lu go
lou i
lo op
lo bb
lin ,</w>
light en
li zz
li s</w>
li gh
li e</w>
li c</w>
let ter
les s...</w>
le y...</w>
le w
le t.</w>
le gi
le ak
le --</w>
lau ri
la st</w>
la gh
la bor
l o</w>
l illi
l er
l ...</w>
ko vi
know --
kin s.</w>
kid napp
ke at
k op
k ling
k h
ju sti
jo si
jo int
jo ann
jer k
je op
je ez
je an-
j uni
j ag
j a</w>
itu de.</w>
itt in'</w>
itch .</w>
ish ed,</w>
is si
is --
ing ....</w>
ing '</w>
ing "</w>
indu stri
inde pend
incre di
in ste
in spi
in flu
in e...</w>
ign or
ig n</w>
id s.</w>
ick ?</w>
ici p
ici an</w>
ic ...</w>
ic -
i' ll
i ans.</w>
i an</w>
hypo crit
hy per
hun t
hun gr
how 's</w>
hou r</w>
hospit al
hor mon
hoo d.</w>
hol ly
hi s</w>
her ...
her ,</w>
heal th
head ach
head !</w>
hea ded</w>
he tic</w>
he at
he 'll</w>
hap pin
ha z
ha s</w>
h ink
h ild
h er</w>
h a</w>
gro om
gra de</w>
gra d
get .</w>
ger 's</w>
ge st
ge ograph
gard in
gam bl
g ed.</w>
g ather
g art
fun ny
ful ly.</w>
ful ...</w>
fro z
fri end</w>
fren ch
fre der
fre dd
frank en
for d,</w>
flet ch
fl ic
finger print
fift y</w>
fe ma
fe ar
favor it
fant ast
fac e.</w>
f ell
f bi
f ?</w>
f .
eye ball
exhi b
ex plan
ex ped
ex chang
ex agger
ever '
ev el
et y</w>
es pe
es o
es ...?</w>
er y,</w>
ep iso
enter pri
ent h</w>
eng age
enc oura
en vir
en ni
emp lo
emp er
eli min
el s?</w>
ef ore
ed er
ed --
e pp
e m.</w>
e k.</w>
dri v
dra g
don ut
dol ph
do m.</w>
do ?</w>
dis h
dis cip
din o
did n't
di zz
di stri
di men
di gg
di am
di ag
diag no
der s.</w>
del ay
dec id
de termin
de tail
de pos
de mol
de e
dam mit
da m</w>
da 's</w>
d way
d ough
d ool
d on.</w>
d le</w>
d enti
d en.</w>
cyn thi
cy cle
cu ff
ct ?</w>
cru mb
cro ok
cri pp
cra mp
cra ft
cour t
coun try
cou ri
con temp
con cei
compu ter
comp romi
comp os
comp o
comb in
col d-
co smo
co incid
co de
co ca
co bb
clau di
cla y
ck 's</w>
civil iz
chu ck
che ck</w>
che at
cha unce
ch att
ce c
cau se</w>
cat her
car n
car di
cap ture
can did
ca es
c y.</w>
c low
c lin
c it
c c
bur g</w>
bul jan
bu s</w>
bu s
bu m
bre ed
bra z
bo ,</w>
blu ff
bla ck</w>
bir d</w>
bi e</w>
bi -
ben edic
be gg
bar ra
ba i
b s.</w>
b ic
b es</w>
att en
ath .</w>
at ure</w>
at ure.</w>
at es?</w>
as pir
arch ite
ar di
ar a</w>
any thing</w>
anch or
ance !</w>
an ony
an no
an ne
an arch
an a,</w>
am in
am bul
am ate
ali z
alco hol
al u
al ing</w>
al er
al bani
ah hh
ag e...</w>
after no
af .</w>
ad vis
ad ri
ad mi
acc eler
ac tor
ac t.</w>
ac e</w>
ac cus
ac cor
a way.</w>
a ver
a un
a ster
a sed</w>
a qu
</ b></w>
8 0
4 :
30 .</w>
2 7
2 -
1 12</w>
1 10</w>
...wh o</w>
.... ..
... so</w>
... or</w>
-- we</w>
-- even</w>
- f
* ?</w>
' b
&quot ;</w>
" un
" k
" de
! ?!</w>
! --
zz zz
zo mb
z z</w>
z ero
your sel
your ...
yes --
yel low
y- do
y' know
y ot
y o</w>
y es,</w>
y ak
y .'</w>
y 'll</w>
y ".</w>
x ...</w>
wr itt
wouldn' t
work ?</w>
wor th.</w>
wor shi
won 't
won '
wi se.</w>
what ?</w>
wh om
wer ew
werew ol
wer e</w>
week end
we ep
we bb
we 'll</w>
way ?</w>
ward ?</w>
wa r</w>
wa it</w>
w ron
w re
w ise</w>
w ire</w>
w ing</w>
w et
w est</w>
w an
w .
w !</w>
vit am
vi ew</w>
vi br
ven .</w>
ve 's</w>
vau gh
v ow
v om
v ent</w>
v agu
v ...</w>
v -
ut e</w>
ure s.</w>
ur ,</w>
up !</w>
under stoo
un usu
um -
u ph
ty pic
ty pe</w>
tur n</w>
tu res
tu es
tt ed</w>
tri p
trans mit
tr y</w>
tou rist
tor ran
ton !</w>
to p</w>
to mb
to b
tion s?</w>
ti ppi
tippi -
ti e,</w>
thro at
thr ill
thirt y.</w>
thing s</w>
thi ev
the ...
that s</w>
th ra
th el
th 's</w>
th !</w>
terror ist
ter y</w>
ter i
ten ti
temp t
techni qu
te m</w>
te l</w>
te en
te ...</w>
ta in.</w>
ta ...</w>
t z.</w>
t y,</w>
t y!</w>
t s!</w>
t ink
t il
t at
t ali
symp to
sy mb
symb ol
swe ep
swe ar
sw ing
sw ay
sw am
sw allow
sur ren
suc ces
su si
su pper
str ali
ston e.</w>
ste ward
ste ak
star fle
stan wy
st on.</w>
st a</w>
ss ing</w>
spon tane
spir it
spect ac
speci ali
spe cul
spac e
spa gh
sp lic
sp ank
son of
some bod
so le
so ap
so -
so ,</w>
smar t
sl ut
sk y.</w>
sion al</w>
si ve...</w>
si c</w>
shit !</w>
shi t</w>
shad ow
sh ru
sh rink
sh ed.</w>
sh ?</w>
seven .</w>
sen sor
self .</w>
secre tar
secre t
se l</w>
se iz
se ek
sco op
schol ar
schiz o
sch oo
sc rap
sc ann
satis fac
sat ell
sa w</w>
sa int
sa id</w>
sa avi
sa ?</w>
s... "</w>
s nor
s na
s ity</w>
s end
s al</w>
s add
s </u>,</w>
s '.</w>
ru n</w>
row ,</w>
roman t
ro le
rit u
right ,</w>
ric h</w>
ri dge</w>
ri .</w>
res s.</w>
ren t
reme mb
refri ger
reall y
re yn
re y</w>
re vel
re search
re s?</w>
re r</w>
re pul
re pa
re mot
re min
re gar
re fin
re d!</w>
ran ge</w>
ra y.</w>
ra v
ra !</w>
r r
r d</w>
r att
qui et
qu int
qu ant
qu al
qu ak
pun ch
pu ss
pu dd
prof ess
produ c
pro vi
pro spect
pro fi
pro cess
prin cip
prin ci
pri est
presid ent
pre par
pre ced
pre cau
pow er</w>
pos sessi
pos iti
po se</w>
po ck
plu mb
pleas ant
pla gu
pla c
pl ut
pl ent
pil low
pil gri
pic tures
pi e</w>
ph ar
per mit
per man
per ?</w>
pear l
pe gg
pe ach
pat tern
pat ho
pas sion
par ag
pal m
pa in
p si
p ran
p le.</w>
p h</w>
p add
p 's</w>
own ,</w>
out f
out -
ou tra
ot s</w>
ot ch
organ iz
ore s</w>
or y.</w>
or ph
or ang
opin ion
oooo oo
one ...
on s...</w>
on ce</w>
om et
ol d-
ok la
okla ho
ok e</w>
oh --
off ?</w>
off ,</w>
of ...
oc cur
ob sessi
o- o-
nu mer
nu ck
now --
not ...
no r</w>
nin otch
nin e.</w>
nin e-
nick nam
ni x
ni pp
ni e...</w>
nes s?</w>
nes i
ne y?</w>
ne y,</w>
ne y!</w>
ne ver</w>
ne st
ne l</w>
ne gro
ne at
na il
n' t,</w>
n ul
n oo
n ol
n ett
n an
myster i
my th
musket e
mul ti
mu sc
mu dd
mon t</w>
mo sexu
mo re.</w>
mm e</w>
miss issi
mis understand
mis sou
mis sion</w>
minut es
micro sco
mi gr
mete or
mer r
ment s?</w>
men ?</w>
med it
me mber
me mb
mc murph
mc co
mb le</w>
mat .</w>
marri ed</w>
mar y</w>
mar y
manu fac
man t
man ner
man n</w>
mal col
ma s</w>
ma m
ma ke</w>
ma jo
ma fi
ma de</w>
ma de
m y,</w>
m outh</w>
m ood
m ing.</w>
m es,</w>
m all
lugo si
loy al
lon g</w>
lon g-
lon el
lo r</w>
lo n</w>
lo cat
lin es</w>
lin col
light ?</w>
li vel
li ve
li sten</w>
li mb
lett e</w>
les bi
lear n
le e</w>
le e
le d...</w>
le -</w>
lau ren
land 's</w>
lamp er
la z
la ure
la st
la s</w>
la ce</w>
la 's</w>
l. a.
l t;
l oun
l le
l in'</w>
l ill
l ers</w>
l 's</w>
know -
kni f
kin s,</w>
kil la
kid --
ki e,</w>
ke y,</w>
ke eper
kath ar
kan sa
k ob
k itch
k in</w>
k ers</w>
k ap
jun g
ju d
journ ali
jo e
jo b</w>
jer se
jell y
je ffer
j ay
iz on
iz ing</w>
ity ."</w>
itt er</w>
itor s</w>
ition s</w>
ith er</w>
it ori
it or</w>
it h</w>
it ari
it al
it 'll</w>
ist ic
ist ?</w>
is s
inti mat
inter rupt
intelli gent
int u
int ri
inno cent
ing u
ing :</w>
inc lin
in to
in her
in hab
in forman
in es.</w>
imp ul
imm i
il y,</w>
id s?</w>
ic s?</w>
i. d.
i' d</w>
i mit
i es?</w>
i e...</w>
i al</w>
hypoth et
hypno ti
ho stag
ho p</w>
ho mosexu
hi ppi
heart ed</w>
head quar
he mat
he i
har ve
har v
hand ed.</w>
hamp shi
ham il
ham .</w>
ham ,</w>
ha ul
ha !</w>
h int
h and</w>
guar di
gu ys
gu s</w>
gu n</w>
gu ine
gu i
gri ev
grand father
gra s
gr ound</w>
gover nor
gon na
go- go-
go d</w>
go d,</w>
gir l</w>
gi e?</w>
gi b
gh .</w>
gh !</w>
gg ed.</w>
ger s,</w>
g s?</w>
g rown
g itt
g er,</w>
g an.</w>
fun d
fuck ing-
fu ri
fru it
freed om
fre e-
franken ste
fran ci
fra u
fra ct
four .</w>
form ed</w>
fo x
fly nn
fla emm
fin ish
fin d
fifte en-
fed er
fe sti
fe ed
fe ather
fa u
fa i
f ou
f all</w>
ey ed</w>
exam in
ex hau
ev il
ev acu
et t?</w>
et t.</w>
esti mat
es s!</w>
es cor
es --
er man</w>
er ;</w>
envir on
enjo y
eng ag
ene mi
end ed.</w>
enc es,</w>
en quir
en em
en a.</w>
en a,</w>
elect ron
ele ph
el le.</w>
el iz
eight .</w>
eigh te
eg yp
ee ee
ed di
ed ?!</w>
e... !</w>
e min
e led</w>
e go
du ff
du d
down ,</w>
dool itt
don e</w>
do m</w>
disgu st
dis cu
dis clo
din ner
differ ent
diam on
di v
di es</w>
di dd
di .</w>
descri p
del ight
de v
de u
de ed
de co
da !</w>
d' art
d'art agn
d art
d ag
cy clo
cy ber
custo mer
ction ...</w>
cro co
cr ou
cour se</w>
cor rup
cor ri
cont ro
cont amin
const itu
const ant
conf ron
conf ession
conf er
con spi
con flic
con de
con d
con ?</w>
commo d
com e.</w>
col lar
col d
co s
co pi
co min
co man
co con
cle ment
cle men
cl ut
cho ir
cho ic
char li
ch un
ch o</w>
ch ant
cere mon
cent ur
ce ci
cau ght
casu al
cas e</w>
car to
car ro
car pent
can 't</w>
cam pu
cam pa
cal led
cal l</w>
cab in
ca se.</w>
ca it
ca de
ca ?</w>
ca ,</w>
c y,</w>
c run
c rown
c ic
by e.</w>
by e,</w>
but t
bur g.</w>
bul let
buck ar
bu reau
bu g
bu bb
bru i
bro ther</w>
bro o
break fast
bra w
br illi
boy friend
book store
book .</w>
boo k</w>
bon e</w>
body guard
bo ys
bo y?</w>
bo ther
bo ss
bo s
bo il
blin d
bis cu
bi o
bet ter
bet ray
ber ry</w>
ber g</w>
ben jam
be st
be s.</w>
be fore</w>
be ast
bb y</w>
bask et
base ball
barn hard
bar ry
bar rel
bar ga
ban an
bag .</w>
ba sti
ba r</w>
ba n</w>
ba g</w>
ba chel
ba ?</w>
b ound</w>
b les
b ing</w>
b ing
b e?</w>
b e,</w>
b ann
b a.</w>
b ...</w>
b !</w>
avo id
av ail
au strali
au gu
au g
au f
au dition
ation ;</w>
ation 's</w>
ati ve?</w>
at om
at ely.</w>
at ed!</w>
ar y...</w>
ar y!</w>
ar thur
ar t.</w>
ar 's</w>
appro ach
any how
anth on
ant 's</w>
anni ver
ann u
ank .</w>
anest hes
and ?</w>
and .</w>
ance s.</w>
an s!</w>
an o.</w>
an e</w>
an e.</w>
an ci
amb ass
almo st</w>
ali ze</w>
ali en
al ong
al on
al lo
al ar
al am
air port
ah ...</w>
ag li
aff or
af ra
ad vic
ad s</w>
ad op
ad mitt
ad minist
ack now
ach ie
ach e</w>
accomp l
ac t</w>
ac cur
ac cent
ac ade
ab sur
ab or
aaaaaaaa aaaaaaaa
a y</w>
a whi
a se.</w>
a led</w>
a i</w>
a head
a fter</w>
a ded</w>
a de.</w>
a ."</w>
a '
<u> he
<u> do
9 ,</w>
3 4
2 4
2 35</w>
19 8</w>
16 6</w>
16 5</w>
15 0</w>
10 9</w>
10 6</w>
1 33</w>
1 25</w>
1 20</w>
1 .</w>
1 .
...wh y?</w>
...wh y</w>
...wh ere</w>
...no w</w>
...no ,</w>
... well,</w>
... they</w>
... no</w>
... in</w>
... how</w>
... get</w>
... ?!</w>
.. the</w>
-- when</w>
-- on</w>
-- it</w>
-- "</w>
- out</w>
- out.</w>
,00 0.</w>
' no
' be
' 7
' 5
& lt;
$ 2
. i
. s
z el
z am
z a?</w>
yeah ...
yard s</w>
y' s?</w>
y lu
y l</w>
y l
y ho
y es</w>
y er</w>
y an
yan ke
y ach
y ;</w>
y ."</w>
y '</w>
wr ink
woul d</w>
work ing
wor th</w>
wor ms</w>
wor m</w>
wor d</w>
wood s
woo d,</w>
with dra
win n
wil low
wil hel
wid ow
wi gg
what '
wh ich</w>
wh ew
wh el
wh ad
wh -
well ...</w>
we ster
we a
we 've</w>
way s</w>
wal ter
wal ki
wa st
wa re
wa n</w>
w ur
w ool
w la
wla de
w int
w ide</w>
w ann
w ak
vul can
vo y
vo d
visi on</w>
visi on.</w>
vis ,</w>
vir g
vin ci
vik tor
victor i
vic h</w>
vic e-
vice- presid
vi s</w>
vi l</w>
vi a</w>
ves sel
ver 's</w>
ve ment</w>
val id
v o</w>
v in,</w>
v eter
v ed?</w>
v as
v ander
v ak
v '
ut il
ur ing</w>
uni for
under st
underst ood
un til</w>
un st
un icor
un happ
un dres
un consci
un .</w>
um ...</w>
um !</w>
uh .</w>
u u
u t</w>
u ral</w>
u r</w>
u ke
u hu
u h</w>
u ght
ty ran
two mb
tw o...</w>
tw n
turn ed</w>
ture .</w>
tru st
tro oper
tri bu
tri -
tre ad
trans vest
trans l
tranquil iz
tran spor
tra um
tra dition
tra d
tr ul
tr in
tr il
town ?</w>
town ,</w>
ton ...</w>
to t
to p-
to k
to dd
tion ...</w>
tim et
ti n</w>
ti es?</w>
ti e?</w>
thre e,</w>
thirt y,</w>
ther efore
th ink</w>
tes si
ter ed</w>
te eth
te as
tal ent
ta r</w>
ta n</w>
ta int
ta ?</w>
t v
t ch
t ation</w>
t app
t ann
syn dic
sympat hi
sw it
swit zer
survi vor
surve ill
sur round
super st
super her
suff o
suffo cat
sub t
su t
su s
su it.</w>
su bur
stu dent
stra w
ston e?</w>
ston 's</w>
sto ma
ster 's</w>
steph ani
ste am
st s,</w>
st ranger
st ir
st il
st el
st ati
squ e
spon sor
speci al
spe ed</w>
spagh etti
sp re
sp he
sp enc
soph istic
son-of-a- bitch
son u
son ny
sometime s</w>
some how
some ,</w>
so med
so ck
slu gg
slo vak
sle a
sla ughter
ski pper
sket ch
sk y,</w>
sk ir
sk ill
six .</w>
sion s,</w>
sign ature
side ,</w>
si t</w>
si ber
shu t</w>
shu ff
shoo t</w>
sho t.</w>
shel dra
she ep
shan gh
sh or
sh es</w>
sh ell</w>
sen ?</w>
self ?</w>
self !</w>
sel y.</w>
sel l</w>
se t</w>
se t.</w>
se s!</w>
se mp
se lin
se ag
scul p
sco ob
sc oun
scoun dre
sc ap
sc and
sc am
saunder s--
sand er
sam ple
salv at
sa us
sa 's</w>
s... and</w>
s-- i</w>
s so
s mal
s ite</w>
s ill
s er,</w>
s ap
s </u>.</w>
s </u>...</w>
s ...i</w>
s 'll</w>
ru iz
ru dol
rose bu
ro tt
ro one
ro ok
ro c
ris k
right .</w>
right -
rick .</w>
ri s</w>
ri es.</w>
ri er.</w>
ri ...</w>
revolu tion
retri ev
restra int
res s?</w>
res ol
res ent
reg ular
re x
re ward
re vi
re v
re su
re put
re pair
re n</w>
re ll
re k
re ill
re fresh
re du
re cre
ray mon
ra z
ra sc
ra pi
ra mb
ra is
ra ci
ra chel
ra 's</w>
r ound</w>
r ho
r hin
r ation</w>
qu a
pus sy
pur cha
pun ish
psy chop
prof it
pro vid
pro secut
pro mot
pro mo
pri vi
pri or
pre ys
pre vent
pre su
pre ser
pre ju
preju dic
pre f
pre d
pr on
pp ing.</w>
pot ato
post -
porno graph
por t</w>
polit ici
pol lu
po tenti
po li
plea se,</w>
pil ot</w>
pi t</w>
pi one
philli p
phen om
ph er
per spe
per ,</w>
penn sylvani
pen it
pen gu
peace ful
pe ek
pe ...</w>
pati ent
pat ter
pat ron
pat rol
par t</w>
par alle
pant yho
pant s</w>
pan ther
pa w
p te
p t.</w>
p o</w>
p itt
p g
p es
p ed.</w>
p anti
p anc
p ak
own ed</w>
ow it
ow ,</w>
over whel
over se
over ,</w>
out bur
out ...
our sel
oun ce</w>
organ is
or d
or chest
or al</w>
op ti
op pos
op ol
oo op
oo .</w>
on ed</w>
on --</w>
ologi st.</w>
oh !</w>
of- the-
of -</w>
occu p
o' clo
o tic</w>
o sk
o p</w>
o mi
o le
o dor
o be
ny mp
nu mber</w>
now ,</w>
non sen
no ti
no str
no se
no min
no ma
no body</w>
night ,</w>
nic e
ni k
ni ch
neut r
nes s!</w>
ne y's</w>
nau se
nau ght
nat ure
nat ali
n' t?</w>
n' t...</w>
n ood
n ir
n ers</w>
n er?</w>
n as
n apo
napo le
n ad
n a?</w>
n a.</w>
n a,</w>
must ang
mun d
mul wra
mul tip
mu ham
mr .
mp ed</w>
mou th.</w>
moti v
motherfuck er
mor tal
mor phe
mor gu
mon ic
mo st</w>
mo st
mo ss
mo sco
mo s
mo r</w>
mo di
mm y.</w>
mm y,</w>
mississi ppi
minut e</w>
min or
min i-
midd le-
mi st.</w>
mi che
mi ch
mi -
metap hor
ment s...</w>
men tion
mel ani
mean ...
me -
me 's</w>
mat ic.</w>
mast urb
mas sa
mar vo
mar ry
mar gare
mar an
man ...</w>
mal kovi
mak er</w>
main fra
maga z
mach ine
ma yo
ma s.</w>
ma gi
ma dri
ma demo
mademo i
mademoi sel
ma -
ma 's</w>
m ow
m er,</w>
m ...
ly ing</w>
lun at
lu gg
loy alt
lou d
look ing.</w>
loo k</w>
lo we
lo ve</w>
lo ve-
lo ser
lo ck.</w>
litt le</w>
lin '.</w>
life sty
life -
lif t.</w>
lif es
lif e.</w>
li es.</w>
li ar
let on</w>
les son
les s?</w>
le vel</w>
le mon
le i
le ffer
le d-
le d!</w>
le ck
le ch
le c
le ap
le ?!</w>
le ;</w>
land s.</w>
lan e.</w>
la val
l ul
l s.</w>
l s
l ers.</w>
l ate
kop al
kno w</w>
kir st
ki .</w>
ke eper.</w>
ka y.</w>
k lut
k ink
k ing.</w>
k ing,</w>
k in.</w>
k i</w>
k et
k es,</w>
k end
k .
ju ic
ju dge
ju da
journ al
jo sh
ji gg
jes us!</w>
jen ni
jeal ous
jacqu el
jack ?</w>
jack -
ja w
ja co
j ol
j ani
j ac
ity "</w>
iti ve</w>
iti on?</w>
iti es?</w>
itch !</w>
it y's</w>
it o</w>
it al</w>
it a</w>
it 's...
is s.</w>
is on</w>
is m?</w>
is ab
intelli g
int el
inst all
ing ;</w>
ing -</w>
inf eri
indic t
in ven
in va
in test
in spect
in som
in s?</w>
in s
in je
in fra
in fir
in fil
in ess</w>
in ess.</w>
in er
in conveni
in compet
in car
in -</w>
impres sion
imper son
imp lic
immediat el
imm un
imm ort
im be
ide a
id es,</w>
id !</w>
ici ous</w>
ic s...</w>
ic op
ic ally.</w>
ic al?</w>
ic al...</w>
i- i</w>
i' m-
i ow
i on</w>
i e!</w>
i ac
hu mm
hu mb
hu h.</w>
how 'd</w>
hor iz
hoo d,</w>
honey mo
hom ici
ho mer
ho -
hmm m.</w>
hmm .</w>
his -nam
hi stori
hi p
hi bit
hi ,</w>
her e?</w>
her e--
hel p</w>
hel l</w>
hel icop
head s</w>
he mor
he mo
he ming
he in
he ight
he ath
he '
haven '
har ris
har ol
har mon
har m
har ass
hap pi
hand ic
hand -
ham burg
hal de
hair dres
ha n</w>
ha d</w>
ha ,</w>
h r
h ound
h ill</w>
gy mn
gu ess</w>
gro cer
gre et
gra mp
gor ge
gor don
goo d.</w>
gon dor
god father
go !</w>
gli mp
gi gg
get -
geor gi
gent .</w>
gen es
ge e</w>
gar ris
ga zz
g low
g le
g it
g illi
g ate</w>
g ate
g '
fur twn
fur ther
fur nit
fur n
fu g
fro m
fri end.</w>
fred di
fre qu
fore ign
for sak
for ni
for mal
for gott
for given
for d?</w>
for d's</w>
for c
for bid
for -
fool ish
flor id
fl un
fl ick
fis her
fin e.</w>
fil i
fifte en</w>
fic ation</w>
fi ve?</w>
fi gur
fi g
fi ed?</w>
fi c</w>
fer ri
fe min
fav our
fas t</w>
fant asi
fag go
fac t
fac e
fa ult
fa ul
f- 14
f ici
f ay
ey es
ey el
extra ordin
exe cut
exc ite
exam ple
ex tr
ex tor
ex press
ex or
ex erci
evid ence
every body</w>
every bod
event u
eu gen
ett e,</w>
ett 's</w>
et t,</w>
establ ish
es ses</w>
es ...
es ."</w>
er n
er e
er ase
er --
er "</w>
equi p
ener gi
end s.</w>
enc y?</w>
enc y,</w>
enc oun
en velop
en s,</w>
en ri
en lighten
en lar
en ing</w>
en h
en force
en do
en ded</w>
en ci
en -</w>
emplo ye
emp i
emb ar
ell e</w>
ell 's</w>
elect ric
el op
el lo.</w>
el led</w>
el le?</w>
ed y</w>
ed o
ed ;</w>
ed ....</w>
ed ."</w>
ed --</w>
ed "</w>
eas y</w>
earth quak
e... '</w>
e y?</w>
e ti
e m,</w>
e co
e ck
e cho
e bu
e asi
e ar</w>
e ach
e 'll</w>
e 	
dumb -
du st
du ches
dru m
dru g
dri ve</w>
dri ft
dra gon
dra cu
down stair
do me
do es</w>
do dg
do ck
distri but
dist ingu
disgu i
disappe are
dis rup
dis respect
dis pen
dis orient
dis order
dis bar
dis agre
dire ction
dino saur
dic t
di ge
di es.</w>
di ab
dg es</w>
des ser
des mon
des i
der s,</w>
der 's</w>
demon str
demo crat
deli ber
del l</w>
del inqu
dec isi
dec ad
de we
de vo
de cre
de cla
de ck
de ca
de a
da ugh
da h
d war
d mit
d le.</w>
d i</w>
d es,</w>
d ent</w>
d ...
cze cho
czecho slovak
ctor 's</w>
ction s,</w>
ction !</w>
cry st
cru i
cre w
cre as
craz y
cra i
counter fe
counc il
coun tri
cor p
contra dic
consu el
conspi rac
concent rat
con vent
con tr
con sist
con ra
con qu
con ni
con cre
con cep
compla in
compen s
comp re
comp ar
comp any
comm on
come ?</w>
com edi
colle agu
col lin
col leg
coff ee
cocon ut
cock roach
co ver</w>
co op
co m</w>
co ch
co at</w>
co ?</w>
co 's</w>
clou d
cle vel
cla w
cl ick
cir cul
cir cle
cir c
chi ef</w>
che wi
che n</w>
che mic
che er
che ek
charac ter
char g
chanc ell
chan ge
cham pag
ch ut
ch lor
ch ine
ch ed,</w>
ch e</w>
ce l</w>
ce il
cau ti
car pet
car ni
can o
campa ign
cali forni
ca vi
ca val
ca l</w>
c' mon
c ron
c ine
c inc
c ed,</w>
c ant
c actu
c ?</w>
but cher
bur n,</w>
build ing</w>
bud get
bu sy
bu gg
bri de
break fa
bra d
bra ce
br y
bou lev
bor row
bor n</w>
book ?</w>
board !</w>
bo x.</w>
bo w</w>
bo .</w>
bloo ded</w>
blo om
bla sphe
bir ds</w>
bir di
bil ity</w>
bi t</w>
bi olog
bi n</w>
bi d</w>
ber t?</w>
ber ser
beli ef
bee tho
be et
be ep
be ef
be -
bble d</w>
bath room
basket ball
bar bi
bar bat
bap ti
bald win
back s</w>
bab y-
ba x
b- b-
b y-
b s,</w>
b ind
b er.</w>
b end
b en,</w>
b ed.</w>
b be
b and</w>
aut ograph
aut o-
au st
au dre
attra cti
att itu
ator ?</w>
ati ves</w>
at s.</w>
at lant
at ing,</w>
at 's</w>
ast ro
ast asi
ast ,</w>
as si
as sed</w>
as ...</w>
art ic
arm ed</w>
ari es,</w>
are ?</w>
are .</w>
ar rog
ar izon
ar ily</w>
ar ch</w>
ar am
ar ab
appre hen
ap plau
any wher
any one
any bod
anti do
ant s,</w>
anniver sar
ann e</w>
ani c</w>
ang le</w>
and ro
and ...</w>
and ,</w>
ana est
an y</w>
an te
an astasi
americ an</w>
ambass ad
all s</w>
ali gn
ale d.</w>
ale d,</w>
al tar
al s!</w>
al one
al leg
al ger
al bu
al ab
air plan
air -
ah -
after -
adver t
ad or
ad mit
ad dis
ac qui
ac cep
abil ity.</w>
ab s
ab les.</w>
a- half</w>
a er
a des.</w>
a ar
? ???</w>
= 8
=8 a</w>
<u> why
<u> who
<u> think
<u> there
<u> that
<u> now
<u> no
<u> me
</u> !!</w>
</i> .</w>
: 00</w>
9 8
8 ,</w>
7 ,</w>
50 0</w>
5 ?</w>
5 :
5 -
3 3
3 2
3 18</w>
25 .</w>
20 7</w>
20 0</w>
20 .</w>
2 44</w>
2 12</w>
19 4
18 4</w>
18 0
17 5</w>
17 1</w>
17 0</w>
16 3</w>
16 1</w>
15 4</w>
14 6</w>
14 4</w>
14 0</w>
14 .</w>
10 4</w>
10 0
10 .</w>
1 35</w>
1 34</w>
1 15</w>
1 ,</w>
00 0</w>
...wher e's</w>
...th ank</w>
...no t</w>
.... what</w>
... we're</w>
... there's</w>
... then</w>
... something</w>
... is</w>
... he</w>
... he
... be</w>
... about</w>
-in- law</w>
-fuck ing-
-- to</w>
-- like</w>
-- how</w>
-- all</w>
-- "
- man
- in.</w>
- i-
- co
- ?</w>
* .</w>
* ,</w>
's </u></w>
's -</w>
' un
' 8
' 3
" no
" n
" man
" ma
" h
" --</w>
! !!!!</w>
zz ling</w>
zu zu
zi s.</w>
zer o-
z o</w>
z o.</w>
z o,</w>
z er</w>
z er.</w>
z en
z ed,</w>
z ...</w>
your -
you .</w>
you 'll</w>
yor k
yo gur
yi el
yes sir
year s
yard ,</w>
y- y-
y v
y s.</w>
y ow
y ok
y er.</w>
y aw
y ard</w>
y ard.</w>
y ank
y am
y </u>.</w>
y "?</w>
writ ing</w>
writ e</w>
wright .</w>
work s</w>
work ,</w>
wor thing
wor se
wor m-
wor m
wol fi
wo man</w>
with draw
wit w
wis con
win d</w>
wif e.</w>
wif e,</w>
wi z
wi ch
who 's</w>
whi ch
wheel chair
what's- his-nam
what's- her
what's-her -nam
what ever</w>
wh itt
whitt les
wh ile</w>
wer en
wer e...
well 's</w>
well !</w>
we ight</w>
we igh
way ...</w>
way 's</w>
water fron
was h</w>
ward s...</w>
ward s,</w>
war m-
wal tz
wal k</w>
wa ste
wa re.</w>
wa ck
w w.</w>
w u
w rot
w rist
w right</w>
w ri
w ret
w ren
w o-
w en
w ant</w>
vo ir
vit y,</w>
vision s</w>
vis itor
viol in
vin 's</w>
viet nam
vi s.</w>
vi ri
vi e</w>
vi ch.</w>
ven ,</w>
vel y.</w>
ve gas
ve g
ve </u></w>
ve ...?</w>
ve "</w>
val eri
v ouch
v o.</w>
v indic
v in?</w>
v es...</w>
v ed,</w>
v and
v anc
vanc ou
v ale
v a.</w>
us ing</w>
ure s,</w>
ur in
ur ani
ur a</w>
uni qu
under we
under ne
un touch
un reason
un re
un predict
un know
un fair
un employ
un d
u ses</w>
u sed</w>
u ms</w>
u mb
u ?</w>
type writ
ty bal
ty -</w>
twent y</w>
tw o.</w>
tw ink
turn !</w>
tur t
tur k
tu mor
tt er</w>
tru st</w>
triu mp
tri bun
tre sp
tre mb
trans sexu
trans mission
trans fer
trans f
tran spl
tra pp
tra il
tra ck</w>
town .</w>
too -
tomor row</w>
tol d</w>
toge ther</w>
to s
to on
to mat
to e</w>
time s</w>
time ?</w>
time ...</w>
tim id
tick et
ti ve.</w>
ti red
ti m,</w>
ti est</w>
ti er</w>
ti bet
thurs day
thu si
thre e.</w>
thr ough</w>
thou se.</w>
tho se</w>
think ing</w>
them sel
the se
the ori
that --
thank s
th y</w>
th ing.</w>
th in
th es
th a</w>
territ ori
ter s!</w>
ter m</w>
ten nes
ten der
temper ature
tech n
te x</w>
te st.</w>
te 's</w>
tatt agli
tar an
tan gi
tain ing</w>
ta il</w>
ta ho
ta -
t; &g
t;&g t;</w>
t z</w>
t y?</w>
t ook
t issu
t ing.</w>
t ical</w>
t ent
t e,</w>
t ant
t ang
t all
t able</w>
t a.</w>
syn dro
symp ath
syl la
sy ri
sway z
sw o
sw ick
sw ell
sw ann
sut ph
surpri se
sure ...
sur fac
suppo se</w>
suppo se
supp or
super vis
super natur
super mark
sun sh
sun day
suc ce
sub ver
sub po
sub -
su z
su san
su re,</w>
stu dy
stre am.</w>
str y?</w>
str y.</w>
stor e</w>
stor .</w>
sto p</w>
sto ck</w>
stick s</w>
stic k</w>
sti fl
sti ff
ster ing</w>
ster ed</w>
ster e
ster !</w>
ste p</w>
ste al
stabil iz
st run
st ran
st on?</w>
st ok
st ing,</w>
st ate</w>
st ate.</w>
st aff
spo t</w>
spo ck
splen di
speci al</w>
spe ak</w>
spac edo
sp ut
sp litt
sp an
sor t</w>
sonu v
sonof ab
son n
some body
sol lo
sollo zz
sol it
soci ali
so pran
so mer
so me.</w>
so m</w>
so ak
so ...</w>
snoo p
smo king</w>
sli pper
sle dge
sla y
sk y's</w>
sk un
sk ank
sk ,</w>
sion ...</w>
sig n</w>
side s</w>
side -
si zed</w>
si ze</w>
si z
si ve!</w>
si n</w>
si mil
si l</w>
si dd
si ble.</w>
shut tle
shu d
shop .</w>
shoo ting</w>
shit ,</w>
ship !</w>
shi ver
shi ps</w>
sher on
shar p
shab azz
sha w</w>
sh itt
sh ing</w>
sh hhhh
sh ang
shang ri
shangri -
ser a
sent enc
sen su
sen d</w>
sen ate
self- defen
se t...</w>
se t-
se pte
se me
se gre
se g
se basti
se att
se a</w>
se a-
se ."</w>
scrip t</w>
screw dri
schoo l</w>
sch war
sch o
sch ne
sch mid
scare crow
sc run
sc ro
say ing
san to
san ctu
san che
sam u
sam e</w>
salvat ore
sal o
saf e</w>
sa x
sa vi
sa n</w>
sa le
sa ck
s z
s wa
s no
s mur
s ing,</w>
s er?</w>
s ati
s ass
s anc
s ali
s *</w>
s 's</w>
ry u
run -
ru in
ru fu
roy al
rout ine</w>
ror sch
room s</w>
roo mm
ron al
roll ,</w>
ro y</w>
ro x
ro sal
ro r</w>
ro ot
ro ast
ro ad,</w>
ro ?</w>
right ?</w>
ri zz
ri pper
ri pp
ri gh
rhy th
reti re
reser v
res ul
res h</w>
requi re
ren t</w>
ren d
reli ev
rel ent
rel ated</w>
recon c
reco gn
rebel li
reas sur
reas sign
reali stic
reac tor
re ven
re ve
re uni
re treat
re tre
re spir
re spect</w>
re qu
re public
re publ
re place
re pla
re no
re ma
re ly</w>
re ly.</w>
re lu
re l</w>
re inst
re ef
re e
re colle
re ci
re cent
re ally</w>
ra s</w>
ra pha
ra ft
ra ff
ra f
ra cket
ra b
r- r-
r on.</w>
r ish
r ine</w>
r il
r he
r ation.</w>
r ati
r ated</w>
r alli
r ?</w>
r ,</w>
question nai
quar ant
qu o
qu et.</w>
qu elle
pur su
puppet e
pup p
pul l
pu t</w>
pu c
puc cin
psych o-
proto col
promis e</w>
prof es
produ ct
pro sper
pro secu
pro por
pro of</w>
pro mp
pro ces
pro ce
privi leg
print s</w>
princi ple
pri et
pregn anc
pre tti
pre ten
pre scrip
pre poster
pre li
pra et
pr int</w>
pr ick
pr ice
pp y</w>
pp y.</w>
pp y,</w>
pow er.</w>
possi ble
por t.</w>
poo r</w>
pon ti
pol ar
po sed</w>
po p</w>
po mp
po int.</w>
po ach
plut oni
plu s</w>
plu s.</w>
plo tt
please ...</w>
please ...
pleas ure
play ing</w>
play ed</w>
plan -
pla y.</w>
pla inti
pla ce.</w>
pl y,</w>
pl un
pl is
pie ce</w>
pie c
pi pel
pi n</w>
pi g-
pi es.</w>
pi c</w>
pi an
phreak phreak
phenom en
ph as
pet ro
pet er
peri met
per ra
per form
per 's</w>
peop le</w>
pent ag
penit enti
pen der
pe cu
pe ak
pay -
path et
pat hi
pas sen
pas s</w>
par ro
par is
par atro
par aly
par ach
parach ut
pap er</w>
pan ick
pal ant
pac i
pa le
pa ?</w>
p ound</w>
p oni
p ine
p in.</w>
p ett
oxy gen
own ...</w>
ow ww
over ri
over .</w>
out po
out law
out door
out !</w>
ou ss
other wi
or y,</w>
or le
or ch
or a</w>
or !</w>
op pres
oo ?</w>
oo ,</w>
oo !</w>
one --</w>
on y</w>
on ing</w>
ol y
ol ?</w>
ol .</w>
okay ?</w>
ok ,</w>
off s</w>
occa sion
ob stru
o' clock
o' bri
o zz
o y
o v</w>
o o</w>
o min
o ke
o hi
o hhhh
o gen
o ft
o eu
oeu v
o es</w>
o de
nymp ho
nur ser
nu th
nu t</w>
nu cle
nor mal</w>
no xi
no thing</w>
no te
no is
no dd
no bod
no ble
no ...</w>
nit ro
ninotch k
nin e,</w>
night cap
night --
nic k</w>
ni e!</w>
ni cho
nicho la
nex t</w>
nes t</w>
neighbor hood
ne vad
ne s.</w>
ne phe
ne k
nar cot
na m</w>
na 's</w>
n' t!</w>
n y's</w>
n s.</w>
n ort
n oooo
n ano
n 's</w>
my tho
my r
mut u
mut il
mus ici
mun ch
mul vi
muham ma
mu st</w>
mu mm
mu m</w>
mu m
mr s.</w>
mp s</w>
mor a
moon light
mont go
montgo mer
mon t?</w>
mon t.</w>
mon str
mon sie
mon it
mon ey</w>
mobil e</w>
mo z
mo tt
mo ther</w>
mo an
mm a</w>
mist res
mis sion,</w>
mis si
mis s</w>
min '</w>
million ai
mill enni
mi s</w>
mi n</w>
mi le
mi ke
mi d</w>
mi chi
mi chel
mi am
metho do
methodo logy</w>
merch and
mer cen
ment ed</w>
ment :</w>
mel o
med alli
me t</w>
me an</w>
mck enn
mcca ff
mc donal
mc cor
mb al
maybe ...
may he
may flow
mat hemat
mat es</w>
mat e.</w>
massa chu
massachu sett
mass ac
mar zz
mar y,</w>
mar ty
mar t.</w>
mar o
mar l
mar ion
mar in
mar gar
mann 's</w>
man s</w>
man n.</w>
man age
mal lo
mal function
maga zin
made le
mac far
mac donal
mac be
ma' am
ma ur
ma ster</w>
ma ster.</w>
ma r</w>
ma j
ma il.</w>
ma i
ma ho
ma est
ma dis
m. ?</w>
m- m-
m s...</w>
m ous</w>
m ous
m ic.</w>
m es?</w>
m ati
ly s
lun g
love jo
loud speak
lon neg
lomb ard
logi st.</w>
log y.</w>
lo t.</w>
lo s</w>
lo cal
lo b
lo ath
lo an
lo af
lle wel
ll ,</w>
liz ard
liv ing
list ed</w>
ling eri
lin es,</w>
lin er</w>
lin e?</w>
lin 's</w>
light year
light s.</w>
li t</w>
li mo
li .</w>
lett u
lett er</w>
lett e.</w>
les s!</w>
left -
leck tor
lea ve</w>
lea f</w>
le y!</w>
le ver
le ment</w>
le is
le dge
le bow
le "</w>
law su
law ren
las z
lan ter
la zar
la y</w>
la plan
la ke
la dy</w>
la ck
la bel
la -
l y's</w>
l ori
l er's</w>
ku beli
kry p
kra ut
kopal ski
know .</w>
kis sing
kin d.</w>
kin ca
kil ler</w>
kick -
ki mb
kh ru
keep er</w>
ke y's</w>
ke l</w>
ke it
kay ?</w>
kath ry
kat rin
kan s
k y?</w>
k ron
k nuck
k not
k ess
k es
k ent
k auf
k ather
k ast
k ag
jur is
juris dic
jun ebu
john son
jo e</w>
jes us</w>
jes si
jer e
jere mi
jeop ard
jenni f
je ev
jan u
jack ...
j ul
j ou
j o</w>
j it
j in
j et
j ah
j a.</w>
itch ,</w>
it em
it e,</w>
it e!</w>
it ation.</w>
it ...</w>
it -</w>
ist er</w>
ish es</w>
ish !</w>
is on.</w>
is ;</w>
ir s</w>
ir rever
ir o</w>
ir a</w>
intri gu
inter pol
inten tion
int end
inst itut
inst ant
inspe ctor
insom ni
inse ct
inn ati
ing s...</w>
ing eni
ing en
ing ?!</w>
infil tr
industri al</w>
indul g
incre as
inclu ding</w>
incar cer
inc en
in ver
in timid
in su
in sist
in si
in ser
in secur
in quir
in oper
in op
in o</w>
in o
in fl
in fin
in fant
in ev
inev it
in ct
in ce
in appropri
in a.</w>
in a,</w>
in :</w>
imper fe
imp os
imp lant
immi gr
imm en
il s?</w>
il led</w>
il le.</w>
il !</w>
ig no
ig h</w>
id s,</w>
id ...</w>
ici a.</w>
ice --</w>
ic an</w>
i' d
i on.</w>
i mag
i ke
i i</w>
i es
i e's</w>
i deal
i ch
i bbe
i ans</w>
i a!</w>
i ..
i -</w>
i !</w>
hypno cy
hy dro
hundre d.</w>
human itari
hud suck
hu x
hu gh
hu ey
hou ses</w>
hou se?</w>
hou se,</w>
hot el
hor n
holi day
holi c</w>
hol d
ho t-
hill .</w>
hi .</w>
hh ,</w>
her e's</w>
her al
hen ry
hell -
hell ,</w>
heart -
he y...
he n</w>
he ather
he ard</w>
he ...</w>
hay d
har ry
har ring
har old
happ y
hand shak
hand ed,</w>
hand cuff
hand .</w>
han ded</w>
hampshi re
ham mon
ham mer
ham ?</w>
hal lowe
hal f.</w>
hair cut
hai red</w>
ha wa
ha van
ha ag
h- e
h ort
h o</w>
h m.</w>
h m
h a.</w>
h '
gymn ast
gul li
guar ante
gu s?</w>
gu s.</w>
gu lar</w>
gu err
gu e.</w>
gu ard</w>
gre gor
gras shop
grand ma
grand f
gra sp
gr ound.</w>
gr is
gr ati
good bye
goddam nit
goddam mit
go ssi
go ing</w>
go et
go e
goe bb
go ...</w>
gla dy
gla d</w>
gi ven</w>
gi o.</w>
gi de
gho st
gh e
ger al
ger ...</w>
gentle man
gent ly</w>
ge n</w>
ge kk
gar bag
gan !</w>
gal low
gal lagh
ga i
g under
g land
g ers</w>
g ator
g ate.</w>
g ask
g an?</w>
g al.</w>
furtwn gl
fun ny.</w>
fun dam
fundam ent
fun d</w>
ful ly,</w>
ful l</w>
fug iti
fuck ing</w>
fru strat
fru str
fri day
fre u
franc es
form s.</w>
fore ver
for go
for ger
for d...</w>
for ...
foot ball
fon d
fo ss
flo ren
fli r
fle xi
flat ter
fla vor
fl y?</w>
fl int
fish ?</w>
fing er</w>
fil led</w>
fil e</w>
fi ve,</w>
fi t</w>
fi re.</w>
fi ght</w>
fi er
fi ance
fer r
fe zzi
fe et
fat u
far ra
fan at
famili ar
fall .</w>
fair bank
fab ul
fab ri
fa int
f ying.</w>
f rat
f oun
f ought
f ly.</w>
f light
f itt
f ish</w>
f ill
f ett
f ati
f anc
f 's</w>
f !</w>
ez ,</w>
explo si
excep tion
excep t</w>
ex pel
ex er
ex ceed
ex ac
every wher
ever y</w>
ever ...</w>
ev asi
ev alu
euro pe
ett i</w>
eth an
et y,</w>
est ,</w>
espe ci
es senti
es par
es hi
es co
es "?</w>
ero ph
er ship</w>
er ad
er a.</w>
ep ,</w>
enti al</w>
ent ran
ent ly.</w>
ener g
end or
end ing.</w>
end ang
end ?</w>
ence :</w>
enc y!</w>
en thusi
en gra
en for
en ess</w>
en der</w>
en de
en chant
emb ass
em be
ell o</w>
ell i</w>
eliz ab
ele g
ele an
el si
el lo
el ing</w>
el bow
el ain
eg ghe
effe ct
eff ort
eff ici
ee e
edu ard
ed ness.</w>
ed *</w>
ec cent
eas y
e... and</w>
e th,</w>
e ject
e con
e av
e .'</w>
e !
dumb as
dul ane
du plic
drun k
dro p</w>
dri ver
dra ft
don ?</w>
don 's</w>
does n't</w>
do tti
do re
do ming
do m?</w>
do lo
do gg
divor ce
dist ur
dist ric
dise mb
dise ase
dis sol
dis se
dis put
dis pat
dis gra
dis conne
dis ast
dis appro
dis advant
diffic ul
diab et
di vid
di t</w>
di min
di le
di ed</w>
dg e,</w>
des pi
des c
delu sion
del bru
dedu dedu
dec lin
dead beat
de vi
de tro
de st,</w>
de put
de press
de pra
de plo
de mand
de l</w>
de gener
de em
de cep
de bor
de ath</w>
de af
de ad</w>
dd le</w>
day s,</w>
day a</w>
dar y
danger ous
dal e</w>
da n</w>
da is
da ir
da d</w>
da ...</w>
d. ,</w>
d' oeuv
d' am
d wi
d ry
d ran
d on,</w>
d en,</w>
d aph
d ant
d and
d ance
d ak
d ab
d ."</w>
cut -
curi os
cur ve
cur tain
cul ture
cu ban
ction s?</w>
cry p
cru is
crou pi
cross -
croco di
cro ss</w>
cred it
cre mat
cre ek
cra zi
cra v
cra ft</w>
cra ft.</w>
cra bb
cow boy
cour tro
cour tes
cott on
corn eli
cor ro
convers ation
cont roll
constant inop
con tribut
con tribu
con tex
con fin
con ,</w>
compre hen
compen sat
comp ut
comp ul
comp res
comp art
comm ent
come s</w>
com for
colu mn
colu m
col oni
col later
cock tail
cock -
coch ran
co z
co yot
co re.</w>
co me,</w>
co le
co at.</w>
co ach
co ...</w>
clu e
clo sed
clo ak
cli ft
cla ss</w>
cket t.</w>
ck er</w>
cigare t
cic ci
chron ic
christi an</w>
christ sak
christ ma
cho ice
chi p
chi mer
chi m
cheese burg
che mi
char i
char ged</w>
ch ow
ch or
ch man</w>
ch imp
ch e.</w>
ch 's</w>
cer tain</w>
cent .</w>
cathol ic
cat er
cat alo
cat .</w>
cas ano
card in
car pathi
car lot
car ibbe
car cin
cap puccin
cap ac
can ad
can ...
camp bell
call .</w>
cad illa
ca v
ca t</w>
ca s</w>
ca i
ca ffe
ca f
c. i.
c- c-
c' mer
c z
c y!</w>
c ough
c lon
c ity</w>
c er.</w>
c ci
c any
c ag
c add
c a</w>
by e</w>
butter cu
but ...</w>
but ...
bur y</w>
bur n</w>
buff al
budd y-
bud di
bu sh
bru ce
brook ly
bro om
bri ga
bri dge</w>
break ing</w>
bre ak</w>
brain er
br ink
br ick
boun c
bou ght
bor n.</w>
bon te
bo y's</w>
bo y!</w>
bo x</w>
bo to
bo th</w>
bo r</w>
blu est
bloo d</w>
black mail
bl ur
bl an
bit ch</w>
bi zar
bi x
bi ograph
bi gge
bi .</w>
bet we
bern ste
ber s</w>
ber mu
ber g
ben e
bell eroph
beli eve</w>
beli e
bel on
bel gi
begin n
becau se...
be yon
be n</w>
be hind
be hin
be at</w>
be an
bb ing</w>
bay on
bath ,</w>
bast ard
bar zin
bar rett
bar k
bar be
bar .</w>
bal anc
bab ys
ba ha
ba '
b one
b o</w>
b ate
b am
ay ?</w>
ay !</w>
away ?</w>
aw k
av al
aut op
aud itori
au th
au bre
au ?</w>
atta ch
att end
ator y.</w>
ation :</w>
ati ve...</w>
at u
at er
at ely,</w>
at ed...</w>
at a</w>
at ...</w>
asse ss
assa ul
ash am
as ylu
as sur
as s,</w>
as ga
as !</w>
arti fac
art ?</w>
aren 't</w>
are r</w>
ar te
ar s.</w>
ar row
ar ound</w>
ar mit
ar k
ar ist
ar gent
ar ca
ar ach
ar ...</w>
ap ol
anything ...
any more
ant s?</w>
ant icip
ann a,</w>
ang .</w>
anesthes i
anest het
andre w
and er?</w>
and --
an to
an om
an n</w>
an -</w>
an '</w>
americ an
americ a
amate ur
am bu
am and
alph ab
almo st
ali zed</w>
ali zed.</w>
ali stic</w>
ali ?</w>
al ys
al might
al der
al -
air e</w>
ain' t</w>
ai r</w>
age ;</w>
ag o</w>
ag grav
aff ir
adver ti
add res
add a</w>
ad ren
ad on
ad ol
ad o.</w>
ad mira
ad ing</w>
ad es?</w>
ad co
acti ve</w>
achie ve
ach i
ach ,</w>
acc es
ac t,</w>
ac i
ac commod
abil ity,</w>
ab ra
ab ol
ab du
ab and
aaaa aa
a ul
a se,</w>
a ja
a id</w>
a ...?</w>
a --</w>
_ ?</w>
? ?!</w>
? ?!!</w>
? </u></w>
? !!!</w>
<u> want
<u> shit
<u> money
<u> man
<u> home
</u> --</w>
</i> ,</w>
: 30.</w>
9 .
9 -
8 ?</w>
7 th</w>
7 8
6 3
50 ,000</w>
5 8
5 00.</w>
5 ,</w>
4 2
4 1
4 00</w>
4 ...</w>
28 9</w>
20 3</w>
20 1</w>
2 33</w>
2 2.</w>
2 15</w>
19 1</w>
19 0</w>
18 3</w>
17 4</w>
16 4</w>
15 7</w>
15 .</w>
14 9</w>
14 8</w>
14 7</w>
14 5</w>
14 3</w>
14 2</w>
14 ,</w>
12 -
10 8</w>
10 1</w>
1 38</w>
1 37</w>
1 36</w>
1 32</w>
1 28</w>
1 26</w>
1 23</w>
1 21</w>
1 2.</w>
1 17</w>
00 -
0 4</w>
...th ink</w>
.... you're</w>
.... that's</w>
.... i'm</w>
.... ....
... very</w>
... they're</w>
... there</w>
... take</w>
... like</w>
... i...</w>
... he's</w>
... for</w>
... did</w>
... at</w>
... all</w>
. 3
-up ,</w>
-in-law .</w>
-- so</w>
-- or</w>
-- no</w>
-- is</w>
-- have</w>
-- for</w>
-- don't</w>
-- do</w>
- po
- mo
- ba
- ass</w>
, ...</w>
' out
' cu
' cha</w>
&g t;&gt;</w>
" some
" sa
" pigg
" normal
" mark
" it
" i
" hello
" fuck
" d
" ba
" ?!</w>
zz le</w>
zoo !</w>
zo mbi
zin now
zinnow it
zi pper
zi mm
ze al
zam mit
z v
z ul
z one</w>
z ion
z il
z etti
z en</w>
z ek
z av
zav it
z ai
z ack
z a.</w>
z '</w>
yu go
yugo sla
your e</w>
youn g</w>
you th
you ...</w>
you ....
you !</w>
yo ,</w>
yo !</w>
yn 's</w>
yes ss
yes ...
yes -
year- ol
year s...
yak u
y- like</w>
y- back
y'know ,</w>
y' .</w>
y ra
y ori
y n.</w>
y n,</w>
y lock.</w>
y ing?</w>
y er,</w>
y en
y e.</w>
y c
y a.</w>
y ...!</w>
y .
x- ray
x ing</w>
x ili
x ed</w>
wy n</w>
wy at
ww !</w>
wur st</w>
writ ten</w>
wouldn' t</w>
would '
worth y</w>
work s.</w>
work ...</w>
work -
work 's</w>
wor ds</w>
wor d.</w>
woods bor
wom en
wo man.</w>
witnes ses</w>
withdra wal
with out
wit .</w>
winter mut
wind shiel
win de
wil let</w>
wich it
wi t</w>
wi red</w>
wi re.</w>
wi re,</w>
whoo p
who le
whit ew
whit ef
whit e-
whi le
where about
wher e's</w>
what s</w>
what ...</w>
wh y...
wh or
wh iz
wh ee
wh eat
weren '
wer e
well ?</w>
well ...i'm</w>
wel sh
weir d
week ly</w>
wea sel
we st.</w>
we gi
we en
we ek</w>
we -
way s.</w>
way ne
way -
way !</w>
water color
wat er?</w>
wat er</w>
wat er.</w>
washing ton</w>
ward s.</w>
war ren
war p
war ded</w>
war .</w>
wal lo
wal la
wal k,</w>
wal d
wa uke
wa it.</w>
wa ff
w us
w under
w ir
w in.</w>
w ent</w>
w an.</w>
w am
w ake</w>
w a</w>
vot e</w>
vol up
volup tu
vol um
vol can
vo il
vo ca
vo c
vo ,</w>
vitam ins</w>
vision s,</w>
visi on?</w>
visi on,</w>
viol ent</w>
viol ence</w>
vinc enn
vin ...</w>
vil le?</w>
vide o
vic in
vic e</w>
vi st
vi enn
vi c</w>
vi a.</w>
ver n
ver min
ver ific
vent il
ven k
vel oc
veget ari
ve y</w>
ve ga
ve ...
ve -</w>
vari et
vand al
van es
vag in
vac u
va ul
va le.</w>
v. p.
v or</w>
v mor
v ing
v in.</w>
v in'</w>
v es!</w>
v ed...</w>
v ed
v an</w>
v all
v a,</w>
v 's</w>
ut t</w>
use ful
us er,</w>
us --</w>
ure d.</w>
ure -
ur re
ur ?</w>
up s</w>
up per
up lin
up -
under tak
under state
under ?</w>
un necess
un load
un lik
un its</w>
un identi
un grate
un faith
un e</w>
un dic
un di
un d</w>
un comfort
un c
un ap
un announ
un accept
um s.</w>
um p</w>
um ...i</w>
um 's</w>
ul ti
ul ate</w>
ul ar.</w>
ul a</w>
uh m
uh ?</w>
ught er</w>
ug ly
ug art
u. s.
u sh
u n</w>
u li
u ght</w>
u ck
u ating</w>
u ...</w>
ty po
twenty- five</w>
twent y.</w>
tw in
tw i
tut t
tur n.</w>
tur ing</w>
tu s</w>
tu b</w>
tru mp
tru mbo
tru ck</w>
tru b
triu mph
tri vi
tri ple
tri ang
tri al
treas ur
tre ati
traum ati
trans fu
trans ac
tran spon
trag ed
tra vell
tra sh
tra pper
tra p
tra itor
tra ce</w>
tr y.</w>
tr a</w>
tour .</w>
tor on
tooth pick
tooth bru
tonight .</w>
ton s.</w>
to y
to scan
to p.</w>
to ma
to graph
to e.</w>
to d
to ast
to !</w>
tion :</w>
time --
tim es...</w>
tim es,</w>
tight ro
tight ,</w>
ti ve,</w>
ti v
ti re.</w>
ti re
ti m</w>
ti ght</w>
ti gh
ti ed</w>
ti d
ti ble</w>
ti a</w>
thu mp
thru ster
thro bb
threat en
thre sh
thre e...</w>
thre ad
thousand ?</w>
thousand .</w>
thous and-
though t</w>
thou gh</w>
thomp sons</w>
tho u</w>
tho ma
tho lo
tholo me
thirty- six
thir sty</w>
thir d</w>
thing s...
thing ...</w>
thi gh
thi er</w>
ther e--
ther ?</w>
theo do
then ...
the y...</w>
the ir</w>
the a.</w>
the -</w>
the *</w>
that ch
that ....
that -
that 's...
thanks giv
thank -
th y,</w>
th y
th ing,</w>
th ick
th ail
testi mon
testi f
terror ist</w>
terri fic
termin ate</w>
ter s...</w>
ter ren
ter ed.</w>
tennes se
tend enci
teen ag
techno logy</w>
teach er.</w>
te quil
te ous</w>
te les
te ch</w>
te ch,</w>
te am</w>
tay l
tax pay
tal king</w>
tak e-
tak e
ta un
ta il,</w>
ta i
ta 's</w>
t. v.
t. ,</w>
t y-
t itu
t ine</w>
t ill
t est</w>
t en.</w>
t en,</w>
t el
t ed?</w>
t e?</w>
t ati
t ask
t an,</w>
t --
sz pil
syn chron
syn ago
sy bo
swi ft
sw en
sw ell</w>
sw ar
susp en
surren der
sur pris
sur g
suppo sed
sup pres
sun ri
sun ny
sun flow
sul liv
suici de.</w>
suffici ent</w>
sudden ly</w>
suck ing</w>
suc cu
subst anti
sub stitut
sub scrip
sub scri
sub mit
sub li
sub je
sub du
sub consci
su stain
su re?</w>
su p?</w>
su ic
sty l
stu pi
stu dy</w>
struct ing</w>
stru ck</w>
stro ke.</w>
stro ke
stre am</w>
stre ak
straw ber
stra van
stra ight</w>
str and
stor y
stor m</w>
stor m,</w>
stop ...</w>
ston es
sto mach
stick ,</w>
stic s</w>
stic s.</w>
stic !</w>
ster ...</w>
sten ograph
ste wart
ste vi
ste ps</w>
ste ad</w>
stat e-
star s.</w>
star gh
star d</w>
star .</w>
star -
stand ing</w>
stand ing.</w>
stand ard
stand .</w>
stal gi
stak o
stab b
st ut
st ric
st range
st one's</w>
st o,</w>
st ing
st ill</w>
st ic,</w>
st et
st ation</w>
st ar</w>
st ap
st an</w>
st all
st adi
ssi on</w>
squir rel
spor t.</w>
spo ke
spo i
spir itu
spid er-
spectac ular
speci es</w>
speci alt
spe c-
spe c
spar row
spar r
spac eshi
spac e.</w>
sp y
sp ur
sp un
sp rout
sp ray
sp lin
sp le
sp atu
sp as
sp ang
sou ven
sou p
son s.</w>
son 's.</w>
son '
some where
some one</w>
soli d
soft -
soci op
so m.</w>
so fi
so ?</w>
snu ff
snow mobi
sn ick
sn at
smur f
smugg ling</w>
smith 's</w>
smit h</w>
smar t</w>
smal l</w>
sma ck
sm ir
slo w</w>
sli pp
sli de</w>
slea ze
sle u
sle eper
sle az
sla ck
sl ur
sky walk
sk in</w>
six ty</w>
six ,</w>
sit com
sir .</w>
sir ...
sing le
sing ing</w>
sing ap
singap ore
sin n
simp li
sil ic
sight .</w>
sig ni
sig li
side ?</w>
side ...</w>
side !</w>
sick .</w>
sic ili
si mi
si eu
si eg
si di
si bil
si .</w>
shut t
shru bber
show .</w>
shoul d</w>
shot s</w>
shot s.</w>
shop p
shoo ter</w>
sho stako
shir t.</w>
ship s.</w>
ship ...</w>
ship 's</w>
shiel d
sher min
she 's...
shaw .</w>
shar e</w>
shap i
shap ele
shap ed</w>
shangh ai
shak espe
shad du
sha ve</w>
sha ft
sh rin
sh rap
sh atter
sh ari
sh ack
sex ,</w>
sever al</w>
seven ,</w>
sett ing</w>
ses ."</w>
servic e
seri es</w>
sera fin
ser en
ser ad
senti ment
sen or
sen ,</w>
sen 's</w>
segre tti
seag ra
se y.</w>
se y,</w>
se x</w>
se min
se lect
se ft
se e...
se e-
se ction
se clu
se :</w>
se 's</w>
se 'll</w>
sculp tor
scu ff
scru ple
scrat ch
scra w
sco o
sco bi
sci ent
sci ence
school -
schne id
sch wart
sch mu
sch imm
schimm el
sch a
scha ef
sch .</w>
scen e</w>
sc is
scis sor
sc ale</w>
say -
satisfac tion.</w>
satis fied</w>
satis fi
satell it
sandwi ch
sanc ti
san '
sam anth
saf e.</w>
sa w.</w>
sa un
sa t</w>
sa fel
sa --</w>
sa !</w>
s. s.</w>
s-- and</w>
s-- -</w>
s- s-
s y...</w>
s vil
s oun
s man.</w>
s man
s ling
s is,</w>
s in'</w>
s for
s ent</w>
s ent.</w>
s con
s bur
s all
s al.</w>
s ?...</w>
s ?
s ",</w>
ry p
ru st
ru mour
ru m</w>
ru d
rout e</w>
rose mar
roof to
roll s</w>
roll .</w>
road s</w>
road block
ro ss,</w>
ro sen
ro sat
ro ll</w>
ro dri
rodri gu
ro der
ro ck</w>
ro bo
ro bin</w>
ro ad</w>
ro ad.</w>
ris t</w>
ris col
ring ele
ridd ick
rid den</w>
rick ?</w>
rick ,</w>
ric ul
ri val
ri t</w>
ri s.</w>
ri o</w>
ri es,</w>
ri dge.</w>
ri dge
ri ,</w>
rhin o
reyn ol
return ed</w>
resour ce
resi du
res urre
res ort
rep li
rep ell
ren a
ren ,</w>
reme mber</w>
relu ct
rell .</w>
rein carn
regar d</w>
red ne
recei pt
reall y?</w>
reali z
read y</w>
read ings</w>
re- ent
re y.</w>
re venu
re turn</w>
re stri
re st.</w>
re sc
re s...</w>
re pu
re pri
re per
re mov
re mor
re medi
re mb
remb rand
re marri
re locat
re ll</w>
re lea
re ject
re je
re ign
re h
re ed
re e</w>
re di
re decor
re clu
re cit
re cal
re buil
re bu
re be
re ar
re ag
re </u></w>
ration aliz
rat her
rat es</w>
rap id
rand om
ran t</w>
ran ch
rac co
ra y?</w>
ra y,</w>
ra y!</w>
ra ven
ra sput
ra mbo
ra ising</w>
ra h
ra g
ra dic
ra dar
ra d
ra ce</w>
ra ce.</w>
ra ?</w>
r or.</w>
r ings</w>
r ing?</w>
r ing.</w>
r il.</w>
r ic.</w>
r hon
r hey
r ational</w>
r ation?</w>
r alph
r al.</w>
r al
r ...</w>
r &
quot e</w>
que en
quarter -
quart er</w>
quant ic
qu ick</w>
qu et</w>
q .
put ter
purpo se
pur it
publ ish
pu k
pu ck
pt on</w>
psych ot
proto ty
progra mm
progra m
produ cer
produ ced</w>
probab il
pro w
pro vinc
pro priet
pro ph
pro pag
pro p
pro motion
pro dig
princ ess
prin t.</w>
prim iti
pri vac
prett y</w>
pres sure
preli min
pre tz
pre sump
pre serv
pre scri
pre occupi
pre cri
pr ise</w>
pp ed,</w>
pow ered</w>
post s</w>
possi bl
pos se
pos it
pos ing</w>
poly mer
pol lut
point -
po tt
po t</w>
po t.</w>
po se.</w>
po po
po pe
po mon
po la
plu mber
plu g</w>
plis sk
place ...</w>
place !</w>
pla sma
pla in
pla ces
pla ced</w>
pla ce,</w>
pl y.</w>
pl ate
pizz eri
pink er
pin stri
pin back
pier re</w>
pie ce.</w>
pic k</w>
pi x
pi p
pi es</w>
pi e.</w>
pi ano
phys ici
phys ical</w>
phone ...</w>
phon e.</w>
pho eni
phil adel
phar ma
ph y</w>
ph ren
pg &
perspe cti
person n
person ...</w>
perhap s</w>
per s</w>
per s.</w>
per pet
per fu
per for
per cei
penc il
pen thou
pen .</w>
ped est
pe t</w>
pe stil
pe psi
pe m
pe e.</w>
pe e-
pe e
pe as
pe a.</w>
pe -
patri zi
pati ent</w>
pat r
pass ing</w>
pas ad
paren ts</w>
paren ts.</w>
pard ner
par r
par l
par amoun
pap er.</w>
pan ic-
panic- strick
pal er
page ant
pa n</w>
pa leon
paleon to
pa inter
pa ine
pa ck.</w>
pa ,</w>
p. d.</w>
p-p- p-
p yra
p ure
p tic</w>
p russi
p our
p on</w>
p li
p ity</w>
p iti
p int
p ine</w>
p es,</w>
p edi
p app
p ans</w>
p age</w>
p ack</w>
p a</w>
p '</w>
ow 's</w>
over reac
over look
over load
over board
outra ge
out s</w>
out -of-
ous ness</w>
ou se</w>
ot to
ot is
ot a.</w>
ot 's</w>
ot !</w>
os bor
ort ?</w>
ori fic
organ ization</w>
ore d.</w>
or s...</w>
or gas
or der.</w>
or de
or a,</w>
oper ator
ood les</w>
oo o
oo k</w>
oni um,</w>
oni es.</w>
one- hundred-
on- the-
on o
on ion
on ic</w>
on i</w>
on es</w>
on ed.</w>
on al</w>
on ...?</w>
on 's.</w>
om a</w>
oly mp
ologi sts</w>
olog y.</w>
old- fashion
ol s</w>
ol er
ol a</w>
oke y-do
oka y</w>
oka y.</w>
ok ...
oh ...</w>
off s.</w>
off end
off ...</w>
od d</w>
oct ob
oc ular
oc curren
obvi ous
ober fel
ob noxi
ob li
ob edi
o. k
o' ke
o'ke ef
o' conn
o ta,</w>
o so
o sco
o scar
o mo
o ma
o la
o id</w>
o gg
o g
o ch
o --</w>
ny a</w>
nut s</w>
nun hei
nu is
now her
now ad
nowad ay
nor wegi
non- smok
no ve
no t.</w>
no stalgi
no sed</w>
no se-
no gg
no body
no --
ninete en-
nin e?</w>
nin e
night g
night ?</w>
night !</w>
nigg er.</w>
nigg er
nic ot
nic e</w>
nic e...
ni t</w>
ni k.</w>
ni g
ni er.</w>
ni c</w>
nex t
new comb
new ber
never the
never min
neu rot
ner s,</w>
neg lig
neg li
neg le
ne y...</w>
ne ur
ne tic</w>
ne pt
ne il
ne ed</w>
ne co
nat ural</w>
narc issu
narc iss
nap al
nam e?</w>
na y.</w>
na w
na il</w>
n. s.
n y!</w>
n t
n our
n n.</w>
n ish</w>
n ing
n il
n ed,</w>
n ast
n ann
n and
n ac
n --
n '</w>
my -</w>
mut in
mut h</w>
much --
mu ss
mu mb
mu ell
mp tion.</w>
mp ,</w>
mouth ?</w>
mou r</w>
motor cycle
motor cyc
mother 's</w>
morn ing</w>
mor tem</w>
mor ris
moo n</w>
monu ment
mon th</w>
mon stro
mon itor
mon gre
mon go
mon ,</w>
momm y?</w>
mole cu
moder n</w>
mo ther.</w>
mo squ
mo re?</w>
mo re,</w>
mo or
mo one
mo ist
mo e
moe bi
mo dul
mo du
mo b
mo !</w>
mmmmmmmm mmmm
mmmm ...</w>
mm m.</w>
mm m...</w>
mm m
mm ing
mm -h
mission s</w>
mission ?</w>
mis understoo
mis su
mis sed</w>
mis e</w>
mira cul
minut e--
minut e
min nes
min ne
min e</w>
min e.</w>
milli on</w>
milit ar
militar y-
mil wauke
mil iti
mil e</w>
micro wa
mick e
micha el
mi yam
mi rac
mi gg
mi e</w>
mi .</w>
mi ...</w>
met ro
met er</w>
met .</w>
mes sen
mer edit
mer cur
mer ced
ment ing</w>
ment ed.</w>
men 's</w>
memor i
mechan ical</w>
meat ball
me yer
me ur
me th
me mp
me mo
me mber</w>
me l</w>
me ek
me c
me ."</w>
mc lu
mc g
mc clu
mcclu ske
mb ur
mb ling</w>
mb les</w>
may n
matthe w
mat ter</w>
mat ely</w>
mat e,</w>
mat ?</w>
mast er?</w>
mas seri
marl bor
mark s</w>
mari ju
mari et
mar se
mar ket</w>
mar il
mar e</w>
mar ath
manufac ture
mann ?</w>
maneu ver
man- eat
man zetti
man tin
man h
manh att
man go
man chest
man "</w>
mali gn
mal e</w>
mal ay
mak es</w>
mak er.</w>
mak er
maho gan
magn et
mag ru
mag ici
mag ed
mad marti
mack el
macfar lan
mac y</w>
mac ne
mac gu
ma y</w>
ma ver
ma ure
ma t</w>
ma mm
ma it
ma inten
ma il?</w>
ma il</w>
ma id</w>
ma h
ma gu
ma gin
ma ge</w>
ma de.</w>
ma cre
macre ad
ma ck,</w>
ma cau
m. p.</w>
m y?</w>
m y...</w>
m ity</w>
m itting</w>
m ical</w>
m ers</w>
m end
m be
ly ric
ly '.</w>
lun ch
luck y</w>
lu thor
lu dic
ludic r
lu ci
lu -
loyal ty
low .</w>
lou isi
lou is
lor ra
lor d.</w>
lor d
look in'</w>
look --
loo mis
lon esom
logi st,</w>
log y?</w>
log y,</w>
lock s</w>
lock s.</w>
lock ...</w>
loc ation</w>
loc ated</w>
lo ving</w>
lo ret
lo ren
lo id</w>
lo g</w>
lo aded</w>
lo ad.</w>
lo ad,</w>
livel i
lin k</w>
lin ed</w>
lin ?</w>
lin !</w>
lik ed</w>
light s...</w>
light ed</w>
light ...</w>
lif t</w>
libr ari
li st.</w>
li s.</w>
li ps</w>
li pp
li mous
li me
li ke.</w>
li est</w>
li e?</w>
li ais
lett i</w>
let s,</w>
let on,</w>
let !</w>
less ly</w>
leg ac
led nov
lea ve
lea der</w>
le vin
le ment
le dge</w>
le dge.</w>
le an
le af.</w>
law .</w>
law ,</w>
laun dro
laun dr
lat r
lar k
lar g
lar e</w>
land scap
land !</w>
ladi es</w>
la v
la plant
la mar
la ine
la id</w>
la ge.</w>
la fay
la cer
la b
la ."</w>
l ur
l on.</w>
l ing...</w>
l ili
l eng
l ath
l ate</w>
l al
kur tz
ku lo
kryp ton
kru eg
kre m
kon ste
kob ay
ko ess
know s</w>
know n</w>
kni fe
kin d,</w>
kil omet
kil led</w>
kil led
kil l</w>
kid s</w>
kid ney
kick- turn!</w>
ki mber
ki e</w>
ki ?</w>
khru sche
key s</w>
ket ch
kent uck
ken sing
ken il
keep ing</w>
ke y?</w>
ke ?!</w>
kar ra
kam p
kam in
k y.</w>
k y,</w>
k s'</w>
k ringele
k ri
k ram
k ok
k le
k es?</w>
k ers.</w>
k are
k ale
k ab
k a?</w>
k a!</w>
just... just</w>
jun ct
judg ed</w>
ju pit
ju are
jor -
jon ath
johnn y</w>
jo y
jo e.</w>
ji zz
ji mbo
jes us.</w>
jes us,</w>
jer em
jeop ardi
jenn y
jelly be
jeffer son</w>
jeff eri
je ze
je an
jas on
jap ane
jan itor
jan ei
jan e.</w>
jan e
jack- o-
jack son
jack ,</w>
ja zz
ja undic
ja eg
ja ck.</w>
j. ,</w>
j on.</w>
j il
j i</w>
j eri
j edi
j agu
j acu
jacu zz
j a,</w>
j ...</w>
iz ed.</w>
iz ed,</w>
ition !</w>
iti es...</w>
iti c</w>
ith er.</w>
itch ?</w>
itali an-
it y-
it s?</w>
it o.</w>
it o
it hi
it h.</w>
it e...</w>
it ate</w>
it 's
it '
ist !</w>
isra el
is n't</w>
is n't
is k
is c
is '</w>
irre lev
ir win
ir rit
ir responsi
invol ve
inve stor
inter fac
intel lect
int elle
int ?</w>
insur re
institu tion
inste ad</w>
inno c
ink .</w>
inhab it
ingen u
ing da
ing ..</w>
ing .'</w>
ing "?</w>
individu al
indi gn
inde fin
inc t</w>
inc k</w>
inc iner
inc ess
in vad
in v
in stig
in stead
in sensiti
in just
in jur
in jun
in hibit
in hal
in fatu
in fam
in ex
inex cus
in door
in ch
in au
inau gur
in --</w>
imp lo
imp eri
imp ati
imbe ci
illu min
ill ino
ill !</w>
il 's</w>
id ing</w>
id al</w>
id a</w>
id 's</w>
ich abo
ice ber
ic o
ic es</w>
ic ed</w>
ic e...</w>
ic e!</w>
ic a</w>
ic a.</w>
ic .'</w>
ic 's</w>
i-i- i-i-
i ve</w>
i ren
i p
i mbal
i gu
i fy</w>
i ff
i chi
i an?</w>
i an...</w>
i a,</w>
i ..</w>
i --i</w>
i --</w>
hus band</w>
hur ric
hundred- and-
hun se
hun ner
hun gar
hu mph
hu man.</w>
hu ble
how -
house wi
host il
horse -
hoo k</w>
holly wood
hol land</w>
hol d,</w>
ho sti
ho mic
ho les</w>
ho le,</w>
ho ag
hitch hi
histor y
hind en
hill ,</w>
hil ar
high land
high .</w>
hi gh</w>
hi gg
hi er
hh ...</w>
hes si
here ....
her self
hen ry</w>
hen der
hello ?</w>
hell o</w>
heart beat
heart ,</w>
headquar ters.</w>
head 's</w>
hea vi
he mming
he im</w>
he h-
heh- he
he el
he ctor
he brew
he ard
he 's...
he !</w>
hawa ii
haw k</w>
haven 't</w>
hat ch
har vest
har na
har le
har cour
har bor
hap pil
handic app
hand y
ham unap
ham mo
hall or
hal le
hal for
hab it
ha wai
ha vo
ha unt
ha un
ha st
ha p</w>
ha ha
h-e h-e
h y</w>
h ound</w>
h i</w>
h ed
h ass
h .
gy neco
gut -
gun .</w>
guar ded</w>
gu y</w>
gu y.</w>
gu y-
gu it
gu ild
gu er
gu ard.</w>
grun e
gru ber
gru b
grow n</w>
grou p</w>
grou p
gro ve</w>
gro tes
gro ss
gro ppi
gri ff
gri f
gri ef
great ...
great -
gre y-
gre en</w>
gre ek
gre ed</w>
gre e
gre at</w>
gre as
grat u
graph ic</w>
gran d</w>
gra y
gra ph</w>
gra mm
gr ound?</w>
gr ound,</w>
gott a</w>
got ta
good y-
good ...</w>
gol it
gol d</w>
go ts</w>
go sh,</w>
go r</w>
go ing...
go ing,</w>
go d.</w>
go d...</w>
go d!</w>
go "</w>
glo b
gla di
girl sc
girl s</w>
gir l.</w>
gir d
gi uli
gi mm
gi m
gi ga
gi c</w>
gi bar
gg er.</w>
get ting</w>
get s</w>
ger tru
ger oni
ger !</w>
geor gin
geor ge
gent ,</w>
gener os
gener al</w>
gen u
gen ce
ge o
ge l</w>
ge ek
ge e
gas ol
gang -
gan 's</w>
gal bra
gabri el
ga w
ga ins
g- g-
g ow
g one</w>
g on</w>
g len</w>
g it-
g i</w>
g el
g ap
g and
g al</w>
g a.</w>
g ...?</w>
g .
ful l
fuck er!</w>
fuck -
fu zz
fu ch
fu -
ft a</w>
fron t
fron konste
fre el
fre d.</w>
fre ck
frankenste in
frank fur
fran chi
fra g
four ,</w>
fort y</w>
form ing</w>
fore st
for mu
for mal</w>
for m?</w>
for m,</w>
for got
for ?</w>
foot print
foo d,</w>
fon tain
fol k</w>
flu ctu
flo y
fli es.</w>
fle e
fla me
fit z
fish .</w>
fire d
fire ?</w>
fir e</w>
finger nail
fin neg
fin d</w>
fin anci
fil m
figh ter
fifte en.</w>
fiel ds.</w>
fiel d's</w>
fic ation.</w>
fi st
fi gg
fi ed...</w>
ff s.</w>
fet eri
ferr ari
fer til
fel t
fed or
fe bru
fe ature
fe ast
fav or</w>
fati gu
fas c
farra gut
far mer
far e</w>
fan ci
fac ul
fab ric
fa x</w>
fa t</w>
fa r</w>
fa ir</w>
f ry
f oul
f o</w>
f its</w>
f ic.</w>
f ang
f ...</w>
f '
ez ?</w>
eyel ash
ey es</w>
ey e</w>
extra vag
extr ater
extrater restri
exper ti
exor c
execu tion
execu ti
exc es
exc elsi
exc ali
ex- co
ex termin
ex t
ex pi
ex pend
ex pan
ex hilar
evol u
every body's</w>
ever ,</w>
evel yn
ev ed</w>
ev e.</w>
ett e?</w>
eti qu
eter nit
et z
et u
esti mate</w>
est e
est ?</w>
es qui
es per
es cal
es ?!</w>
es .'</w>
es -
ero ke
ern ity</w>
erad ic
er y?</w>
er s."</w>
er rand
er i</w>
er ed.</w>
er as
er </u></w>
er :</w>
er ."</w>
er -</w>
er 'n</w>
er '
epi de
enti al
enthusi as
ent it
enni al</w>
enh anc
engine er
ende av
enc lo
enc h</w>
enc ed</w>
en v
en s...</w>
en rol
en dear
en co
emp ty
embe zz
else wher
elop e</w>
elli e</w>
ell en
eli j
electro cut
ele ven</w>
ele ven
ele ment
el y...</w>
el y
el vis
el u
el la?</w>
el hoff
el -
eighty- eight
eight h</w>
egyp ti
eg elhoff
ee </u>
edu cat
edit ori
ed- out</w>
ed ul
ed mund
ed ly</w>
ed itor
ed in
ed gar
ed :</w>
ed -</w>
econ om
eccent ric
eav es
eat h</w>
ear n
e- a</w>
e x</w>
e tic</w>
e m?</w>
e je
e hh
e h
e es
e e!</w>
e ating</w>
e at</w>
e aster
e ?"</w>
e !?</w>
dy sle
dy l
dy a</w>
dway ne
dun o
dun ge
dumb art
du de
du ck
du ch
du -
dro sso
dri ve
dri pp
dr ink</w>
down ?</w>
doub t
dou g
dou c
dor si
dor ,</w>
doo ms
don t</w>
don ov
don e,</w>
domin i
dome stic
dollar s
do w</w>
do s.</w>
do ma
do m,</w>
do gs</w>
do g.</w>
do g-
dmit ri
distra ct
dist res
dist inct
disemb ow
dis rupt
dis honor
dis honest
dis h</w>
dis grace
dis coura
dir ty</w>
dill ing
dile m
dig ni
dig iti
diffic ult
didn't ...
di xi
di vi
di stru
di o
di ed
di e.</w>
di d,</w>
di ap
di alo
di ale
di al</w>
dg e?</w>
dev ast
destro y</w>
descri b
des pic
der ed</w>
demo cra
del mar
del gad
del awa
del acro
delacro i
del a
del .</w>
defin it
dece it
dece ase
dec enc
de x
de witt
de vel
de tri
de struct
de se
de position
de mu
de mean
de gra
de ga
de fu
de cei
de bri
de au
de an
de al</w>
day dream
day ...</w>
dar ry
dani el</w>
dan '
dam n</w>
dal la
da ve
da sh
da i
d. a.
d'am our
d' ve</w>
d' al
d'al g
d ry</w>
d riscol
d ing,</w>
d ili
d ell,</w>
d edic
d ari
d an.</w>
cy ru
cy ph
cy nic
cy lin
cut .</w>
cun ning
cu th
cu sh
cu er
cu b
ctu al</w>
ctor ?</w>
cti c</w>
ct ed.</w>
cru sad
cro ak
crit ici
crit ic
cremat ori
cre di
cre at
cre am
cra b
crab tre
cr m-
cr ick
cr and
coura ge
cour ty
coun t</w>
coun t.</w>
couldn' t</w>
coul d</w>
cou pl
cost ello
correspon d
cor sic
cor ra
cor pu
cor leon
cor cor
cop y
cop e</w>
conver g
control led</w>
cont ag
contag i
consul t
constru ction</w>
const itut
connect ic
connect ed.</w>
connect ed,</w>
congres s
confir m
conf ess
conde mn
concei v
con test
con solid
con sol
con sigli
con quest
con k
con dor
con do
con cu
con cept
con cann
con .</w>
complet el
comple x
compas sion
comm itt
comm er
comm end
comm an
com mon</w>
com ing.</w>
com ed
colu mbi
colo ss
colo r</w>
colo mbi
col d</w>
coff in
coat s?</w>
co re,</w>
co pper
co haag
co d
co b
clo se</w>
cliff or
cli pp
cle m
cle av
clai med</w>
cla ir
circumst anc
circu it
cinc innati
ci a.</w>
chur ch
chu ri
chop ,</w>
chin at
chin am
chin a</w>
chi gro
chi e</w>
check ed.</w>
che t</w>
che mical</w>
che ko
che ck.</w>
char lott
char lie,</w>
char lie
char le
char is
char ge</w>
chang e</w>
champi on
cha ren
cha ir</w>
cha in
cha e
ch u</w>
ch romi
ch ro
ch ore
ch on</w>
ch om
ch ok
ch o.</w>
ch lo
ch ing
ch eroke
ch en
ch ed?</w>
ch au
ch and
ch a.</w>
ch "</w>
cer taint
cep t</w>
cent uri
cell s</w>
cele st
ce ment</w>
cau ter
cath ed
catch er</w>
cat astro
catastro ph
cat ale
casu alt
cas t</w>
cas ab
casab lan
cardi ac</w>
carcin ogen
car lo
car ing</w>
car e</w>
car d</w>
car bon
car b
cant one
cand le
canc el
can' t...</w>
can ni
can adi
can ,</w>
cam e
cam bodi
call ?</w>
call ,</w>
cal lo
cal lagh
ca stor
ca st.</w>
ca se,</w>
ca res
ca feteri
ca -
c y?</w>
c y...</w>
c p
c m
c ly
c lun
c ind
c ici
c ess</w>
c es,</w>
c an.</w>
c age
bye -
by -</w>
but the
but .</w>
but --</w>
burg ...</w>
bur st</w>
bur n.</w>
bun d
bul le
buff o
budd y</w>
bu ster</w>
bu kat
bu g.</w>
bu bble
bru t
broad cast
bro d
bro ck
brit a
bri d
break -
bre tt
bre ed</w>
bre at
bre ad
bre ach
braz ili
brand .</w>
brain ed</w>
bra ,</w>
br ouss
br ing</w>
br ill
br a</w>
boy s.</w>
bow s</w>
bour geo
bour b
bor din
book s.</w>
book ...</w>
book ,</w>
boo tle
bonte cou
bon e.</w>
bon apart
bomb .</w>
bodi es.</w>
boat ?</w>
board s</w>
board s.</w>
board ?</w>
bo th
bo ge
bo b</w>
bo at</w>
bo at.</w>
blow n</w>
bloom ingda
bloo d-
ble s.</w>
ble ek
ble ach
bl unt
bl ing</w>
bit ter
bis hop</w>
bird s?</w>
bir th</w>
bir ming
bin ocular
bill y</w>
bill y-
bil ity.</w>
bi o-
bi mbo
bi jou
bi g</w>
bi an
bi a.</w>
bet el
bes i
ber tr
ber t,</w>
ber t's</w>
ber t!</w>
ber ke
ber g,</w>
ber !</w>
ben nett
bell mo
bell ,</w>
bel t</w>
bel li
behavi or
bee hi
bed s</w>
beauti ful.</w>
beau harna
beau cham
be wilder
be t</w>
be st-
be g
be er.</w>
be cket
be cam
be at.</w>
be ad
be !</w>
bb le</w>
batt ali
bat h</w>
barbe cu
bar tholome
bar ring
bar ren
bar ?</w>
bap t
bank .</w>
band .</w>
ban za
ball gam
ball ,</w>
bal ti
bal led</w>
bal con
bag s</w>
bag ?</w>
bad -
back s.</w>
back ...
back -
bab y.</w>
bab y...
ba' ku
ba za
ba vmor
ba u
ba stal
ba ili
ba ,</w>
b y...</w>
b y!</w>
b lic</w>
b jor
b itt
b est</w>
b en.</w>
b age</w>
b ac
b -</w>
b &
ay a</w>
aw ww
aval anch
auto mobi
aut um
au xili
attra ctive</w>
att enti
ator s?</w>
ator s,</w>
ation s...</w>
ation s!</w>
ation "</w>
ati ve!</w>
ath let
ath !</w>
ate </u></w>
at tribut
at o</w>
at o.</w>
at mo
at ing?</w>
at ho
at ely?</w>
at e-
at a,</w>
at !</w>
ast on
ast h
ash i</w>
ase s?</w>
as syri
as sure
as s.</w>
as s!</w>
as k</w>
arti fici
arte mu
art ill
art ,</w>
art !</w>
arri v
arrang ed</w>
arra ign
arm stron
arm s.</w>
arm s,</w>
arist oc
aren '
are d.</w>
are d,</w>
arch di
arach to
ar son
ar s?</w>
ar s,</w>
ar n
ar ms</w>
ar mor
ar mi
ar maged
ar m.</w>
ar kansa
ar k</w>
ar ily,</w>
ar chae
ar bo
ar bit
appro xi
appre nt
app li
apologi z
ap pra
ap pet
ap parent
ap ie
anti qu
anti gu
ant on
anom al
ano ther</w>
anno y
anni hil
ann ul
ann a...</w>
anim ous</w>
ani mat
ange l</w>
ang le,</w>
anesthesi olog
and- a-half</w>
and er.</w>
anc a</w>
anaest het
an y.</w>
an u
an thro
an o</w>
an g</w>
an e?</w>
an di.</w>
an atom
an ?!</w>
ama ,</w>
am us
am u
am nesi
am nes
am mun
am ent.</w>
am end
am bi
am a</w>
am ...</w>
alway s</w>
alli c</w>
all er
all 's</w>
aliz ation</w>
ali st,</w>
ali mon
ali bi
al tar</w>
al ong</w>
al m
al la
al ity...</w>
al ask
al a</w>
al --
ain ...</w>
ai l</w>
ai ai
ah hhhh
ah h
ah ab
age --</w>
again st</w>
aga inst
ag o.</w>
ag gi
ag es?</w>
ag es!</w>
ag en
af oo
af ,</w>
aer op
adv anc
adul ter
adren al
ad vi
ad ap
ad !</w>
activ ated</w>
act res
acknow ledg
ack er
accor ding
acc id
acc ess
ac tion</w>
ac s</w>
ac le</w>
ac complic
ab sor
ab sent
ab ly.</w>
ab ly,</w>
ab les</w>
a- go
a zi
a ses</w>
a ma.</w>
a j
a he
a g</w>
a f</w>
a de,</w>
a b</w>
a a</w>
a ?
a '</w>
a "?</w>
a "</w>
a ".</w>
a !!</w>
? </i></w>
<u> was
<u> sure
<u> life
<u> it
<u> here
<u> go
<u> don't
<u> can't
<u> big
<u> bad
<u> anything
<u> am
</u> ???</w>
</u> --
</ b>
9 th</w>
9 ?</w>
9 9
8 5
8 00</w>
7- 0
7 ?</w>
7 :
7 6
7 .
6 ?</w>
6 8
6 57</w>
6 -
55 5-
50 .</w>
45 ,</w>
40 ,</w>
4 7
4 5.</w>
4 4
4 3
30 0</w>
3 76</w>
3 65</w>
3 50</w>
3 26</w>
3 ,</w>
28 4</w>
28 0</w>
25 8</w>
25 5</w>
25 4</w>
25 0</w>
25 0
21 .</w>
21 ,</w>
20 ,000
2 ?</w>
2 72</w>
2 66</w>
2 60</w>
2 47</w>
2 45</w>
2 37</w>
2 16</w>
2 11</w>
2 00
19 9</w>
19 6</w>
18 7</w>
18 2</w>
18 1</w>
18 0</w>
18 .</w>
17 9</w>
17 8</w>
17 3</w>
16 2</w>
16 0</w>
15 6</w>
11 .</w>
10 00
1 ?</w>
1 27</w>
1 24</w>
1 15
00 ,000</w>
0 ,</w>
...what ?</w>
...wh ile</w>
...no .</w>
.... you</w>
.... it's</w>
... your</w>
... with</w>
... was</w>
... uh,</w>
... too</w>
... tell</w>
... su
... only</w>
... oh</w>
... now,</w>
... look,</w>
... from</w>
... as</w>
... <u>
.. you</w>
.. i'm</w>
. ?</w>
. &gt;&gt;</w>
-up ?</w>
-in-law 's</w>
---------------- ----------------
-- your</w>
-- you're</w>
-- we're</w>
-- we'll</w>
-- they're</w>
-- there</w>
-- there's</w>
-- one</w>
-- oh,</w>
-- i've</w>
-- get</w>
-- come</w>
-- at</w>
-- as</w>
-- are</w>
- to
- on
- off</w>
- n-
- minded</w>
- just</w>
- john
- hi
- face</w>
- but
- al
's ;</w>
's --</w>
' st</w>
' li
' i
' er</w>
' em.</w>
' cause</w>
' cau
' 4
' "</w>
' !</w>
&lt; &lt;
% .</w>
$ 8
$ 1
"pigg y-back
" yes
" why
" war
" v
" under
" the</w>
" person
" nothing
" my
" mor
" love
" lo
" james
" ho
" heaven
" friend
" frank
" f
" enquir
" cor
" but
" bur
" bor
" ...?</w>
" ..."
! ]</w>
! ..</w>
! ..
! !?</w>
	 y
	 s
	 o
	 i
zzzz zzzz
zz ing</w>
zz ar
zy k.</w>
zu u
zuu l</w>
zomb ie</w>
zo o</w>
zo id</w>
zimm er
zi pp
zi p</w>
zi p
zi o</w>
zi l</w>
zi g</w>
zi e,</w>
zi ?</w>
zer o</w>
zer el
zen egg
ze l</w>
ze e</w>
za "</w>
z y.</w>
z ow
z ook
z one,</w>
z one
z nick</w>
z i</w>
z hi
z es!</w>
z ers.</w>
z el.</w>
z ed?</w>
z e!</w>
z app
z altar
z a's</w>
z a!</w>
yy y
yv on
yu k.</w>
yu c
ys er.</w>
youth ful</w>
yourself </u>.</w>
your s...
your s,</w>
youn ger</w>
youn g.</w>
you-- -
you- know-
you're </u></w>
you're ...
you' ll
you ve</w>
you s</w>
you ?</w>
you ?
you ..</w>
you ...i</w>
you ..
you .
you -</w>
you 'd</w>
you '?</w>
you "</w>
you !
yor gi
yo r</w>
yo ?</w>
yes s.</w>
yes .]</w>
yes ...y
yes ...?</w>
yes --</w>
yes '
yer s'</w>
yel low</w>
year- old.</w>
year s?</w>
year s</w>
year s.</w>
year s!</w>
yeah ...</w>
yeah --</w>
ye p
ye n</w>
ye ck
ye ar.</w>
ye ah</w>
ye a</w>
ye ...</w>
ye -
yard s?</w>
yard ?</w>
yaku sho
y... they</w>
y... i'm</w>
y... but</w>
y-- i'm</w>
y- you</w>
y- o
y- looking</w>
y- go-
y- eyed</w>
y- dru
y- bra
y- boun
y- bab
y- ass</w>
y' s,</w>
y up
y um</w>
y tic</w>
y ss
yss in
y pt
y oo
yoo -
yoo- hoo
y on</w>
y la
y fu
y et...</w>
y es!</w>
y e</w>
y be
y av
y ar
y an</w>
y ah.</w>
y ah,</w>
y a?</w>
y a,</w>
y ?.</w>
y ?...</w>
y </u>?</w>
y ....
y !!!</w>
xx xx
xxxx x
xi s.</w>
xi ,</w>
x u
x es</w>
x en
x ed
x an
xan ad
x -</w>
x 's</w>
x '</w>
wy n.</w>
wy att
wron g,</w>
writt en.</w>
writt en,</w>
writ ing.</w>
writ es</w>
writ ers</w>
writ ers.</w>
writ er?</w>
writ e-
wright ?</w>
wright ,</w>
wright 's</w>
wri gg
wrest l
wra pping</w>
wr ought
wow .</w>
wow ....
wow ...
wow !</w>
woul d-
worth y.</w>
worth y,</w>
worshi pped</w>
worl d</w>
worl d.</w>
worl d-
worl d,</w>
worl d's</w>
worl d'
work s?</w>
work ing,</w>
work ers</w>
work er
work ed.</w>
work ah
workah ol
work !</w>
word s:</w>
wor th?</w>
wor se?</w>
wor m.</w>
wor ds,</w>
wor d?</w>
wood y</w>
wonder ful.</w>
wonder ful,</w>
wonder ful!</w>
wonder ful
won t</w>
woman !</w>
wom en.</w>
wolf gang
wol l
wo- oo
wo-oo h-
wo w</w>
wo men</w>
wo man?</w>
wo ck
witt y</w>
witt y,</w>
witt ed,</w>
witnes ses?</w>
witnes ses.</w>
with in
with ...
with -</w>
with -
wit t</w>
wit t.</w>
wit ness</w>
wit hh
withh ol
wit '
wiscon sin
wiscon s
wink ed</w>
window s
window ...</w>
wind ing</w>
win ston
winston -
win s</w>
win e
win dow</w>
win d.</w>
win d,</w>
win ch
win ,</w>
william son...</w>
willi am</w>
will ing</w>
will ing.</w>
will ing
will ...</w>
wil shi
wil kin
wil bur
wife ...</w>
wif e?</w>
wif e</w>
wi sely</w>
wi se,</w>
wi re?</w>
wi g.</w>
wi en
wi el
wi de
wi ...</w>
why s</w>
whore .</w>
whoo psi
whoopsi da
whoopsida isi
who s</w>
who les
who ...
whitef ol
whist le</w>
whi pped.</w>
whi le.</w>
whi le...</w>
whi le,</w>
wher ever</w>
wher efore
wher e?</w>
what ta</w>
what so
what sam
what ever.</w>
what ?"</w>
what .</w>
what ....
what ,</w>
what 's
what 're</w>
what 'd</w>
wh y?</w>
wh y's</w>
wh y'd</w>
wh y'
wh op
wh ole</w>
wh ol
wh o.</w>
wh ite</w>
wh ati
wh ...</w>
wester n</w>
west ing
wend ol
well-- you're</w>
well- be
well s</w>
well --</w>
wel ty
wel come</w>
wel come.</w>
wel come
weir d</w>
weight ?</w>
weight .</w>
weight ,</w>
ween y</w>
week s.</w>
web ber!</w>
weal th</w>
weal th.</w>
weak nes
we st,</w>
we st!</w>
we s.</w>
we is
we igh</w>
we ed</w>
we ed.</w>
we ed,</w>
we ed
we e</w>
we e.</w>
we ather</w>
we ary,</w>
we aring</w>
we ar</w>
we ak</w>
way s,</w>
way man</w>
way ;</w>
way :</w>
way ...i</w>
way ...
way --</w>
water lo
water ing</w>
water ...
water -
watch ing</w>
watch ing.</w>
wat t</w>
wat son?</w>
wat er...</w>
wat er,</w>
wat er!</w>
wat ch</w>
wat ch.</w>
wat ch,</w>
wash er?</w>
wash ?</w>
was nt</w>
was n't</w>
was -
warm ing.</w>
ward s?</w>
ward ...</w>
war t.</w>
war s</w>
war p</w>
war n
war med</w>
war -
war ,</w>
want ...?</w>
want ....
want ...
wann a</w>
wan g</w>
walter ...
wallo p.</w>
wall s,</w>
walki e-
walkie- tal
walk s</w>
walk s.</w>
walk in'</w>
walk ers</w>
walk !</w>
wal ter</w>
wal lace</w>
wal l</w>
wal king</w>
wal k.</w>
wal dri
wait s.</w>
wait ing</w>
wait ers</w>
wait er,</w>
wait ?</w>
wait ,</w>
wag on?</w>
wa x
wa ves</w>
wa ves.</w>
wa ver
wa si
wasi 'cu
wa sh.</w>
wa s.</w>
wa re?</w>
wa re,</w>
wa ist
w-w- w-
w yo
w w,</w>
w ro
w rap
w ound.</w>
w op
w on</w>
w ish</w>
w ish,</w>
w ing.</w>
w in'</w>
w ich</w>
w h</w>
w er</w>
w ed.</w>
w e?</w>
w c
w att
w annab
w ander
vulner able</w>
vulner able.</w>
vul v
vul ture
vot ing</w>
vot ed</w>
vor y</w>
vor te
vom it
vol u
vol ta
vol t
vol k
volk sw
volksw ag
vok e</w>
vo y</w>
vo te
vo ir</w>
vo ir.</w>
vo ight
voight -
voight- kamp
vo ice</w>
vo ice
vo cab
vo ?</w>
vo -</w>
vitam in</w>
vision s?</w>
vision !</w>
visi ble</w>
vis ?</w>
viri dian
viri di
vir us?</w>
vir us</w>
viol ating</w>
vio let</w>
vio let.</w>
vinc ent
vinc en
vin y
vin !</w>
view s.</w>
view .</w>
video camer
victor y</w>
vi zz
vi v
vi se.</w>
vi ous</w>
vi le,</w>
vi go</w>
vi et</w>
vi er
vi en
vi ch?</w>
vi ch's</w>
vi a,</w>
veter in
vet ail
verb ati
ver te
ver t.</w>
ver s?</w>
ver mic
ver it
ver ek
ver e
ver dic
ver b</w>
ver and
ver -
vent ric
ven worth</w>
ven tion</w>
ven om
ven g
ven ez
venez u
venezu el
ven de
ven 's</w>
vel y...</w>
ve- in.</w>
ve led</w>
ve il</w>
ve id
ve e</w>
ve ctor
ve ....</w>
ve --</w>
vau devil
vas qu
vari e
var la
vander ho
vander bil
van illa</w>
van ess
valu e</w>
valu able.</w>
valid ate</w>
vali d</w>
val do
val ?</w>
val !</w>
vag ab
vagab on
va s.</w>
v- chi
v u.</w>
v u
v ry
vry ko
vryko la
v ou
v ored</w>
v or.</w>
v lo
v ladi
v ity</w>
v int
v ing?</w>
v ine
v in'
v ici
v eder
v ed!</w>
v d</w>
v at
v ass
v as</w>
v ap
vap or
v an?</w>
v a-
v ?</w>
v !</w>
uu ut
uuut e!</w>
ut ton
ut e.</w>
ut ati
use r</w>
use ful</w>
us ?!</w>
us ;</w>
us :</w>
us -</w>
us '</w>
us !!</w>
ure s...</w>
ur s</w>
ur ry</w>
ur o</w>
ur n
ur m,</w>
ur git
ur g
ur bat
ur ban
upse t</w>
up t</w>
up start
up s?</w>
up ri
up gra
up bring
up </u></w>
up ...</w>
up --
up "</w>
unifor m,</w>
uni que.</w>
uni magin
unfaith ful
understand ing</w>
understand .</w>
under stud
under stand</w>
under pant
under ing</w>
under hill
under ground
und sie
undsie b
undsieb zig</w>
unconsci ous
uncle fuck
un tre
un to</w>
un success
un speak
un sol
un sign
un sa
un report
un reali
un profession
un pleas
un offici
un n.</w>
un n
un luck
un it</w>
un invit
un intelli
unintelli gi
un health
un har
un gu
un g</w>
un expect
un dru
un dete
un der</w>
un der.</w>
un deni
un defe
un dead
un da
un control
uncontrol la
un condition
un concer
un comm
un cann
un bear
un be
un awa
un avoid
un adulter
umb il
um s?</w>
um ...
ult :</w>
ul tra
ul s</w>
ul o</w>
ul f</w>
ul d
ul ated</w>
uke mi
uhh ...</w>
uh-hu h.</w>
uh-hu h...</w>
uh-- jefferson</w>
uh- uh,</w>
uh ...what</w>
uh ...we</w>
uh ...i</w>
uh -</w>
ugh ,</w>
ug ly.</w>
ug a,</w>
u. f.
u- n-
u vi
u se...</w>
u sc
u ries</w>
u e.</w>
u d,</w>
u cci
ucci ?</w>
u cc
ucc i</w>
u ."</w>
type ...</w>
type !</w>
ty pho
ty p
ty co
twenty- three.</w>
twenty- eight</w>
twenty- eight.</w>
twenty- after-
twent y-</w>
twent y
twel ve</w>
tw o,</w>
tw ill</w>
tw enti
tut or
turn ing</w>
turn er,</w>
turn -</w>
tur tle
tur no
tur n,</w>
tur bul
tur bin
tunn el!</w>
tun e</w>
tu xed
tu ral</w>
tu ck
tu be
tu ba</w>
tu b
tu al</w>
tt ing</w>
try in'</w>
truth s</w>
truth ...</w>
truck 's</w>
tru man,</w>
tru jil
tru e,</w>
tru e
tru ck!</w>
trouble d</w>
tro po
tro pic
tro p
tril ithi
trigg er</w>
trick s</w>
trick ?</w>
trick .</w>
tri o
tri f
tresp ass
tren tin
tre vor
tre mor
tre mend
tre e
tre blin
transvest ite
transvestite "</w>
transvest it
trans ship
trans mitt
trans ition
trans form
tran sylvani
tran spa
tran sit</w>
train er
train ed</w>
traff ick
traff ic.</w>
tra y</w>
tra y.</w>
tra vest
tra ven
tra u
tra sh</w>
tra pe
tra m
tra je
traje ctor
tra it
tra ding</w>
tra de</w>
tra cked</w>
tra ck?</w>
tra ck.</w>
tra ck,</w>
tra ced</w>
tra ce
tr you
tr y,</w>
tr ough
tr on.</w>
tr on,</w>
tr ink
tr icor
tr e</w>
town 's</w>
tow ard</w>
tour nam
tour ?</w>
tough ,</w>
tou r</w>
tou gh</w>
tou ched</w>
tou ch</w>
tou ch,</w>
torped o
tor s.</w>
tor n</w>
tor i
tor e</w>
top s!</w>
tooth past
too k</w>
too --
too ,</w>
tonight ?</w>
tonight ...</w>
ton sil
ton s</w>
ton e</w>
tomm y</w>
tomat o
tom mass
toler ate</w>
tol d,</w>
tol d
toi let</w>
toge ther,</w>
tob ac
to y</w>
to xic
to tal
to m</w>
to le
to k,</w>
to es</w>
to ed</w>
to day</w>
to day.</w>
to </u></w>
to ...</w>
to ."</w>
tiv ate</w>
tit les.</w>
tit les
tit le,</w>
tit an
tippi- tippi-
tion ist</w>
tion !</w>
tin s</w>
tin o.</w>
tin a</w>
tin ?</w>
tin -
timet ab
times --
time- out
time !</w>
tim es?</w>
tim ely</w>
tight .</w>
tight !</w>
tick s</w>
tick et</w>
tick et!</w>
tick .</w>
tick -to
ti ven
ti ps</w>
ti ps.</w>
ti pping</w>
ti p</w>
ti o,</w>
ti mm
ti m.</w>
ti ju
ti ff
ti eth</w>
ti es...</w>
ti ed.</w>
ti e!</w>
ti al</w>
ti a.</w>
ti -
ti 's</w>
thumb suck
thu gge
throw er.</w>
through .</w>
through ...</w>
thro w</w>
thro tt
three- o-
threat en</w>
thre epi
thre e-</w>
thre e
thra sh
thr il
thousand- dollar</w>
thought ...
though ,</w>
thou se?</w>
thor pe.</w>
thor ne,</w>
thor n</w>
thor az
tho les</w>
this ...this</w>
this -</w>
this -
this ,</w>
this *</w>
this 'll</w>
this "?</w>
thirty- seven
thirty- five</w>
thirte en</w>
thirt y?</w>
thirt y!</w>
thir ty
thir st
thir d...</w>
thir d-
thir d,</w>
think s</w>
think ing...</w>
think ing...
think ing
think ?</w>
think ...
thing s.</w>
thing s,</w>
thing ..
thing --</w>
thing 's</w>
thi est</w>
thi er.</w>
thi e.</w>
thi e
thi c</w>
they' d</w>
therap y</w>
therap ist
ther ner,</w>
ther n</w>
ther mo
ther mi
ther es
ther e.</w>
theor y
theodo si
theo cra
then --
them "</w>
theat ric
the y...they</w>
the y,</w>
the ore
the m</w>
the m...</w>
the l</w>
the ft.</w>
the car
the </u></w>
that .</w>
that ...that</w>
that ..
that --</w>
that 's
that "</w>
thank s</w>
th- th-
th y.</w>
th us</w>
th s.</w>
th or</w>
th ol
th ing?</w>
th ese</w>
th en!</w>
th e,</w>
th aw
th au</w>
th an
th al</w>
th ack
th a?</w>
th a,</w>
th -</w>
th --</w>
tex t
test ic
test ed</w>
terri ble
tern al</w>
teri or</w>
teri or
teres a</w>
ter y.</w>
ter s....</w>
ter ran
ter ms</w>
ter 'n</w>
tent ac
tender -
tend s</w>
ten ance</w>
ten aci
ten ?</w>
ten ...
ten 's</w>
tele phone</w>
tele met
teen y-
ted dy</w>
ted dy
ted "</w>
te sto
testo ster
te st?</w>
te st,</w>
te ous.</w>
te let
telet y
te h
teh ron
te en</w>
te e</w>
te e.</w>
te e,</w>
te ch.</w>
te cat
te ase
te ."</w>
te -
tay lor</w>
tay lor
tax i</w>
tatt oo
tat op
tatop ou
tar ry
tap s</w>
tap e
tap .</w>
tank s,</w>
tam per
tam mis
tammis i
talk s</w>
talent ed,</w>
tal k</w>
tal ent</w>
tal bo
tak es</w>
tak en</w>
taint ed</w>
tain s</w>
tain ment.</w>
tain ed</w>
tag .</w>
tab lo
tab les.</w>
tab le
ta w
ta up
ta ught
ta stic!</w>
ta sh
ta il?</w>
ta il.</w>
ta h
tah iti
ta ch
ta '</w>
t.v. 's</w>
t. v
t. j.</w>
t-t- t-
t- marti
t y...</w>
t weak
t v</w>
t v,</w>
t ul
t u</w>
t t</w>
t sk
t s;</w>
t s...</w>
t ly</w>
t in.</w>
t ill</w>
t i</w>
t edi
t d</w>
t ch</w>
t ation.</w>
t ate.</w>
t ard
t ack</w>
t -</w>
t --you</w>
t 's.</w>
syste ms</w>
syste m</w>
syste m's</w>
synago gu
sympat hetic</w>
sy ru
sy non
synon y
sy mm
symm et
sy ming
sy mbo
swo man</w>
swo man.</w>
swi m</w>
swed ish
swe et</w>
swe ene
swe ar</w>
swayz ak
swal low</w>
sw ore
sw oo
sw ol
sw ing.</w>
sw ing,</w>
sw er
sw at
suzi e
survi ved</w>
surveill ance?</w>
surger y.</w>
surge on</w>
surf ing</w>
support ed</w>
suppo sed</w>
suppo se...</w>
suppli ers</w>
supp lied</w>
superst iti
superi or
super man
super intend
super hero
super fici
sup press
sul f
suit case
suici de
sudd en.</w>
suck in'</w>
suck er.</w>
succu mb
suc ceed
subt let
subpo en
sub sidi
sub sequ
sub mar
su tt
su sie
su san</w>
su ri
su rel
su pre
su n</w>
su ms</w>
su mmer</w>
su mb
su m</w>
su m
su ite</w>
su gg
su gar</w>
su fi
su ez</w>
sty le</w>
stuff .</w>
studi o
stubb or
stu ff</w>
stu dy.</w>
stu ck</w>
stu ck
strun g</w>
struct ure</w>
struct ure.</w>
stru mp
strong ly</w>
stron gh
stron g.</w>
stro .</w>
stri pper
stri p.</w>
stri p
stri king</w>
stret ched</w>
stres s,</w>
stres s
streng th</w>
streng th
street fighter
stre l</w>
stre et.</w>
stre et,</w>
stre am,</w>
stravan av
strat o
strat eg
strang e.</w>
stran d</w>
stra y
stra w</w>
stra u
stra ps.</w>
stra gg
str y,</w>
str ing</w>
str ate</w>
stori es</w>
store ...</w>
stor y?</w>
stor y</u></w>
stor m.</w>
stor ing</w>
stop .</w>
stop !</w>
stoo li
stones ..
ston es</w>
ston es.</w>
ston es,</w>
stock ing</w>
sto w</w>
sto ph
sto l</w>
sto ck.</w>
sto ck,</w>
stimul ate</w>
still ?</w>
stick ing</w>
stick ?</w>
stick .</w>
stick ."</w>
stic ally</w>
sti es</w>
sti en</w>
sti ble.</w>
sti ble
ster y</w>
ster s?</w>
ster s,</w>
ster n</w>
ster ed.</w>
ster ed,</w>
sten s
stel lar</w>
ste ve
ste ps.</w>
ste pping</w>
ste p.</w>
ste in.</w>
ste in
ste er</w>
ste ck
stay ?</w>
state- of-the-
state ment
stat es
start ro
star t</w>
star ling
star kill
stand ,</w>
stan ley</w>
stan ley...</w>
stam ped
stak es</w>
stag ger
stac y</w>
sta in</w>
sta g</w>
sta b</w>
st ry</w>
st one!</w>
st one
st ole</w>
st o</w>
st o.</w>
st itch
st ing.</w>
st ill,</w>
st ical</w>
st ated</w>
st at</w>
st ash
st an,</w>
st alli
st ad
st 's</w>
ssi on.</w>
ssi es,</w>
ss y</w>
ss sh
ss o</w>
ss a</w>
ss a.</w>
ss -i-
sque am
squ id
squ i
squ att
squ al
spread s.</w>
spray ed</w>
spr ing.</w>
spot ,</w>
sport s,</w>
spor t</w>
spor ad
spontane ous</w>
spok es
spok e</w>
spok e.</w>
spoi led.</w>
spo sed</w>
spo ken</w>
spo iled</w>
spo il
splitt ing</w>
splic ed</w>
splen did
spl it.</w>
spin ach</w>
spic oli
spher ic</w>
spher e.</w>
spher e,</w>
spenc er</w>
speed omet
spee ch
speciali sts</w>
speci men</w>
speci fic</w>
speci ally</w>
speak ing</w>
spe op
spe ed?</w>
spe ed.</w>
spark ling</w>
spar azz
spang led</w>
spac e-
spac e,</w>
sp rink
sp ring</w>
sp ou
sp lit</w>
sp lash
sp ite</w>
sp inn
sp in.</w>
sp ill
sp il
sp ice</w>
sp hor
sp here</w>
sp engl
sp ending</w>
sp end</w>
sp aw
sp an</w>
sp an.</w>
sp al
sour ces</w>
sound ing</w>
soul -
sorry ...
sorry ..
sor ry?</w>
sor ry...</w>
sor ry,</w>
soon er</w>
soo th
sonuv abu
sonuv ab
sonof ag
son g
son ...
son -in-law.</w>
son -
sometime s.</w>
sometime ?</w>
someth in'?</w>
somed a
somebod y...</w>
some where</w>
some how</w>
some ...
solu tion</w>
sole mn
sol d</w>
soci al</w>
so... stay</w>
so- cal
so ybe
so vere
so pho
so on.</w>
so on,</w>
so mo
so mm
so lo.</w>
so lo
so l</w>
so do
so di
so bb
so ap</w>
so :</w>
so --
snu ck</w>
snow ...</w>
sno tt
sniff ing</w>
snat ch</w>
snak es
sna p</w>
sn y
sn ag
smok ing-
smo ke
smith son
smit h.</w>
smit h,</w>
smil e</w>
smar test
sm itt
sm en,</w>
sm all-
slow .</w>
slo an</w>
sli m</w>
sledge ham
sleaze ball
sle y.</w>
sle pt.</w>
sle ev
sle ep</w>
sla ving</w>
sla ugh
sla p</w>
sla mm
sla gs</w>
sl ick
skul l
skir ts</w>
skinn y</w>
skinn ed</w>
ski p,</w>
ski es.</w>
ski e</w>
ski ?</w>
skelet on.</w>
ske pt
skat e-
sk y?</w>
sk ra
skra pin
skrapin ov
sk itt
sk ins</w>
sk in.</w>
sk ate
sk a</w>
sixte en-
sixteen- year-ol
six pack
six ...
six !</w>
sister -in-law
sister !</w>
sist ers</w>
sist er</w>
sir lo
sir ...?</w>
sion s?</w>
sion s!</w>
sing er</w>
sincer e.</w>
sinc la
sinc e</w>
sin sk
simul tane
simpli fies</w>
simp le
simm ons.</w>
sil k</w>
sil ent</w>
sil ence</w>
sil ber
signific ant</w>
signific ant.</w>
sight se
sight ed.</w>
sight ,</w>
sig nor</w>
sieg fri
sider s,</w>
side track
sid ney</w>
sid ney,</w>
sid es,</w>
sid er.</w>
sick ?</w>
sick ,</w>
sic k</w>
si ze.</w>
si ven
si ve
si ren
si re
si mon</w>
si mist
si ght</w>
si f
si es.</w>
si er
si e,</w>
si dra
si der</w>
si del
si bly</w>
si ble,</w>
si -</w>
shud der
shu ck
shu .</w>
shrin k</w>
shri ek
shre w
shre dd
shrap n
show s</w>
show ers
show ed.</w>
show bi
shouldn' t</w>
shouldn' t
should '
shoul der
shot ?</w>
shot ...</w>
shot ,</w>
short cut
shor ter,</w>
shop s</w>
shop lift
shop ...</w>
shoo ters</w>
shoo ter,</w>
shoo k</w>
shock ed,</w>
sho ve</w>
sho p</w>
sho el
shoel ac
sho e</w>
sho e,</w>
sho e
sho ck</w>
shit ...</w>
shit 's</w>
shit !!</w>
shir t?</w>
shir t</w>
shir t
ship s...</w>
ship ....</w>
ship ."</w>
shin z
shin e!</w>
shi v
shi pped</w>
shi ft</w>
shi '
shhh h
shell s.</w>
shel f.</w>
she vi
she pher
she ets</w>
she et</w>
she et.</w>
she et
she 'd</w>
shaw ?</w>
shav e?</w>
share .</w>
shar pen
shar ks</w>
shar k</w>
shar k's</w>
shap ing</w>
sham poo
sham e
shaddu p.</w>
shabazz .</w>
shab ba
sha ft?</w>
sh- sh-
sh- hu
sh y
sh rou
sh ore</w>
sh itting</w>
sh ittin'</w>
sh inn
sh ill
sh h.</w>
sh h...</w>
sh ep
sh ell.</w>
sh ed?</w>
sh ed
sh e.</w>
sh e...</w>
sh e...
sh e-
sh au
sh ank
sh all</w>
sh al
sh af
sh a.</w>
sexu al</w>
sex y</w>
sex -
sew ick
seventy- six,</w>
sevente en</w>
sevente en.</w>
sevent y</w>
sevent h</w>
seven -</w>
sett lement</w>
sett le</w>
sett e</w>
ses ;</w>
servic e</w>
serv ant</w>
serv ant.</w>
serious ly.</w>
serge ant</w>
serad ungu
ser ving</w>
ser ve</w>
ser s.</w>
ser s,</w>
ser -
ser !</w>
septe mb
sense /
sens ation
seni or</w>
seni or
sen sibil
sen se.</w>
sen d.</w>
sen ator</w>
selin a</w>
self- portra
self- obses
self- destru
self- control
self- consci
self ish.</w>
self -</w>
sel y,</w>
sel ling</w>
sel l?</w>
sel l,</w>
sel en
sel .</w>
sel !</w>
see k</w>
see ing</w>
see ing-
see ?
sedu ce</w>
sed ."</w>
secu re.</w>
secre t,</w>
secon dar
seas ons</w>
seas on?</w>
seas on</w>
seag ul
sea- gul
se y?</w>
se y!</w>
se x.</w>
se ver</w>
se u
se ts</w>
se ts,</w>
se t!</w>
se mit
se mi-
se ment.</w>
se mant
se m
se is
se ey
se en</w>
se en.</w>
se en
se ed-
se ed
se e,</w>
se dat
se cts</w>
se ctor
se ction.</w>
se c</w>
se c
se at
se aled,</w>
se al
se abo
se a,</w>
se ....</w>
scul pt
scu se</w>
scru tin
scru ff
script s,</w>
scrip t.</w>
scrip t,</w>
screw ?</w>
scre w</w>
scre en</w>
scre en
scre e
scra mbled</w>
scout s</w>
scienti sts.</w>
sci mit
sci ence</w>
schwar zenegg
schu y
school ?</w>
school 's</w>
schoo ly
scholar ship</w>
scho en
schizo phren
schizo phre
schimmel pen
schimmelpen nin
schedu led</w>
sche mat
sch ult
sch me
sch edul
sch e</w>
sch ,</w>
scap ego
sca ven
sc um
sc r
sc it
sc ent</w>
sc ar.</w>
sc an,</w>
sc ab
say in'.</w>
say ?</w>
say ...
saw s</w>
sav ag
saur us</w>
saunder s--</w>
sau ce?</w>
sau ce
satis factor
satis f
sat ch</w>
sat an
sar ris
sar ge
sar ato
sar ah,</w>
sand y,</w>
sand ro</w>
sand !</w>
san' wid
san ti
san sk
san it
sam ura
sam p
sam o
sam e--
sam e,</w>
sal vad
sal tz
sal t</w>
sal az
sal ad
sal ?</w>
sal 's</w>
sal !</w>
sak es.</w>
sak es,</w>
sak e</w>
sak e!</w>
sail or</w>
sail ing</w>
sail !</w>
safe crack
saf et
sadd le</w>
sad ness</w>
sack ed.</w>
sac red</w>
sabot ag
sa y,</w>
sa ving</w>
sa le.</w>
sa ig
sa de.</w>
sa d</w>
sa cked</w>
s... so</w>
s... or</w>
s... my</w>
s... it</w>
s... i'm</w>
s... he</w>
s... '</w>
s... !</w>
s. o.
s. a.
s. ?</w>
s-- you</w>
s-- did</w>
s' ,</w>
s y?</w>
s word
s v
s sh.</w>
s sed</w>
s ra
sra -
sra- i'm-
s q
sq au
s ow
s outh</w>
s my
s mu
s man</w>
s ly,</w>
s link
s light
s lan
s itting</w>
s itter</w>
s itt
s ite.</w>
s it.</w>
s ing?</w>
s ing...</w>
s ing!</w>
s ili
s att
s ary</w>
s art
s ank
s al,</w>
s ag
s ack</w>
s a.</w>
s ???</w>
s ?'</w>
s </u>!</w>
s </u>!!</w>
s ,
s '?</w>
s &quot;
s "?!</w>
s "...</w>
s !!!</w>
ryu ji
ry ;</w>
ry --</w>
rup t</w>
runn ing</w>
runn ing,</w>
run s</w>
run -of-
run-of- the-
rul e</w>
ru thi
ru thers</w>
ru st</w>
ru m.</w>
ru g
ru ck
ru bin
ru ben
roy alt
row ed</w>
rough ne
rosebu d?</w>
rose bre
ros s?</w>
ros ali
room s.</w>
room s,</w>
room 's</w>
roo t</w>
ron ic</w>
ron aut
ron ?</w>
roll ing</w>
roll er
rol ler</w>
rock ing</w>
rock ef
robber y</w>
rob e.</w>
road ?</w>
ro y.</w>
ro y,</w>
ro th</w>
ro th.</w>
ro stop
ro ss</w>
ro ss.</w>
ro ss
ro somo
ro ses</w>
ro ses.</w>
ro sel
ro sco
ro sa
ro po
ro p</w>
ro mul
ro l</w>
ro ed
ro dg
ro d's</w>
ro ck.</w>
ro b</w>
ro am
ro ...</w>
ro !</w>
ritu al</w>
ris on
ris ky</w>
ris k</w>
ris ing.</w>
ris e</w>
ris ?</w>
ring s?</w>
ring s.</w>
ring er</w>
ring e</w>
rin al
right s,</w>
right ...</w>
right --
righ teous</w>
rick y</w>
rick y.</w>
rick s</w>
rick in'</w>
rick 's</w>
ric ted</w>
ric o</w>
ric ide</w>
ric e</w>
ri ver</w>
ri st.</w>
ri st,</w>
ri ses.</w>
ri se.</w>
ri pping</w>
ri p</w>
ri p
ri ot
ri o.</w>
ri min
ri l</w>
ri g
ri ft</w>
ri fied</w>
ri es?</w>
ri er</w>
ri ell
ri dge,</w>
ri der
ri de
ri bus</w>
ri b
ri an</w>
ri ad
ri !</w>
reyn old
revolu tion.</w>
rever end
rett a</w>
rett a.</w>
resu scit
respon sive</w>
respect ,</w>
resol ved</w>
resol u
reser voir
rese ar
res ound
requ is
repu gn
report ed</w>
repor ter
reper cus
repa i
rep ti
reno chro
ren t.</w>
ren t...</w>
ren t-
ren owned</w>
ren ni
renni e...
ren de
rende zv
ren ard</w>
remor se
rememb er!</w>
reli ef
reli able</w>
rel ation</w>
rel ated.</w>
rein hard
rein force
rei mbur
reh abil
regul ar.</w>
regre tt
regre t
regi str
regi stered</w>
reg urgit
reg ard,</w>
refin ed</w>
refer ence</w>
ref resh</w>
red- fla
red --
recru it
recor der</w>
reconc ile</w>
recogni z
reco n</w>
reck on</w>
reck on
recei v
recei p
rebel s.</w>
rebe c
reall y...
reali zed
reali ze
real ity</w>
read y?</w>
read just
read ing</w>
read ers'</w>
reac tion
re- ele
re- animat
re- align
re y,</w>
re warded</w>
re voir
re venge
re st,</w>
re s!</w>
re progra
re pro
re pris
re pre
re pet
re pent
re par
re nov
re ne
re mo</w>
re ly,</w>
re lev
re k</w>
re jo
re gener
re en
re el</w>
re el.</w>
re ek
re dun
redun d
re dres
re distribut
re defin
re deem
re cycle
re consider
re cept
re cap
re boun
re ap
re act
re ."</w>
re -</w>
re --</w>
ration al.</w>
ration al,</w>
rat ing</w>
rat fuck
rat ed.</w>
rat .</w>
rat 's</w>
rasc z
rap es</w>
rang e?</w>
rang e.</w>
rand ,</w>
ranch er's</w>
ran t,</w>
ran king</w>
ran k</w>
ran g</w>
ran d</w>
ran .</w>
ram "</w>
rais ing.</w>
rain ed</w>
rain coat
rain bow</w>
rain bow
radi o-
raci al</w>
rac y.</w>
rabb its</w>
ra zor
ra zin
ra zi
ra y...</w>
ra t</w>
ra spa
ra sh.</w>
ra sh
ra pt
ra pp
ra mp.</w>
ra mp
ra mon
ra mo
ra mi
ra mad
ra ma.</w>
ra ke</w>
ra il</w>
ra id?</w>
ra id</w>
ra id
ra ge.</w>
ra g</w>
ra g-
ra fe
ra ck</w>
ra bin
ra bi
ra ban
ra ...</w>
r. s.</w>
r. a.</w>
r. ,</w>
r ze
r ye
r y-
r ts!</w>
r sv
r ounded</w>
r ound.</w>
r ound,</w>
r on,</w>
r mp
r l
rl ght
r k
r ition
r itch
r ing,</w>
r il,</w>
r ician.</w>
r i</w>
r hi
r hag
r d.</w>
r ative</w>
r ary</w>
r '
quot e.</w>
qui x
qui et,</w>
qui d</w>
quest i
quar ters.</w>
quar rel
quali fy</w>
quad ru
qu ite</w>
qu is
qu in</w>
qu in.</w>
qu eu
qu et,</w>
qu ent
qu e?</w>
qu e!</w>
qu as
qu ain
q .</w>
q -man
q ,</w>
pyra mid
put ,</w>
pur ple</w>
pur g
pup pies</w>
pup ,</w>
pun y</w>
pun ch.</w>
pun ch!</w>
puff s</w>
pu ss</w>
pu mp</w>
pu m-
pu la
pu ke</w>
pu er
puer to</w>
pu blic</w>
pu ber
pt o</w>
psychiatrist !</w>
psych ic
provok ing</w>
provok ed.</w>
protect ed.</w>
prote ction
prote cted</w>
proper ty
proof ?</w>
proof .</w>
pron oun
pronoun ced</w>
promo tion</w>
promi se
proje ct</w>
prof ound
produ cts</w>
produ ction</w>
produ ct</w>
probab ly</w>
prob '
pro st
pro sp
pro phe
pro min
pro hibit
pro fu
pro file</w>
pro cur
pro cra
procra stin
pro be</w>
pro -
pro ,</w>
priv ate</w>
pritch ett
pris on.</w>
print s.</w>
princi pal
princ et
pric ed</w>
pri ze
preys ing,</w>
presump tu
prescrip tion.</w>
pres sure</w>
pres s</w>
pres ence.</w>
pres cott
pres cot
prepa red.</w>
pregnanc y</w>
pregn ant
pre- n
pre va
pre sti
pre sen
pre mon
pre medit
pre c
prai sed</w>
prai ri
pract ice</w>
pr un
pr inter
pr ice</w>
pper 's</w>
pp ol
pow ers.</w>
pow er,</w>
pow der</w>
pow der.</w>
potenti al</w>
post p
possibil ity</w>
posses sed,</w>
pos ition.</w>
pos ition,</w>
port s</w>
port ,</w>
por tho
por k
popul ation</w>
popul ation.</w>
popul ate</w>
popul ar
pop corn
pop cor
pool .</w>
poo l</w>
poo h-
pooh- be
poo f
ponti us</w>
pon g?</w>
pon g</w>
polymer ization</w>
polit ical</w>
polic y.</w>
poli s.</w>
pol yest
pol y-dru
pol ish</w>
pol ici
pol ice</w>
point s.</w>
point ing</w>
pock et</w>
po ts</w>
po t?</w>
po t,</w>
po t!</w>
po st</w>
po sed.</w>
po pu
po p.</w>
po or.</w>
po mm
pomm ero
po mer
po le!</w>
po le
po i
po di
plu m</w>
plu m
plo tted</w>
plent y</w>
please -</w>
pleas ura
plea se.</w>
ple x</w>
ple ad
play in'</w>
play er</w>
play er.</w>
plat in
plat forms.</w>
place ment</w>
place ...
pla y?</w>
pla y,</w>
pla ces</w>
pla ced.</w>
pla ce?</w>
pl y
pl ated</w>
pl ate?</w>
pl ank
pitt sbur
pitch ed</w>
pis s</w>
pis s-
pir e</w>
pir an
pin s,</w>
pin och
pin ch
pill s,</w>
pil lar</w>
pil e</w>
pige on
pie ces.</w>
pie ce...</w>
pie ce,</w>
picture s.</w>
pick ing.</w>
pick -up
pi pe?</w>
pi on
pi g.</w>
pi ed
pi .</w>
phy ll
phy l
phreak ,</w>
phra se</w>
photo cop
phone y</w>
phon y.</w>
phon es</w>
phon es,</w>
phon ed</w>
phon e,</w>
pho to</w>
pho e
phillip pe
philli ps</w>
philli pp
philadel ph
phil harmon
phil anthro
phi bi
phe as
pharma co
ph rod
ph ph
ph ase
ph anto
ph ag
ph ...</w>
ph .
pet ers
pet er</w>
pes simist
persu ade</w>
persu ad
person ally</w>
perpet u
perio dic
peri gn
performan ce</w>
performan ce
perfect ly
perfect ...
perfe ct</w>
percep tion</w>
percent ?</w>
per t</w>
per son</w>
per son.</w>
per sist
per secut
per secu
per s,</w>
per ry
per ple
per ch
per cent</w>
per !</w>
pepper min
people ."</w>
pennsylvani a
penn y!</w>
pender gast
pencil -
pen sa
pen ny.</w>
pen ny
pen ni
pen is</w>
pen ci
pen alt
pen al
pen ,</w>
pel ch
pegg y,</w>
pedi at
ped er
ped d
pedd ling</w>
ped al
pecu liar
pecu li
pearl st
peac e</w>
pe y.</w>
pe mber
pe ep
pe e</w>
pe ck
pe c
pe ak</w>
pay ment
pay ing</w>
pay dir
paul ?</w>
paul ,</w>
pau lie.</w>
pau lie,</w>
pau li
pau l</w>
patter n.</w>
patri ot
patr ici
pati ent.</w>
patho log
pat h</w>
pas t</w>
pas sed</w>
pas s,</w>
part s.</w>
part ner.</w>
part ly</w>
part icip
part ici
paro le.</w>
parent s?</w>
paren t</w>
paratro oper
paratro op
parad o
par t.</w>
par son
par li
parli am
par isi
par an
paran or
par am
par ais
par adi
par able</w>
par a
pap er?</w>
pap er,</w>
pap a.</w>
pap .</w>
pant s!</w>
panc re
panc ak
pan hand
pam el
pale o
pal s,</w>
pal mer
pak ist
pak ees
pair .</w>
paint ing</w>
pack ing</w>
pack ing.</w>
pack ed.</w>
paci fi
pa ws</w>
pa vil
pa s.</w>
pa ja
pa ir</w>
pa int</w>
pa ink
paink ill
pa in.</w>
pa id</w>
pa est
pa cks</w>
pa 's</w>
p. m.</w>
p- out</w>
p seu
p s!</w>
p ru
p oul
p ough
pough keep
p neu
p m.</w>
p low
p it.</w>
p ish
p ing.</w>
p ing-
p atter</w>
p att
p ated</w>
p ate</w>
p ann
p ank
p anic</w>
p and
p an.</w>
p al?</w>
p al.</w>
p age,</w>
p a.</w>
own s</w>
own ?</w>
owit z</w>
owit z,</w>
ow l?</w>
ow l</w>
ow ing</w>
ow ed</w>
ow ed.</w>
ow e</w>
over jo
overjo yed</w>
over hear
over he
over du
over do
over come</w>
over ?</w>
over ...</w>
over !!</w>
ov as
out- of-</w>
out ta
out s.</w>
out ed</w>
out ."</w>
ous ness,</w>
ous ."</w>
ous "</w>
our s</w>
ound s</w>
oun ge</w>
oul d</w>
ough .</w>
ou red</w>
ou la
ou fla
ou d
ou ch!</w>
other wise
ot on
ot o</w>
ot ards.</w>
ot a</w>
oswal d?</w>
oswal d
ort ed</w>
orph an
ori s</w>
ori eg
ori c</w>
organ ize</w>
organ ic-
org y</w>
org ani
ore gi
ore g
ore d...</w>
ore ,</w>
order s--
or y?</w>
or y!</w>
or tho
or sin
or s?</w>
or land
or la
or der</w>
or dell
or da
or bit
or b
or an
or a.</w>
or ...?</w>
or ....</w>
opti mis
opin i
opi a
operation al.</w>
oper ative.</w>
oper ational</w>
oper ated</w>
oper ate.</w>
oper at
oper a</w>
open ing</w>
op us</w>
op us.</w>
op t
op s?</w>
op posed.</w>
op h</w>
op en-
oooo o
oon s?</w>
ool .</w>
oo r</w>
oo on
oo m</w>
oo h,</w>
oo 's</w>
only "</w>
oni a</w>
one- two-
one- in-
one y!</w>
one the
one l</w>
one ;</w>
one :</w>
one ...?</w>
one ."</w>
one 's.</w>
one '</w>
once -in-
once -
on on
on om
on o.</w>
on i.</w>
on er</w>
on a</w>
on a.</w>
on ?!</w>
on ?
on ;</w>
on ....</w>
on ."</w>
on 't</w>
on 's,</w>
on '</w>
ome lett
om y</w>
om s</w>
om ni
om e.</w>
om ,</w>
ologi st,</w>
ologi st
ol o</w>
ol der
ol d...</w>
ol d,</w>
ol at
ol ar
ol ,</w>
oklaho ma</w>
oklaho ma-
okay... see</w>
okay ...</w>
okay "</w>
ok ?</w>
ok .</w>
ohh h,</w>
oh s</w>
oh my
offic er
offen ded</w>
off s...</w>
off s,</w>
off ice</w>
off hand
off ending</w>
of --
of ,</w>
ode tt
octob er.</w>
oce an</w>
oce an
occupi ed</w>
occup ational</w>
obe y</w>
ob stac
ob sc
ob liter
ob itu
o. r.</w>
o. d.
o. c.
o. ?</w>
o. ,</w>
o- r-
o- o!</w>
o' reill
o' con
o' -
o y</w>
o vich</w>
o ved</w>
o ve
o u</w>
o to,</w>
o to
o tis</w>
o stri
o sak
o ph
o man</w>
o ma.</w>
o leg
o k</w>
o ji
o int
o iled</w>
o il
o ids</w>
o id.</w>
o gra
o des
o d'
o bre
o biolog
o bi
o as
oas is
o ....
o -</w>
o --
o 's.</w>
nut s!</w>
nut rition
nut ?</w>
nur ture
nur se</w>
number ed</w>
number -
nu wand
nu p</w>
nu ke</w>
nu ke
nu de</w>
nu d
now :</w>
now -
now !</w>
notic ed.</w>
not es</w>
not e.</w>
not --</w>
not !</w>
normal ?</w>
norm ally</w>
norm al.</w>
nor vil
nor the
nor th-
nor ring
nor man
nood le</w>
non- fic
no- no-
no t?</w>
no t-
no t,</w>
no les
no in
no ....</w>
no --</w>
no !
nn n
nn ...</w>
nn !</w>
nitro -
nit rat
nir van
nir d
nird ling
ninet y.</w>
nin er.</w>
nin e...</w>
nightma re.</w>
night mare</w>
night ing
night clu
night ...</w>
night -
nigg er,</w>
nico i
nick s</w>
nick el</w>
nick 's</w>
nich ol
nic co
ni s</w>
ni p</w>
ni ko
ni k</w>
ni hil
ni gh
ni ger
ni ft
ni etz
ni ent
ni el
ni e's</w>
ni ag
ni ...</w>
ni -
ni ,</w>
ni !</w>
newspap erman</w>
newspap er
new ton</w>
new t</w>
new t.</w>
new me
new com
new co
new .</w>
nevermin d.</w>
never ?</w>
never ....</w>
nes ses</w>
nes s...
nes ...</w>
nes !</w>
ner ve</w>
ner ...</w>
ner !</w>
nept un
nel s,</w>
nek kid
nek hor
neigh bour
neg ati
need le
neck la
necess ar
near -
ne ver.</w>
ne ther
ne o</w>
ne o-
ne mes
ne ither
ne cro
ne bu
ne bra
ne ar</w>
ne ar.</w>
ne ander
neander th
ne a</w>
naz is
naw yeck
naught y.</w>
natur ally</w>
natur ally,</w>
nation al.</w>
nation al
nath ana
nat ure.</w>
nat ash
narcissu s</w>
nano bo
nan ook
nan i</w>
nam es</w>
nam e</w>
nak ed
nag g
nac el
na zis.</w>
na w,</w>
na w!</w>
na vic
na v
na sh
na p</w>
na ils</w>
na ils.</w>
na h</w>
na ck
na --</w>
n- no,</w>
n y-
n t.</w>
n r
n orieg
n oooooo
n oon</w>
n onethe
n ite</w>
n it,</w>
n inten
n int
n et.</w>
n es</w>
n ers.</w>
n ell
n ed?</w>
n ed
n c
n b
n ation.</w>
n ati
n ah-
n ah,</w>
n adi
n ."</w>
n --</w>
mysteri ous...</w>
my sti
my ...
mut ant</w>
mut ant
muss burg
music ?</w>
murder -
mur der</w>
mun ci
multip le</w>
mul van
mul do
mul ated</w>
muhamma d</w>
mu zz
mu sic</w>
mu mbo
mu m.</w>
mu m,</w>
mu g</w>
mu d
mu ck</w>
mu ch.</w>
mr ph
mr ....
mp s.</w>
mp s,</w>
mp ing</w>
mp h?</w>
mp h.</w>
mp er
mp -
movi e</w>
movi e-
move ment</w>
mov ing,</w>
mov es
mouth ed</w>
mouth ...</w>
mouth 's</w>
mouth "</w>
mouth !</w>
mour n
moun th
mou st
mott a</w>
motion ?</w>
motherfucker !!</w>
motherfuck ing</w>
motherfuck er,</w>
motherfuck ah,</w>
mother she
mother s</w>
mother ed</w>
mother ?</w>
mother ...?</w>
mother -fuck
mot to
mosqu it
mos a.</w>
mort gag
mort g
morn ing.</w>
more ...</w>
more ...
more --</w>
mor ti
mor row</w>
mor on.</w>
mor nin
mor gan
mor de
morde cha
mor d
moo se</w>
mont mar
mont an
mont agu
moni ous</w>
money ."</w>
mone y?</w>
mone y-
mon th?</w>
mon t,</w>
mon ster</w>
mon ro
mon opol
mon o
mon nit
mon ke
mon gi
mon es
mones cu
mon do</w>
mon day</w>
mon aster
mon arch
mon ?</w>
mol davi
model ...</w>
mode st
mode led</w>
mode l</w>
mobil iz
mo zar
mo ve</w>
mo tor</w>
mo tive</w>
mo tion</w>
mo ther,</w>
mo tel</w>
mo st.</w>
mo sel
mo red</w>
mo o</w>
mo m</w>
mo li
mo le.</w>
mo las
mo hic
mo dre
mo ,</w>
mo '</w>
mmmm mm.</w>
mm m?</w>
mm m.
mm m-
mm ies.</w>
mm ers.</w>
mm and
mm -
mm ,</w>
mitch ell
mit z
mit ch</w>
mist er</w>
mist er,</w>
mission s.</w>
mission ar
mission !</w>
mis t</w>
mis sy
mis sed.</w>
mis interpre
mis giv
mis fortun
mis fit
mis ery.</w>
mis carri
mis advent
mis -
mir r
minut e...</w>
minut e...
minne apol
mini mal
ming ly</w>
mind ed.</w>
mind ,"</w>
min us</w>
min u
min es</w>
min er
min d</w>
milli on.</w>
milli e,</w>
mill er--
mill .</w>
mill ,</w>
milit ary</w>
mil l</w>
mil dre
midd le</w>
midd le
mid night</w>
mid night.</w>
micro chi
micha el's</w>
mich au
mic ?</w>
mi stri
mi s.</w>
mi ri
mi r</w>
mi mm
mi les.</w>
mi les
mi gu
mi ght</w>
mey er?</w>
mey er</w>
mey er.</w>
mey er's</w>
metho d
meteor olog
metap hy
met s.</w>
met ric</w>
met h</w>
met allic</w>
met al
met abol
met ...</w>
mess age</w>
mes sed</w>
mes o
mes cal</w>
mes cal
mercur y</w>
merchand is
mer ry</w>
mer rick.</w>
mer id
mer cu
mer cer</w>
mer c
ment o</w>
ment ally</w>
ment ."</w>
men stru
men ace</w>
men ac
men ;</w>
men ...?</w>
men ...</w>
men !</w>
memor ial</w>
memor ab
memorab ili
memb ers</w>
memb er,</w>
melo dra
mel t
mel is
mel anch
melanch ol
meet ing</w>
medi oc
med d
meat lo
meas ures</w>
meas ures.</w>
meas ures,</w>
meaning ful</w>
mean ing</w>
mean --
me... so</w>
me mph
me kon
me ir
meir schult
me ga
me ch
me an?</w>
me als</w>
me al</w>
me al
me ?
me ...and</w>
me ..
me --</w>
me "?</w>
me "</w>
mckin ley?</w>
mck end
mcg ann
mc inti
mc gover
mc der
mc conn
mc cle
mber t.</w>
mb ia.</w>
maybe ...</w>
may or
may on
may be,</w>
max well.</w>
mau -
mau- mau
mat z
mat ure</w>
mat to
mat ter?</w>
mat ically</w>
mat ic,</w>
mat hil
mat hi
mat es.</w>
mat es,</w>
mat e?</w>
mat ches</w>
mat ched</w>
mast urbat
mask in
mas s,</w>
marvo sa</w>
marsh mal
marri ot
marri ed,</w>
mark s.</w>
mark et,</w>
mark et
mark ed</w>
mark ?</w>
mark ...</w>
mari ett
margar it
maran zan
maran z
mar y?</w>
mar y.</w>
mar y...</w>
mar y-
mar vell
mar u
mar t?</w>
mar t</w>
mar sch
mar ry</w>
mar ry,</w>
mar one
mar low
mar k.</w>
mar in</w>
mar guer
mar ch</w>
mar c
mar au
maniac s,</w>
maniac al</w>
maniac .</w>
mani fol
mani ac</w>
manage ment
man y</w>
man s?</w>
man s.</w>
man ne
man ic
man i.</w>
man eat
man churi
man ?!</w>
man ;</w>
man ....</w>
man ...
man --</w>
man --
man 's?</w>
mama !</w>
malay si
mal le
mal l</w>
mal fun
mal cont
mal ari
make -
mak er,</w>
majo rett
maj or?</w>
main !</w>
mail box
maid !</w>
magi c</w>
mag ni
mag netic</w>
mag nesi
mag ic
mack er
mack en
machin es</w>
mach is
mach et
macbe th
macau la
mac y?</w>
mac s</w>
mac and
ma yo.</w>
ma x</w>
ma squ
ma son?</w>
ma ser
ma scul
ma s!</w>
ma phrod
ma m.</w>
ma le.</w>
ma king</w>
ma ine
ma ids</w>
ma id.</w>
ma har
ma ge
ma de-
ma de,</w>
ma cro
ma cle
ma car
ma c</w>
m. p.
m. ,</w>
m- da
m- and-
m- 16
m' sieu
m y-
m w</w>
m s.
m r</w>
m ous.</w>
m n</w>
m mel</w>
m ing,</w>
m i</w>
m for
m ess</w>
m es!</w>
m ed...</w>
m ed,</w>
m ?"</w>
m :</w>
m "</w>
ly ing?</w>
ly ing.</w>
ly cer
ly ...i</w>
ly "</w>
ly ".</w>
lux uri
lux ur
lung fish
lun g.</w>
lun dega
lun che
lun ach
lunach ar
luck y--
lu- lu-
lu x</w>
lu st.</w>
lu mumb
lu min
lu m</w>
lu j
lu ck.</w>
lu c</w>
lu c.</w>
loy al.</w>
low er</w>
low en
low ?</w>
low ,</w>
lovel in
love s.</w>
love bir
love </u></w>
lov in'</w>
loui se.</w>
lou is</w>
lou is.</w>
lott a</w>
lori de.</w>
lor e</w>
lor d</w>
look .</w>
loo sele
loo se</w>
loo se-
loo se
loo p</w>
long shank
long ed</w>
long da
lonel in
lon ne
lon i
lon g?</w>
logi st?</w>
logi es</w>
log an.</w>
log .</w>
lock ed.</w>
lock ,</w>
load s.</w>
load ed,</w>
lo vers</w>
lo ver</w>
lo vely</w>
lo ts</w>
lo t,</w>
lo se.</w>
lo ot
lo one
lo ft
lo fi
lo ch</w>
lo call
llll llll
ll ant
ll ...</w>
liver wurst</w>
litt le
litt er</w>
liter ary</w>
listen ed</w>
listen --
list er</w>
lis b
liqu id
ling u
lin ing</w>
lin ess</w>
lin es?</w>
lin es.</w>
lin ed.</w>
lin e...</w>
lin e-
lin da,</w>
limit s</w>
limit ed</w>
limit .</w>
like ...</w>
like ...
lik es</w>
lik e,</w>
light s?</w>
light s</w>
ligh ten</w>
lig an?</w>
lift ?</w>
lifes a
life time.</w>
life for
life ."</w>
life --
lif y</w>
lif e?</w>
lif e,</w>
lic k</w>
li ved</w>
li ve</w>
li ve-
li st,</w>
li pop</w>
li p,</w>
li on?</w>
li on
li fel
li ev
li es,</w>
li er</w>
li er.</w>
li ed.</w>
li dd
li chman</w>
li by
li bb
li b,</w>
li as
li ?</w>
li ...
li... ing</w>
level ,</w>
let ti
let t</w>
let on.</w>
let iti
let ed</w>
let e</w>
let ...</w>
let 's...
less ness.</w>
les h</w>
les '</w>
leon de
leonde gran
leon ard
leng th</w>
len e</w>
leg is
legis l
leg al</w>
ledg e?</w>
led no
lect ures</w>
leav ing</w>
leagu e</w>
lead ers</w>
lead er?</w>
lea p</w>
le y
le x,</w>
le x
le wi
le vo
le vi
le ver</w>
le ut
le ukemi
le ta
le ster
le stat
le op
le ons</w>
le on</w>
le on.</w>
le ment,</w>
le igh
le ic
le gen
le el
le e?</w>
le e.</w>
le e...</w>
le ather
le ast</w>
le ast
le ash</w>
le ad</w>
le ad,</w>
le :</w>
le 's.</w>
lawy ers</w>
lawy er?</w>
lawy er</w>
law ful</w>
lauri e,</w>
laun cel
lau dan
lath rop</w>
late es
lat er</w>
lat er.</w>
lat er,</w>
lat e-
lar ing</w>
lar ge
lar am
lantern s</w>
lanter n</w>
lanter n.</w>
lang .</w>
lang ,</w>
land on.</w>
land ...</w>
lan t.</w>
lan e</w>
lan e,</w>
lan 's</w>
lad y...</w>
lad y,</w>
la- de-
la zzar
la you
la y?</w>
la under
la sting</w>
la st?</w>
la st.</w>
la st-
la ser</w>
la motta</w>
la m</w>
la m
la ir
la in</w>
la h
la go
la d</w>
la d,</w>
la bour
la bo
la ...</w>
l. a.</w>
l- l-
l ton</w>
l s?</w>
l ous
l on?</w>
l ly</w>
l lipop</w>
l ist</w>
l ic.</w>
l ers?</w>
l ers,</w>
l att
l ating</w>
l ank
l ance</w>
l ance.</w>
l anc
lanc el
l '
ky o</w>
kurtz we
ku mar
ku j
kry pt
kru e
kre ut
kre mp
kore tz
kor fin
kon n
kobay ashi</w>
ko sh
ko mmand
knuck le-
know- how
know s-
know n.</w>
know ledge
know ing</w>
knock -
knock- kno
kitt ridge</w>
kis s</w>
kir ke
kir k
king sley.</w>
kind le</w>
kin s?</w>
kin is</w>
kin i</w>
kin der
kin da
kin ?</w>
kin ,</w>
kill ing</w>
kill in'</w>
kill ers</w>
kill ,</w>
kil ogra
kil led-
kidd ing
kid s...
kid di
kid --</w>
kick box
kick ,</w>
ki pp
ki mm
ki ew
kiew ic
kiewic z.</w>
ki e.</w>
key ser</w>
key s.</w>
key s,</w>
key s!</w>
key board
kenil worth
keeper s.</w>
ke y!</w>
ke ith
ke ep</w>
ke bab
kay leigh
kay -
kather ine
kath y</w>
kat mand
kast le.</w>
kar aj
kans as?</w>
kal i</w>
kab ob
ka y</w>
ka y,</w>
ka ren
k. ?</w>
k yn
k s!</w>
k rish
k ow
k ool
k ook
k on</w>
k olar
k nap
k ka
k ite.</w>
k it</w>
k ing?</w>
k ing-
k ick</w>
k ett
k es!</w>
k er,</w>
k en.</w>
k ed
k as</w>
k ama
k af
k --</w>
justi fied</w>
jur gen
junebu g</w>
jun kie,</w>
jun k!</w>
juli a.</w>
ju ven
ju s</w>
ju s'</w>
ju mbo</w>
ju kk
ju gg
ju dy
ju an
journali st.</w>
journal ist</w>
josh 's</w>
joseph ,</w>
jor gen
jon es!</w>
jon es
jok ing</w>
johnn y
john ...
joh n.</w>
jock ey</w>
jock ey
job s,</w>
jo y</w>
jo s</w>
jo ining</w>
jo e--
jo b.</w>
jo b-
jo ani
jizz -mo
ji g
ji ff
jeze bel
jew ish</w>
jew ish
jesus ...
jesus -
jessic a...</w>
jessic a,</w>
jes us?</w>
jes us...</w>
jer ry
jer o
jer k</w>
jer gen
jenny hayd
jen z
jeez ,</w>
je zz
je ho
je e
je anni
je anne
jaw oh
jan it
jan e</w>
james on?</w>
jam ie</w>
jam es</w>
jah 's</w>
jack s.</w>
jack ets</w>
jack et</w>
jack 's</w>
ja y</w>
ja ma
ja i</w>
ja i
ja -
j. 's</w>
j on</w>
j on!</w>
j ing
j ill
j f
j ets</w>
j et?</w>
j ello.</w>
j ed
j '
j !</w>
iz e.</w>
ity ...and</w>
ity ....</w>
itu tion</w>
itu de...</w>
itt y...</w>
itt le.</w>
itor s,</w>
ition s.</w>
ition s...</w>
ition ...</w>
iti mate</w>
iti es:</w>
ith met
itch es</w>
itch ed</w>
itch 's</w>
itali an.</w>
it... it</w>
it's... it's</w>
it z</w>
it ter.</w>
it er</w>
it e?</w>
it ated,</w>
it as</w>
it a?</w>
it a,</w>
it :</w>
it .</i></w>
it --</w>
it 's...</w>
it 's,</w>
it '</w>
it "</w>
ist s.</w>
ist s!</w>
ist ic</w>
ist an
istan bul
issu es.</w>
issu e</w>
isra el</w>
ish ness.</w>
ish ment</w>
ish ed?</w>
is s</w>
is on?</w>
is on,</w>
is m!</w>
is m
is her,</w>
is en
isen how
is a</w>
is a
isa ac
is ....</w>
is ....
is "</w>
irre si
ira ble</w>
ir rational</w>
ir ish.</w>
ir ish,</w>
ir an
ir ,</w>
ion o
ion e</w>
invol ved</w>
invit ation</w>
intu iti
introdu ction</w>
introdu ce</w>
interrupt ed</w>
interfer ence</w>
interfer ence
interest .</w>
inter i
inter face</w>
inter cept
inter ced
intellect u
integr ated</w>
int y</w>
int s</w>
int ric
int ran
int oler
int enti
int el.</w>
int ak
int agli
insul ting</w>
insu bordin
instant ane
inst in
inspect or</w>
insect opia
insan e</w>
inqu is
ink s</w>
ink ?</w>
inher it
ing- a-
ing ra
ing ly.</w>
ing e.</w>
ing a.</w>
ing *</w>
ing ".</w>
inform ed</w>
inform ed.</w>
inform ation
inf id
infid el
inevit able
ine t</w>
ine bri
indu ced</w>
indic ations</w>
indi re
indi gen
indi ans.</w>
indefin it
ind y?</w>
ind ing</w>
ind ent
inclin ed</w>
incess ant
incen di
ince stu
inc rimin
inc our
inc enti
inc ap
in- in-
in' t</w>
in' s?</w>
in' ?!</w>
in' ...?</w>
in' -</w>
in' *</w>
in vinci
in traven
in sure
in struct
in sol
in side.</w>
in scrip
in s...</w>
in o?</w>
in o.</w>
in n</w>
in n-
in land</w>
in ject
in i,</w>
in fo
in fla
in ess?</w>
in es,</w>
in ed,</w>
in do-
in do
in discre
in correct
in corpor
in comprehen
in breed
in a?</w>
in ;</w>
in ...?</w>
in ....</w>
in !...</w>
impro vis
import ant</w>
import ant
imp rison
imp ol
imp lement
imp l
imp etu
imp edi
imp each
imp ai
immi gran
immediatel y!</w>
immedi ate</w>
imbe c
ima ger
ima ge</w>
illu strat
illu sions</w>
illu sion
illeg al
illa s.</w>
illa 's</w>
ill y</w>
ill s.</w>
ill ary</w>
ili ation</w>
ili a?</w>
il y?</w>
il y...</w>
il le?</w>
il ing,</w>
il en
il --</w>
ii j
ii i
ight er</w>
ig o</w>
ific ation</w>
ident ,</w>
ide as
id olat
id o</w>
id eri
id er
id dy</w>
ick ...</w>
ick !</w>
ici t</w>
ice ;</w>
ice "</w>
ic us.</w>
ic ul
ic ep
ic ar
ic als</w>
ic ally...</w>
ic all
ic </u>.</w>
ic !!</w>
iac ,</w>
i... i...</w>
i. a.</w>
i. ,</w>
i. 's</w>
i'm- i'm</w>
i' s?</w>
i v
i ser</w>
i ron</w>
i ppol
i po
i o</w>
i ler</w>
i gor
i go.</w>
i f-
i es!</w>
i er</w>
i ded</w>
i a?</w>
i a...</w>
i </u></w>
i ...i</w>
i ....</w>
i ....
hyster e
hystere ct
hypoth alam
hypo cris
hy mn
husband ?</w>
husband ,</w>
hur t</w>
hur t.</w>
hur ry</w>
hur ry
hunse cker</w>
hundred </u></w>
hundred -</w>
hundre d...</w>
hun ter</w>
hun t?</w>
hun t</w>
hun t.</w>
hun gri
humili ation
hugh es</w>
hu sh-hu
hu mid
hu m,</w>
hu m
hu h?</w>
hu g
hu ff
hu e
hu dd
hu ck
huck le
hu b
how s</w>
how ?</w>
how 've</w>
house keep
house ."</w>
hour s</w>
hour .</w>
hound s</w>
hou se...</w>
hou se!</w>
hou mfor
hospit al.</w>
hospit able.</w>
horri ble.</w>
horn s
hor ses.</w>
hor se</w>
hor se.</w>
hor ror
hor rend
hor n</w>
hor ace</w>
hor ac
hook er
hood ...</w>
honeymo on,</w>
honey cut
honest ly...</w>
hon ored</w>
home search
home r</w>
home ...</w>
hold --</w>
hol y</w>
hol y-
hol lis
hol land's</w>
hol ding</w>
hol ders.</w>
hol d?</w>
hol d...</w>
ho ver
ho tter</w>
ho the
ho t.</w>
ho st</w>
ho pa
ho p?</w>
ho p,</w>
ho mes
ho mb
ho m-da
ho les.</w>
ho le...</w>
ho l</w>
ho g</w>
ho g
ho bo
ho a
ho ,</w>
hmm m...</w>
hmm m,</w>
hmm m
hitch -hi
hit ...</w>
histor y</w>
histor ical</w>
hippi e</w>
hip po
him ...
hill y
hill ?</w>
hil ari
high lin
higg ins,</w>
hid den</w>
hi st.</w>
hi s.</w>
hi p</w>
hi m?</w>
hi m</w>
hi d</w>
hhhh !</w>
hh !</w>
hero do
herodo tu
here... and</w>
here tic</w>
here .
her tz.</w>
her she
her s.</w>
her s,</w>
her o.</w>
her et
her es
her e.</w>
her e!</w>
her bi
her b</w>
her !</w>
hen slow
hen ry,</w>
hen ne
hemor rho
hemor rhag
help ed</w>
hello .</w>
hello ,</w>
hello !</w>
hel mu
hel en
hed ge
heav y</w>
heav y-
heat er.</w>
heart s.</w>
heart fel
heart ed.</w>
hear t.</w>
hear ,</w>
health y,</w>
heal th</w>
headquar ters</w>
head s?</w>
head s.</w>
head s!</w>
head quarter
head ed?</w>
head ...</w>
head -</w>
hea ven</w>
he y</w>
he y!</w>
he s.</w>
he mis
he ist
he ir
he es</w>
he eled</w>
he ?</w>
he -
he *</w>
he 's-
he 's,</w>
he 's
haz ard
hay se
haw ks</w>
haw key
haw k.</w>
haw !</w>
haven 's</w>
has h</w>
hard .</w>
har ry</w>
har l
har e</w>
har a.</w>
happin ess</w>
happin ess
happil y</w>
happi est</w>
happen ed?</w>
happ y?</w>
happ y</w>
hap pen</w>
hann ah</w>
hann ah
handicapp ed</w>
hand som
hand led</w>
hand le
hand ker
han go
han !</w>
hamunap tra
hamil ton</w>
hamburg er</w>
ham let
ham ...</w>
ham 's</w>
ham !</w>
halle luj
hall .</w>
half- a-
hal l</w>
hal ito
hal cy
hal ber
had don
hab e
ha y.</w>
ha ven</w>
ha ut
ha re-
ha re,</w>
ha ir</w>
ha il
ha h!</w>
ha aa
ha ...</w>
ha -
h- h-
h y-bra
h t!</w>
h ru
h ous
h ound?</w>
h ound.</w>
h mmmm
h mm</w>
h itt
h it.</w>
h ine
h indu
h er.</w>
h end
h ed</w>
h ate</w>
h ano
h an.</w>
h an,</w>
h adda</w>
h --</w>
h 's</w>
gy p
gy man</w>
gun s.</w>
gun g-
gun ?</w>
guin ever
gui ded</w>
gues sed</w>
guardi an</w>
guard ?</w>
guard !</w>
gu ys</w>
gu t</w>
gu ev
gu ess.</w>
gu en
guen ever
grun er</w>
gruber 's</w>
gru sinsk
gru esom
grow ed</w>
grou p.</w>
gro z
gro w</w>
gro tt
gro ssi
gro s
gro om</w>
gro om.</w>
gro c
gri er
gri bb
gren ad
green le
great- grandf
great est</w>
gre y
gre w</w>
gre tch
gre g
gre ent
gre ed
gre ase
gravit y?</w>
gravit ational</w>
grate ful
graph s</w>
graph .</w>
grand parents</w>
grand children
grand chil
gran ts.</w>
gran t</w>
gran dio
gradu ate</w>
graci ous,</w>
graci ous
gra y.</w>
gra m
gra ham</w>
gra bb
gr unt
gr itt
gr inn
govern ment</w>
got ta...</w>
gor don</w>
goody- good
good night.</w>
good ness</w>
good ness,</w>
good by
good --
goo se.</w>
goo se-
goo se
goo n</w>
goo de
goo d,</w>
gone ;</w>
gondor ff
gon na</w>
golit syn
gol f
gol don
goddam n</w>
god f
god ...
god 's</w>
go-go- go-go-
go th
go t,</w>
go ph
go ons</w>
go li
go la.</w>
go ing
go in.</w>
go es</w>
go ds</w>
go dammit
go at
go ;</w>
go .....
go 's</w>
glu ed</w>
glen liv
gle as
gla u
gla ss</w>
gla mor
gla des</w>
gl utton
gl er?</w>
gl er.</w>
girl friend</w>
girl friend.</w>
girl ?</w>
girl ,</w>
ging er,</w>
ging er
giga -
gi ving</w>
gi ves</w>
gi ve.</w>
gi t</w>
gi mme</w>
gi es?</w>
gi es.</w>
gi e!</w>
gi e
gi bber
gi bb
gh ten</w>
gh oli
gh et
gh ?</w>
gh 's</w>
gh !!</w>
gge t</w>
gg .</w>
get ty
get tin</w>
get tin'</w>
ger t
ger bil
ger --</w>
geor ge</w>
gentle man's</w>
gent le,</w>
geni us</w>
gener al
gen ital</w>
gen ic</w>
gen ev
gen ...</w>
ge st.</w>
ge ologist
ge off
ge mini
ge ez.</w>
ge ese</w>
ge e.</w>
ge e,</w>
ge ar?</w>
gaw d,</w>
gau ge</w>
gau ge.</w>
gast ro
gas t</w>
gas par
gar ments</w>
gar lic
gar c
gam mon</w>
gam es</w>
gam ble
gal ax
gal ah
gal ac
galac tic</w>
gal a
gal 's</w>
ga z
ga ve</w>
ga s</w>
ga in</w>
ga iij
ga ...</w>
g wendol
g w
g ori
g ook
g n</w>
g es...</w>
g ers.</w>
g ed,</w>
g ator</w>
g ate?</w>
g ate,</w>
g ast.</w>
g ali
g ah
g a,</w>
g -</w>
g 	
fuzz y.</w>
fut ure
fut ter
furi ous
funer al
fun ny</w>
fun ni
fun dra
fun ded</w>
fun d-
ful fil
fuck s</w>
fuck ing...
fuck in-
fuck ers.</w>
fuck er.</w>
fuck ed</w>
fuck .</w>
fuck ....</w>
fu ss</w>
fruit cak
fru it</w>
froz en</w>
froz en,</w>
fron ts.</w>
fron t</w>
fron t.</w>
fron t-
fro st</w>
fright ened</w>
friend ly</w>
friend ?</w>
fri vol
fri day.</w>
free- lance.</w>
fred die
fre sh.</w>
fre q
fre ighter</w>
fre igh
fre e</w>
fre e,</w>
fre e!</w>
fre d,</w>
fre ak</w>
frat er
frater ni
frank ly,</w>
frank lin.</w>
franci s</w>
franc o</w>
fran ca
fran c</w>
fra me</w>
fra me
fourte en</w>
fourte en-
four th</w>
four -</w>
four !</w>
foun tain
forty- five</w>
forsak en</w>
forget t
fore st,</w>
fore ign</w>
for ward</w>
for ty-</w>
for mer</w>
for got</w>
for give</w>
for get</w>
for fe
for ces
for ced</w>
for .</w>
for -</w>
foot steps</w>
foot step
foo th
foo ted</w>
foo d</w>
fon d</w>
fol low</w>
fol k
fol ding</w>
fol d</w>
focu sed...</w>
fo ren
fo li
fo cus
fo am</w>
flow er</w>
flo w</w>
flo pped</w>
fli ght</w>
fli es</w>
fli es,</w>
flexi ble.</w>
fle et
flat ,</w>
flash light?</w>
flaemm ch
fla vored</w>
fla sh</w>
fla sh,</w>
fl y...</w>
fl y-
fl y,</w>
fl at.</w>
fix ...</w>
five- year</w>
five- angel
fit ...</w>
fish in'.</w>
fish ed</w>
fish ba
fish -
fire s.</w>
fire ...</w>
fire -and-
fire -
fire ,</w>
fir st.</w>
fir ing</w>
finish ed?</w>
fing ers,</w>
fing ers!</w>
fing ers
fin n!</w>
fin ished</w>
fin elli
fin e...
fin e
fin ding</w>
fin anc
fin ,</w>
fil th!</w>
fil m</w>
figu red</w>
fight er</w>
figh ter.</w>
fig ure</w>
fift y?</w>
fift y-</w>
fift y,</w>
fift h</w>
fiel ds</w>
fiel d?</w>
fiel d...</w>
fiel d
fid get
fic ations</w>
fi x</w>
fi x.</w>
fi x,</w>
fi ve...</w>
fi ve!</w>
fi n</w>
fi les.</w>
fi led...</w>
fi ji
fi end
fi ed</u></w>
fi brill
fi as
fertil iz
fer nand
fer gu
fema les</w>
felt ...
fellow s--
fellow .</w>
fel t...</w>
fel on
fel low</w>
fel d
feel s</w>
feel ing</w>
feel ing...
feel ing
fedor chu
fed ex
fe w</w>
fe w.</w>
fe ver
fe st.</w>
fe minist
fe l</w>
fe et?</w>
fe ene
fe e.</w>
fe e
fe ct
fe at
fe asi
feasi ble.</w>
fe aring</w>
fe ared</w>
father ?</w>
fat al</w>
fat al
fat -
fat ,</w>
fast -
fashion ed</w>
fashion able</w>
fasc ist</w>
fas ci
fart ?</w>
fantast ic
fantas y</w>
familiar ity</w>
famili ar</w>
famil y,</w>
fall s,</w>
fall ,</w>
fal k
fair y</w>
fair .</w>
fail -
factor y.</w>
fac tor</w>
fac t</w>
fac ing</w>
fac ed.</w>
fac e?</w>
fac e-
fabri zi
fa zel
fa wc
fa st?</w>
fa re?</w>
fa re.</w>
fa ith</w>
fa eri
f. b.
f y.</w>
f ters</w>
f rown
f rickin'</w>
f ric
f res
f r
f ought</w>
f ly</w>
f itting</w>
f its.</w>
f illing</w>
f est</w>
f er</w>
f ence
f ed</w>
f att
f ate
f an-
f ad
f --</w>
ez e.</w>
ez !</w>
ey s</w>
extre m
extra pol
extra d
expres s</w>
expo sed</w>
expo sed
explo itation.</w>
explo it
explo d
expla ined</w>
expla in</w>
experienc ing</w>
experienc ed</w>
experi ment
experi ence</w>
exper t</w>
expen sive</w>
expen sive,</w>
expe cted</w>
exor ci
exist ing</w>
exhau st
exer c
execu tive</w>
excu se</w>
exchang ing</w>
excell ence</w>
excali bur
exc ited</w>
exam ined</w>
exam ine</w>
ex- husband</w>
ex u
ex tro
ex tin
ex ternal</w>
ex quis
ex ist</w>
ex i
ex cre
ex cept
ex cav
ex ?</w>
ew !</w>
everything 's</w>
every one</w>
ever -</w>
even ing</w>
even .</w>
ev il,</w>
ev ic
ev ade</w>
ev a
eu r</w>
ethan ...
eth ical.</w>
eth ?</w>
etern ity</w>
et to
et ra
et er</w>
et ary</w>
estimat ed</w>
establish ment.</w>
establ ishing</w>
establ ish</w>
est im
est hetic</w>
est er</w>
est ee
esper an
eso me?</w>
eso me,</w>
escor t</w>
esco bar
escap e
es y</w>
es s...</w>
es pion
es ki
es i</w>
es i
es ?
es </u></w>
es ...you</w>
es .
es -</w>
es ---</w>
es "...</w>
ers ???</w>
ers :</w>
err a</w>
eri al</w>
erase d.</w>
er y...</w>
er s;</w>
er rat
er p</w>
er oom</w>
er o.</w>
er ge</w>
er d
er ase</w>
er ?!</w>
er .'</w>
er 's
er 'll</w>
er !"</w>
equ al
epi le
ent rap
ent ly,</w>
ent ity.</w>
ent ic
ent ering</w>
ent er</w>
ent ennial</w>
ent ed</w>
ent ang
enn y</w>
eni um</w>
engin e?</w>
engin e</w>
engage ment</w>
eng aged</w>
energi ze.</w>
ener get
ene my
endang er
end ings</w>
end ing?</w>
end er.</w>
end ent</w>
end ar
end a</w>
enclo sed</w>
enchant ed</w>
ence ;</w>
enc ryp
enc ing</w>
enc es!</w>
en zy
en y,</w>
en vy.</w>
en or
en na's</w>
en light
en ing.</w>
en e</w>
en der?</w>
en ...?</w>
en ."</w>
en 's.</w>
emp tin
emp ha
emerg ency?</w>
emerg ency</w>
emer al
embarrass ing,</w>
emb ed
em ...</w>
elo qu
elli e...</w>
elli .</w>
elli ,</w>
ell y</w>
ell s
ell ing</w>
ell er,</w>
ell ...</w>
elimin ated</w>
elimin ated.</w>
eli gi
eleg ant,</w>
elect .</w>
ele r</w>
ele k
ele ction</w>
ele ction
el su
el ler</w>
el it
el f
el en
el der
el bour
el ap
el adi
el abor
el a
el -</w>
eighte en-
eight ,</w>
eigh th.</w>
ei le
ei ch
ei -</w>
ehh ...
egg .</w>
eg ypt
eg o</w>
eg g</w>
effe cts</w>
effe cti
ee u
ee l</w>
educ ational</w>
educ ated</w>
edin bur
ed- off</w>
ed- in</w>
ed mun
ed e</w>
ed die
ed ?"</w>
ed </u>.</w>
ed ..</w>
ed ...just</w>
ed ...i</w>
ed ..."</w>
ed !"</w>
eck hard
eaves dropp
eat en</w>
eas y.</w>
ear ned</w>
ear -
e-- you</w>
e-- the</w>
e-- like</w>
e-- but</w>
e-- -</w>
e- wise.</w>
e- ee
e- e-
e- bo
e- a-
e ze</w>
e y!</w>
e vil</w>
e ve!</w>
e th.</w>
e quest
e po
e ons</w>
e mor
e ment</w>
e ment.</w>
e man
e jac
e ither</w>
e isenhow
e inste
e hr
e h?</w>
e h</w>
e h...</w>
e goti
e eri
e ast.</w>
e art
eart h</w>
e ared,</w>
e ach</w>
e ....
e 's.</w>
e 're</w>
e '</w>
e '
e !!!</w>
dysle xi
dynam ic</w>
dy ed</w>
dwi ght
dwar f
dut y,</w>
dur n
dun bar</w>
dul l
du- du-
du val
du s</w>
du qu
du mmy</w>
du h...</w>
du gan
du .</w>
drun ker</w>
dro ps</w>
dro pping</w>
dro p
dri ving</w>
dri ver</w>
dri ver.</w>
dri ver,</w>
dri ven</w>
dri ve?</w>
dres sed.</w>
dre yfu
dre x
dre w</w>
dre n</w>
dre i
dre ad
draw n</w>
dracu la
dra w.</w>
dra matic.</w>
dra gs</w>
dra ft</w>
dr y-
dr .</w>
doz en</w>
down s</w>
down ...</w>
down -
dow ell</w>
dou che
dou ble</w>
dor mit
dor f</w>
dor e</w>
door s,</w>
door --
donn a.</w>
done gh
don't ...
don' t-
don' t,</w>
don e.</w>
don a
don ...</w>
dollar s</w>
dollar -
dol l.</w>
dol l
doing ?!</w>
dog 's</w>
does nt</w>
does -
doctor -
doc ,"</w>
doc !</w>
do- you-
do- do</w>
do vetail
do t
do ssi
do r</w>
do o</w>
do m
do ing.</w>
do ing,</w>
do in'</w>
do g?</w>
do g</w>
do g,</w>
do e</w>
do d
do ctor</w>
do c</w>
do bis
do bb
do ...</w>
do ."</w>
do '</w>
divor c
diver sif
distri bu
dist ill
discu ss
discover ed</w>
disclo sed</w>
disappear ing</w>
disappe ar.</w>
dis t</w>
dis si
dis ser
dis satisfaction.</w>
dis patch
dis ney
dis h.</w>
dis crimin
dis cor
dis co
dis ci
disci ple
dis cer
dis c
dis av
dis allow
dis agree
dis ab
dire ctors</w>
dire ction</w>
diplo matic</w>
diplo mac
din o</w>
dimen sional</w>
dili g
dil ut
dig it
differ enti
differ ent?</w>
differ ent.</w>
diff el
diet ici
die bol
diebol d?</w>
did nt</w>
did n't</w>
dic tion
diale ct
di z</w>
di z,</w>
di x
di vin
di ve</w>
di stor
di s</w>
di p
di mp
di m
di gging</w>
di d?</w>
di d.</w>
di aph
diaph rag
di ,</w>
di 's?</w>
develop ed</w>
devel oper
detri mental</w>
desper ately</w>
desper ad
design ed</w>
deser ving</w>
deser ve</w>
dese cr
desc ending.</w>
des p
des irable</w>
des ideri
des alv
des ...</w>
des !</w>
der ella</w>
der e
der ang
der !</w>
deplo y
dep th</w>
denti st
dent on
deni al.</w>
den se</w>
demon strat
demo graph
delu ded</w>
delinqu ent
deliber ately</w>
deli ri
del il
del ici
del an
del ?</w>
degre e</w>
defin iti
defend ant
defen se
dedu cti
deducti ble</w>
dedic ated</w>
decla red</w>
decid ed.</w>
deci ded</w>
deci bel
decep tion
dece mb
debor ah</w>
debbi e
deb tor
deau x</w>
death -
death ,</w>
deal ing</w>
deal :</w>
dead ...
dead -
dead !</w>
de- cap
de z.</w>
de w</w>
de ver
de ut
de terior
de ten
de pu
de pt
de priv
de pin
de pic
de pen
de o</w>
de mer
de man
de leg
de grad
de form
de fle
de et
de er</w>
de em</w>
de ee</u>
de cks</w>
de cks.</w>
de cent
de capit
de brief
de bi
de ar.</w>
dd er.</w>
dd -
day s--
day -to-
day 's</w>
daw n</w>
dat e?</w>
dat ab
dat a</w>
dat 's</w>
dar lin
dar li...ing</w>
dar k.</w>
daph ne
dann y</w>
dani el.</w>
danc ing?</w>
danc ing.</w>
danc e?</w>
dan u
dan !</w>
damn !</w>
dam nit
dam ned</w>
dam 's</w>
dal m
dal las
dair y</w>
dah l
dadd y</w>
dad ?</w>
dad .</w>
dad ,</w>
da ve?</w>
da ughter</w>
da re
da r</w>
da maskin
da ff
da "</w>
d. w.
d. c.
d. a.</w>
d. ?</w>
d- car</w>
d' ya</w>
d' s,</w>
d' et
d' ago
d'ago st
d well</w>
d so
d s!</w>
d row
d ren
d m
d ly</w>
d ly.</w>
d ile</w>
d ger
d en?</w>
d ell?</w>
d ell.</w>
d ed?</w>
d den</w>
d ate</w>
d ate.</w>
d ash</w>
d ance</w>
d an,</w>
d ago
d 00-
d ...i</w>
d -</w>
d 's.</w>
d &
cyru s,</w>
cynthi a's</w>
cyc le</w>
cyc le.</w>
cyber -
cut ,</w>
curren t.</w>
cur t
cur se</w>
cur ricul
cul ture</w>
cul tivate</w>
cul t</w>
cul lu
cu p</w>
cu p.</w>
cu p
cu m</w>
cu lar</w>
cu la
cu k
cu ff</w>
cu ck
cu cam
cucam ong
ctor s.</w>
ctor ,</w>
ction ."</w>
ct urn
ct ure</w>
ct ...</w>
ct ,</w>
cryp tograph
cryp to-
cry stal
crush er</w>
crumb s,</w>
cru el.</w>
cru el
crow d
cross road
cross ing</w>
cros so
cros sed</w>
crook ed</w>
croco dile</w>
cro w</w>
cro p</w>
cro m
crm- 1
crit ical</w>
crew man</w>
cred ited</w>
cred enti
creature s</w>
creat ed
cre st.</w>
cre ati
cre ate</w>
cre am?</w>
craz y</w>
craz y.</w>
craw for
cran i
crai g</w>
craft sman
craft ,</w>
crack ers</w>
cra zin
cra sh</w>
cra ig
cra ck</w>
cr yo-
cr yo
cr atic</w>
coyot e</w>
cous in.</w>
courtes y</w>
cour t-marti
cour se?</w>
cour se,</w>
counter -
count ed.</w>
counsel ,</w>
coun ty</w>
could '
cou ple</w>
cou p
cos met
corrup tion.</w>
corrup t</w>
corri dor
corre ction
corre ct.</w>
coron ad
corn wal
cor vis
cor te
cor rupt
cor e</w>
cor di
cor bet
cop s.</w>
coordin ated</w>
cool ?</w>
coo l</w>
convic t</w>
conver ti
conver t</w>
conven tional</w>
conven e</w>
contro ver
contro l</w>
contro l.</w>
contribut ing</w>
contin ent
contamin ation</w>
cont ing
cont ent</w>
cont act
constru ct</w>
const ant</w>
consolid ated</w>
consigli er
consider ably</w>
consci enti
connectic ut
conne ction
congres s--
congratul ations.</w>
congratul ations,</w>
confu se</w>
confir med</w>
confir med.</w>
confid ence.</w>
conf utati
conf isc
conf ident,</w>
conf eder
condition ing.</w>
cond ition</w>
concent r
conceiv able.</w>
conce ited</w>
conce aled</w>
con vul
con undru
con so
con sent
con s</w>
con ju
con gre
con for
con dol
con cor
con ...</w>
comput er</w>
compu ters</w>
complet ely</w>
complet e.</w>
complain ing,</w>
compan y</w>
comp ren
comp on
comp ass</w>
comp ad
comp '
communic ations</w>
commerci ally</w>
command er.</w>
come back
come -on
comb s.</w>
comb ining</w>
comb ed</w>
coman ch
com p</w>
com ing</u></w>
com b</w>
com -
color ad
colo red</w>
colo gn
colle ge</w>
colle ctors</w>
cold- cock
cold- blood
col or,</w>
col lis
col labor
col la
col a</w>
coffe e</w>
coco a</w>
coca -co
coat s.</w>
coat !</w>
coast er</w>
coast al</w>
co- ordin
co w</w>
co w,</w>
co t.</w>
co sm
co s</w>
co re...</w>
co on
co l</w>
co ke?</w>
co ke,</w>
co ke
co itu
co gn
co de</w>
co ax
co at?</w>
co al</w>
cm d
cly de</w>
club ."</w>
clu m
clou d</w>
cloth es
close t</w>
clo ver
clo th</w>
clo th.</w>
clo sed,</w>
clo cks</w>
clo ck</w>
clo -
clo- clo
cliff e.</w>
click ing</w>
cli mber</w>
cli mate,</w>
cli ff,</w>
cli ent</w>
clear ly'.</w>
clear ?</w>
clean ing</w>
clean ing.</w>
cle ar</w>
classi c</w>
claren ce</w>
clar in
clai m</w>
cla ss.</w>
cl itori
cl int
cl ant
ck y</w>
ck s?</w>
ck -</w>
civil ized</w>
citiz en
circum ci
cin nam
cin derella</w>
cin ct.</w>
cigarett e</w>
ci ous</w>
ci a</w>
ci a-
chur ch</w>
chun k
chu ck.</w>
christ y?</w>
christ mas
christ ?</w>
christ ...</w>
christ !</w>
chris t</w>
chri stoph
chri st,</w>
chop .</w>
chocol ate,</w>
cho o</w>
cho lester
cho ke
cho ?</w>
chlor in
chip mun
ching ach
chine se
chin a.</w>
chin 's</w>
chimp an
chill s</w>
children ...</w>
child bir
chil d</w>
chief ?</w>
chick s</w>
chick en-
chick .</w>
chick ,</w>
chicag o</w>
chi t</w>
chi sel
chi e.</w>
chi ?</w>
chest ,</w>
chemi stry?</w>
chee se,</w>
check ing</w>
check ?</w>
che vali
che mist
che l</w>
che ck,</w>
che ap</w>
chaunce y</w>
chau ffe
chart ed.</w>
charli e...
character ist
char ming</w>
char ley</w>
char ging</w>
char ged.</w>
char d</w>
chap ter</w>
chap er
chang ed</w>
chang ed.</w>
chang e,</w>
chamber la
cham ber</w>
chall en
chal k
chair ,</w>
cha in</w>
cha in.</w>
cha !</w>
ch on
ch oke</w>
ch ing.</w>
ch in</w>
ch in-
ch ill</w>
ch i</w>
ch er.</w>
ch atter
ch at.</w>
ch ase</w>
ch ance
ch ak
ch ag
ch ad
ch ...
certi fied</w>
certi fied.</w>
certaint y</w>
certain ly.</w>
centur y,</w>
cent ral</w>
cent er
cent ,</w>
cen timet
cell o</w>
cel lar</w>
ceil ing
ceci l</w>
ce t</w>
ce ment,</w>
ce es</w>
cc a</w>
cauti ous.</w>
catalo gu
catale ptic</w>
cat s'.</w>
cat holic</w>
cat eg
cat at
cat aly
cat a
cata combs.</w>
cat ,</w>
cast ing.</w>
cast av
casin o</w>
cas pi
cas ba
carto graph
carry ing,</w>
carro ts.</w>
care tak
cardi ovas
card en
car ved</w>
car t</w>
car pe</w>
car ly
car lis
car la
car ing...</w>
car av
cap u
cap tain</w>
cap s.</w>
cap oregi
cap abil
cann on</w>
cann ed</w>
cand au
canc er-
can t</w>
can cel</w>
can ce
can ?</w>
can --</w>
can -
campu s...</w>
camer am
camer a,</w>
camer a
cam oufla
cam el
call s</w>
call ing.</w>
call ...</w>
cali ber
cal yp
cal m</w>
cal ...</w>
cak es?</w>
cak e?</w>
cak e!</w>
cait lin
cab in</w>
cab bi
cab bag
cab .</w>
ca ve
ca sts</w>
ca stro.</w>
ca str
ca sting</w>
ca ster</w>
ca sed</w>
ca se?</w>
ca se...</w>
ca s.</w>
ca red</w>
ca p</w>
ca f</w>
ca ....</w>
c- 4
c' mon</w>
c unt
c ry,</w>
c mon,</w>
c lan
c ity.</w>
c ities</w>
c ite</w>
c id
c eter
c est</w>
c ess.</w>
c ely</w>
c ell.</w>
c d</w>
c ake</w>
c age</w>
c able.</w>
c .'</w>
c -</w>
c 's,</w>
by gon
buzz ,</w>
butch ered</w>
but to
but ...you</w>
but ,
bust in'</w>
busin ess</w>
bus y?</w>
burn ing</w>
burn ed</w>
burg h</w>
burg ers</w>
burg er</w>
bur rit
bur gers,</w>
bur g,</w>
bur den</w>
bun s</w>
bun k</w>
bun gholi
bun gho
bun ch?</w>
bull shitt
bull shit</w>
bul gar
build ings</w>
build ing
buil d</w>
buck ing</w>
bu zz</w>
bu y</w>
bu y
bu ster.</w>
bu st.</w>
bu s!</w>
bu r</w>
bu mp</w>
bu mp.</w>
bu m</w>
bu li
bu gs</w>
bu g-
bu en
bu cks</w>
bu bber
bu b
bry nn
bru tal
bru sh
bru s
bru ce,</w>
brow n,</w>
brother s</w>
bron f
brok ers</w>
brok en.</w>
brok en-
brock o
broad way</w>
bro ther,</w>
bro m
bro ker.</w>
bro ken
bro iled</w>
bro ch
bring ing</w>
brilli ant
bridge --</w>
bride groom
bri e
bri dge.</w>
bri des
bri de</w>
bri ber
breath ing</w>
breath ,</w>
break ing.</w>
break fast</w>
break er</w>
break ,</w>
bre wer
bre ad?</w>
bran i
brain s,</w>
brain s!</w>
brain iac
bra in?</w>
bra in</w>
bra in-
br ought</w>
br isk
br is,</w>
boys 're</w>
boyfriend ...</w>
boy s</w>
boy friend</w>
boy friend.</w>
boy cott
boy ".</w>
bow l?</w>
bow ,</w>
bour bon
bounc y-boun
bott le.</w>
bot te
bor ne</w>
bor n...</w>
bor n,</w>
bor g.</w>
book --</w>
book !</w>
boo p</w>
boo mer
boo m</w>
boo m!</w>
boo .</w>
boo -
bon i.</w>
bon e?</w>
bon ding</w>
bon an
bomb s.</w>
bol t</w>
bol shevi
bodi es</w>
bod y.</w>
bobb y</w>
boat s,</w>
boat ...</w>
board s,</w>
board ing.</w>
board ers</w>
board -
bo ze
bo y...</w>
bo ss</w>
bo red,</w>
bo re
bo oni
bo o</w>
bo iled</w>
bo gart
bo gar
bo b.</w>
bo ast
bo 's</w>
bo !</w>
blu e.</w>
blow in'</w>
blow -
blon de</w>
blo sso
blo ck</w>
blo ck.</w>
blin d,</w>
ble ed</w>
ble ed.</w>
ble dso
blank .</w>
bla st</w>
bla ke</w>
bla ir</w>
bla de</w>
bla d
bl un
bl is
bl int
bl ing?</w>
bl er,</w>
bl att
bjor n</w>
bitch -
bitch !</w>
bit ten</w>
bit e.</w>
bit ?</w>
bis hop
bir d.</w>
bir d,</w>
bio- readings</w>
bin o</w>
billi on
bill y.</w>
bill y,</w>
bil l</w>
bil ity"</w>
bic yc
bic entennial</w>
bi s</w>
bi kes</w>
bi ke</w>
bi g.</w>
bi en
bi e?</w>
bi anca</w>
bi aly
betwe en</w>
betel ge
bet sy</w>
bet roth
bet a
bet ?</w>
bet .</w>
bes ides,</w>
bes id
ber thier</w>
ber ry,</w>
ber k
ber ing</w>
ber ger,</w>
ber ?</w>
benef ici
benedic t</w>
ben zed
ben evol
ben -
belli ger
bell y-
bell y!</w>
bel veder
bel oved</w>
bel ov
bel lies</w>
bel lied</w>
bel lev
bel itt
bel in
bel der
behavi our
behavi oral</w>
behavi or.</w>
beet le</w>
been ...
bed so
bed ;</w>
becau se,</w>
beautiful ...</w>
beauti ful</w>
bear ers.</w>
be th's</w>
be ow
be mb
be led</w>
be ing</w>
be half
be gin</w>
be g.</w>
be e?</w>
be avi
be arer</w>
be ak
be ...</w>
be ...
bber ing</w>
bath .</w>
bat s</w>
bat .</w>
bat -
bask et.</w>
baseball 's</w>
base ment</w>
bas e</w>
bart lett
barry town</w>
bar ric
bar ret
bar rel</w>
bar rack
bar on.</w>
bar d</w>
bar cal
bar !</w>
bank s.</w>
bank ...</w>
bank !</w>
bang ed</w>
bang !</w>
band -
ball ?</w>
ball ."</w>
ball -and-
ball -
ball !</w>
bal list
bal int
bal d</w>
bal ance.</w>
bak ers
bak er.</w>
bag s.</w>
bag g
bad ge</w>
bad e</w>
bad .</w>
back ?"</w>
babys itter.</w>
bab y</w>
bab y...</w>
bab y,</w>
bab ies
ba zz
ba z
ba y</w>
ba w
ba um.</w>
ba t</w>
ba se?</w>
ba i</w>
ba h</w>
ba ff
ba d</w>
ba ch.</w>
ba ...</w>
b. a.
b s?</w>
b s...</w>
b out</w>
b low</w>
b lizz
b li
b less
b id.</w>
b id,</w>
b i</w>
b ent
b ed,</w>
b ass
b an.</w>
b add
b ...
b "</w>
azi muth</w>
az ione</w>
ay -
ax es?</w>
ax e</w>
awak en</w>
awa ren
aw w,</w>
aw ful</w>
aw esom
aw ,</w>
avail able.</w>
av ing</w>
av id
av a</w>
author ized</w>
author ities.</w>
austri an</w>
aun t?</w>
auditori um</w>
audi ences</w>
au .</w>
au ,</w>
atta ched</w>
ator y?</w>
ator ...</w>
ato mic</w>
ation s;</w>
ation s--</w>
ati .</w>
ath y</w>
ath le
ate "</w>
at us</w>
at tic</w>
at t.</w>
at s!</w>
at ra</w>
at lan
at hi
at e's</w>
at ar.</w>
at a.</w>
at --</w>
ast s?</w>
ast ronaut
assist ant</w>
assign ed.</w>
assho le.</w>
assho le
assa ult</w>
ass wi
ass o</w>
ass -</w>
ass -
ask ing</w>
ask ing...
ask ed</w>
asi de</w>
asi an</w>
ash es</w>
as ses</w>
as ses,</w>
as ses
as sail
as s?</w>
as pi
as pe
as parag
as k.</w>
as in
as cen
as '</w>
arti stic
art ed</w>
arro gan
arrang ing</w>
around --
arm ed.</w>
ark ad
ari um,</w>
ari es.</w>
ari e</w>
ari an
argu ment
aren t</w>
are d?</w>
are </u></w>
ard var
ard u
archdi oce
ar sen
ar se,</w>
ar rr
ar row</w>
ar range</w>
ar ous
ar ound,</w>
ar nol
ar men
ar mani
ar ly
ar ithmet
ar gy
ar g
ar ctic</w>
ar che
ar c
ar a.</w>
appreci ated.</w>
apple s</w>
apple s,</w>
apple ?</w>
appe al
app lied</w>
app le</w>
app ing</w>
apologi ze
apo thecar
apo calyp
apart ment.</w>
ap ric
ap point</w>
ap par
ap ip
ap es.</w>
ap e</w>
ap art</w>
any way,</w>
any one</w>
any one...</w>
any body</w>
any body
any </u></w>
anxi ous</w>
anticip ation</w>
anth ony
ant s...</w>
ant s"?</w>
ant i</w>
ant e</w>
answer ed.</w>
answ ered</w>
anony mit
anni e</w>
ann e,</w>
ann a</w>
ank er</w>
anim ation</w>
ang stro
ang ry,</w>
ang lo
ang er.</w>
ang e</w>
and y</w>
and rze
and er,</w>
and :</w>
and ...and</w>
and -</w>
and 's</w>
ance stor
ance ment.</w>
anc y,</w>
anc es?</w>
anc es,</w>
anarch y</w>
analy st.</w>
analy sis</w>
ana -</w>
an- americ
an y,</w>
an ne?</w>
an ity</w>
an gie.</w>
an e,</w>
an der</w>
an cho
an alys
an alo
an .'</w>
an --</w>
amoun t</w>
amnes ia</w>
americ ans</w>
americ a's</w>
amb ition.</w>
amb iti
am y</w>
am use
am ster
am phibi
am ph
am moni
am ity</w>
am ic
am es</w>
am en
am ar
am !</w>
alway s
alv y,</w>
alter nat
alt itude</w>
alright ?</w>
alright ...
alph a.</w>
alli ance.</w>
alle y
all y--</w>
all en
all a</w>
all ...</w>
all !</w>
ali zing</w>
ali ve.</w>
ali ve
ali st.</w>
ali n</w>
ali ke</w>
ali en</w>
ali ase
ali ,</w>
ale !</w>
alco holic</w>
albani a
alab ama,</w>
al ter</w>
al rlght
al one...</w>
al one,</w>
al led</w>
al ist</w>
al is
al ice.</w>
al ic
al bert</w>
al bat
al ban
al arm</w>
al a
al ....</w>
ak ing</w>
ak a</w>
air port</w>
air lin
air .</w>
ai de.</w>
ai ?</w>
ahhh ...</w>
ah ...
again ...
aga in</w>
aga in.</w>
ag on
ag o,</w>
ag incour
ag er</w>
ag ent</w>
ag e-wise.</w>
afric an-americ
afra id.</w>
affor d,</w>
affir mati
affir m
aff lic
af ter.</w>
af gh
advert is
advent ur
adol ph
admitt ed
adjust ed</w>
adjust ed.</w>
ad voc
ad ult</w>
ad renochro
ad mini
ad la
ad jac
ad a</w>
actu ally</w>
actu ally,</w>
actu all
actu alization</w>
actu al</w>
activ ity.</w>
activ ate</w>
acro ss</w>
acro s
acqui es
acqu itt
acqu ire</w>
ach il
accur ate.</w>
accu racy.</w>
accu mp-
accoun ted</w>
accident ally</w>
accid ent</w>
accept ed</w>
ac y.</w>
ac ts</w>
ac tion.</w>
ac ting</w>
ac ted</w>
ac res</w>
ac re</w>
ac et
ac custom
ac compli
ac .</w>
absolut ely
about ...
about --</w>
abo ve</w>
abo lofi
abo ard
able "</w>
abl o</w>
abil ities</w>
abil ities.</w>
ab yssin
ab stra
ab out.</w>
ab ort
ab normal</w>
ab iding</w>
ab ett
ab dul
ab bot
aaaaaaaaaaaaaaaa aaaaaaaaaaaaaaaa
aaaaaa !</w>
a. m
a. ]</w>
a- s-
a way,</w>
a ware</w>
a w</w>
a ve</w>
a unt</w>
a se?</w>
a qui
a le.</w>
a id.</w>
a head</w>
a ero
a der</w>
a ardvar
a ?!</w>
a 's.</w>
a !
_ you
_ two
_ .</w>
[ you</w>
[ 4
[4 ]</w>
[ 11
[11 ]</w>
?... yeah,</w>
? ...i'm</w>
? !...</w>
<u>you </u>
<u>who </u></w>
<u>shit head
<u>he ard
<u>don't </u></w>
<u> your
<u> worse
<u> work
<u> woman
<u> wife
<u> were
<u> us
<u> them
<u> talk
<u> stag
<u> so
<u> simple
<u> show
<u> shot
<u> she
<u> see
<u> second
<u> say
<u> saw
<u> purpose
<u> possible
<u> please
<u> play
<u> picture
<u> pageant
<u> pa
<u> one
<u> nothing
<u> more
<u> might
<u> maine
<u> love</u></w>
<u> lot
<u> look
<u> left
<u> know
<u> inspi
<u> inside
<u> insectopia
<u> in
<u> i</u></w>
<u> i'm
<u> humiliation
<u> how
<u> him
<u> her
<u> help
<u> have
<u> has
<u> happen
<u> hand
<u> fuck
<u> for
<u> fly
<u> done
<u> doing
<u> did
<u> deee</u>
<u> dead
<u> credit
<u> cash
<u> body
<u> be
<u> back
<u> away
<u> ask
<u> around
<u> all
<i> that
<i> american
</u> -
</i> ?</w>
: 30</w>
90 ,</w>
9- 78
9-78 8
9 th.</w>
9 9.</w>
9 71</w>
9 7
9 4
9 3.</w>
9 2,</w>
9 's</w>
8 :
8 0.</w>
8 -
70 ?</w>
70 1</w>
7-0 ...
7- 11
7 9.</w>
7 74</w>
7 54</w>
7 45</w>
7 4
7 30
7 3
7 2.</w>
7 00</w>
60 -
6. 7</w>
6 9.</w>
6 73</w>
6 7
6 66</w>
6 6.</w>
6 5
6 4
6 30</w>
6 25</w>
6 2.</w>
6 18</w>
6 00</w>
6 0.</w>
50 ?</w>
50 5</w>
50 3</w>
50 -
5 91</w>
5 90</w>
5 7
5 43</w>
5 4.</w>
5 4
5 %</w>
4 94</w>
4 90</w>
4 82</w>
4 80</w>
4 8
4 64</w>
4 6,</w>
4 54</w>
4 50</w>
4 47</w>
4 41</w>
4 4.</w>
4 34</w>
4 26</w>
4 22</w>
4 2.</w>
4 19</w>
4 18</w>
4 17</w>
30 5</w>
30 4</w>
30 3</w>
30 ,</w>
3 94</w>
3 90</w>
3 84</w>
3 8
3 78</w>
3 72</w>
3 7
3 52</w>
3 49</w>
3 47</w>
3 32</w>
3 31</w>
3 28</w>
3 23</w>
3 21</w>
3 1
3 /
3 ...</w>
28 8</w>
28 2</w>
27 ?</w>
250 ,000</w>
25 9-788
25 7</w>
21 -
20 6</w>
20 ,000</w>
2 97</w>
2 93</w>
2 92</w>
2 90</w>
2 79</w>
2 77</w>
2 70</w>
2 67</w>
2 62</w>
2 46</w>
2 40</w>
2 4-
2 31</w>
2 3.</w>
2 26</w>
2 25</w>
2 23</w>
2 20</w>
2 13</w>
2 ...</w>
2 !</w>
195 2
19 98
19 72</w>
19 60
19 5</w>
19 4</w>
19 .</w>
18 8</w>
18 8
17 .</w>
16 9</w>
16 8</w>
16 ,</w>
15 9</w>
15 2</w>
15 1</w>
15 0
15 .
14 63</w>
14 0
13 -
12 ,</w>
11 :
11 ,</w>
10 th</w>
10 54</w>
10 00</w>
10 0.</w>
10 ,000</w>
1- 28
1 :
1 39</w>
1 30</w>
1 155</w>
1 /
00 ?</w>
00 98
0 3
/ and</w>
/ 99</w>
...y es</w>
...y es.</w>
...wher e?</w>
...what sa</w>
...wh y,</w>
...wh y'd</w>
...wh o?</w>
...wh o's</w>
...wh o
...th ought</w>
...th ing?</w>
...no thing.</w>
...no body</w>
.... help</w>
.... god</w>
.... and</w>
.... a</w>
.... .....</w>
... yeah,</w>
... y'know,</w>
... would</w>
... without</w>
... they...</w>
... sort</w>
... some</w>
... see</w>
... s'
... okay,</w>
... of</w>
... me</w>
... make</w>
... look</w>
... little</w>
... listen</w>
... listen,</w>
... jesus,</w>
... how'd</w>
... have</w>
... got</w>
... go</w>
... give</w>
... even</w>
... do</w>
... come</w>
... charlie,</w>
... can</w>
... bob</w>
... &quot;</w>
.. you're</w>
.. where</w>
.. no</w>
.. it's</w>
.. and</w>
.. ...we</w>
.. "</w>
. 99</w>
. 3</w>
. '"</w>
. &quot;</w>
-up s?</w>
-up s</w>
-h a.</w>
-ba sed</w>
-and- a-half</w>
--th ese</w>
--- you</w>
--- and</w>
-- you've</w>
-- with</w>
-- which</w>
-- she</w>
-- said</w>
-- oh</w>
-- now</w>
-- not</w>
-- maybe</w>
-- look,</w>
-- last</w>
-- i'd</w>
-- his</w>
-- has</w>
-- from</w>
-- because</w>
-- an'</w>
-- --</w>
-- '</w>
- you</w>
- type</w>
- time</w>
- pack
- on</w>
- made</w>
- long</w>
- i</w>
- faced</w>
- er</w>
- but</w>
- an-
- all</w>
- a</w>
- 	
,000 ,</w>
, 500</w>
, .</w>
, --
, ,</w>
, 	
* you
* what
* this*</w>
* no
* me
* fight
* are
* --</w>
's ."</w>
'em ...</w>
' yes
' to</w>
' s'</w>
' s!</w>
' round
' nam
' n.</w>
' mis
' love
' joe
' is</w>
' in'</w>
' home
' dis
' deal
' cent
' ay
' a'
' 50
' 11</w>
$3 .
$ 7
$ 5
$ 180
"my riad
"k ane
" you</w>
" yeah
" worm-
" wintermut
" weird
" we
" want
" us
" they
" suck
" sir
" sfor
" saunder
" real
" q-man
" president
" ni
" need
" neat
" mis
" ladies</w>
" jew
" if
" i</w>
" have</w>
" ha
" guest
" goof
" fun
" farm
" exposed
" explor
" do</w>
" deal
" dad
" comp
" chang
" careful
" c
" boy
" bat
" bag
" all</w>
" ahab
" 21
" ...what</w>
! ?
! </i></w>
! .</w>
! "?</w>
! !
	 "
